{
  "version": "1.0",
  "truncation": null,
  "padding": null,
  "added_tokens": [
    {
      "id": 0,
      "content": "<|endoftext|>",
      "single_word": false,
      "lstrip": false,
      "rstrip": false,
      "normalized": false,
      "special": true
    }
  ],
  "normalizer": {
    "type": "Sequence",
    "normalizers": [
      {
        "type": "NFD"
      },
      {
        "type": "Lowercase"
      },
      {
        "type": "StripAccents"
      }
    ]
  },
  "pre_tokenizer": {
    "type": "ByteLevel",
    "add_prefix_space": false,
    "trim_offsets": true,
    "use_regex": true
  },
  "post_processor": {
    "type": "ByteLevel",
    "add_prefix_space": true,
    "trim_offsets": false,
    "use_regex": true
  },
  "decoder": {
    "type": "ByteLevel",
    "add_prefix_space": true,
    "trim_offsets": true,
    "use_regex": true
  },
  "model": {
    "type": "BPE",
    "dropout": null,
    "unk_token": null,
    "continuing_subword_prefix": null,
    "end_of_word_suffix": null,
    "fuse_unk": false,
    "byte_fallback": false,
    "ignore_merges": false,
    "vocab": {
      "<|endoftext|>": 0,
      "!": 1,
      "\"": 2,
      "#": 3,
      "$": 4,
      "%": 5,
      "&": 6,
      "'": 7,
      "(": 8,
      ")": 9,
      "*": 10,
      "+": 11,
      ",": 12,
      "-": 13,
      ".": 14,
      "/": 15,
      "0": 16,
      "1": 17,
      "2": 18,
      "3": 19,
      "4": 20,
      "5": 21,
      "6": 22,
      "7": 23,
      "8": 24,
      "9": 25,
      ":": 26,
      ";": 27,
      "<": 28,
      "=": 29,
      ">": 30,
      "?": 31,
      "@": 32,
      "[": 33,
      "\\": 34,
      "]": 35,
      "^": 36,
      "_": 37,
      "`": 38,
      "a": 39,
      "b": 40,
      "c": 41,
      "d": 42,
      "e": 43,
      "f": 44,
      "g": 45,
      "h": 46,
      "i": 47,
      "j": 48,
      "k": 49,
      "l": 50,
      "m": 51,
      "n": 52,
      "o": 53,
      "p": 54,
      "q": 55,
      "r": 56,
      "s": 57,
      "t": 58,
      "u": 59,
      "v": 60,
      "w": 61,
      "x": 62,
      "y": 63,
      "z": 64,
      "{": 65,
      "|": 66,
      "}": 67,
      "~": 68,
      "¡": 69,
      "¢": 70,
      "£": 71,
      "¤": 72,
      "¥": 73,
      "¦": 74,
      "§": 75,
      "¨": 76,
      "©": 77,
      "ª": 78,
      "«": 79,
      "¬": 80,
      "®": 81,
      "¯": 82,
      "°": 83,
      "±": 84,
      "²": 85,
      "³": 86,
      "´": 87,
      "µ": 88,
      "¶": 89,
      "·": 90,
      "¸": 91,
      "¹": 92,
      "º": 93,
      "»": 94,
      "¼": 95,
      "½": 96,
      "¾": 97,
      "¿": 98,
      "Â": 99,
      "Ã": 100,
      "Ä": 101,
      "Å": 102,
      "Æ": 103,
      "Ç": 104,
      "É": 105,
      "Ê": 106,
      "Ë": 107,
      "Í": 108,
      "Î": 109,
      "Ï": 110,
      "Ð": 111,
      "Ñ": 112,
      "Ò": 113,
      "Ô": 114,
      "Õ": 115,
      "Ö": 116,
      "×": 117,
      "Ù": 118,
      "Ú": 119,
      "Û": 120,
      "à": 121,
      "á": 122,
      "â": 123,
      "ã": 124,
      "ä": 125,
      "æ": 126,
      "î": 127,
      "ï": 128,
      "ā": 129,
      "Ă": 130,
      "ă": 131,
      "Ą": 132,
      "ą": 133,
      "Ć": 134,
      "ć": 135,
      "Ĉ": 136,
      "ĉ": 137,
      "Ď": 138,
      "ď": 139,
      "Đ": 140,
      "đ": 141,
      "Ē": 142,
      "ē": 143,
      "Ĕ": 144,
      "ĕ": 145,
      "Ė": 146,
      "ė": 147,
      "Ę": 148,
      "Ě": 149,
      "ě": 150,
      "ğ": 151,
      "Ġ": 152,
      "ġ": 153,
      "Ģ": 154,
      "ģ": 155,
      "Ĥ": 156,
      "ĥ": 157,
      "Ħ": 158,
      "ħ": 159,
      "Ĩ": 160,
      "ĩ": 161,
      "Ī": 162,
      "ī": 163,
      "Ĭ": 164,
      "ĭ": 165,
      "Į": 166,
      "į": 167,
      "İ": 168,
      "ı": 169,
      "Ĳ": 170,
      "ĳ": 171,
      "Ĵ": 172,
      "ĵ": 173,
      "Ķ": 174,
      "ķ": 175,
      "ĸ": 176,
      "Ĺ": 177,
      "ĺ": 178,
      "Ļ": 179,
      "ļ": 180,
      "Ľ": 181,
      "ľ": 182,
      "Ŀ": 183,
      "ŀ": 184,
      "Ł": 185,
      "ł": 186,
      "Ń": 187,
      "Ġs": 188,
      "Ġp": 189,
      "Ġn": 190,
      "Ġv": 191,
      "Ġa": 192,
      "Ġz": 193,
      "la": 194,
      "ov": 195,
      "st": 196,
      "Ġt": 197,
      "ra": 198,
      "ch": 199,
      "ie": 200,
      "Ġm": 201,
      "ne": 202,
      "re": 203,
      "al": 204,
      "Ġk": 205,
      "âĢ": 206,
      "Ġd": 207,
      "om": 208,
      "Ġo": 209,
      "Ġna": 210,
      "ri": 211,
      "Ġpo": 212,
      "en": 213,
      "Ġsa": 214,
      "ho": 215,
      "Ġb": 216,
      "je": 217,
      "ro": 218,
      "at": 219,
      "ko": 220,
      "ci": 221,
      "li": 222,
      "na": 223,
      "to": 224,
      "Ġne": 225,
      "le": 226,
      "ni": 227,
      "Ġu": 228,
      "ed": 229,
      "Ġc": 230,
      "Ġza": 231,
      "Ġje": 232,
      "lo": 233,
      "no": 234,
      ".\\": 235,
      "ka": 236,
      "ny": 237,
      "te": 238,
      "ky": 239,
      "âĢŀ": 240,
      "Ġdo": 241,
      "Ġvy": 242,
      "vo": 243,
      "Ġpre": 244,
      "ti": 245,
      "Ġi": 246,
      "va": 247,
      "mi": 248,
      "si": 249,
      "@@": 250,
      "de": 251,
      "po": 252,
      "âĢľ": 253,
      "Ġh": 254,
      "ta": 255,
      "Ġto": 256,
      "ku": 257,
      "Ġpri": 258,
      "ĠĠ": 259,
      "me": 260,
      "Ġsi": 261,
      "nu": 262,
      "ru": 263,
      "Ġze": 264,
      "ve": 265,
      "zi": 266,
      "di": 267,
      "ce": 268,
      "ke": 269,
      "vi": 270,
      "se": 271,
      "Ġta": 272,
      "Ġbo": 273,
      "ju": 274,
      "bo": 275,
      "Ġro": 276,
      "ova": 277,
      "lu": 278,
      "ja": 279,
      "sti": 280,
      "Ġst": 281,
      "ze": 282,
      "da": 283,
      "Ġma": 284,
      "ali": 285,
      "ĠâĢŀ": 286,
      "ry": 287,
      "do": 288,
      "Ġsom": 289,
      "..": 290,
      "Ġod": 291,
      "Ġmo": 292,
      "za": 293,
      "by": 294,
      "**": 295,
      "sa": 296,
      "Ġkto": 297,
      "Ġch": 298,
      "Ġako": 299,
      "ca": 300,
      "Ġho": 301,
      "el": 302,
      "sta": 303,
      "ÂŃ": 304,
      "vy": 305,
      "âĢľ\\": 306,
      "ma": 307,
      "@@@@": 308,
      "Ġmu": 309,
      "ba": 310,
      "pa": 311,
      "Ġby": 312,
      "Ġale": 313,
      "Ġko": 314,
      "Ġe": 315,
      "Âł": 316,
      "pi": 317,
      "Ġob": 318,
      "Ġnie": 319,
      "Ġco": 320,
      "mo": 321,
      "Ġvo": 322,
      "Ġf": 323,
      "du": 324,
      "Ġte": 325,
      "be": 326,
      "Ġ-": 327,
      "dy": 328,
      "ia": 329,
      "nie": 330,
      "Ġni": 331,
      "nej": 332,
      "rov": 333,
      "so": 334,
      "Ġroz": 335,
      "ste": 336,
      "Ġpa": 337,
      "Ġpra": 338,
      "Ġmi": 339,
      "Ðµ": 340,
      "len": 341,
      "mu": 342,
      "##": 343,
      "ove": 344,
      "raz": 345,
      "Ġ1": 346,
      "Ġ(": 347,
      "ĠÐ": 348,
      "bi": 349,
      "ĠâĢ": 350,
      "Ġsu": 351,
      "tu": 352,
      "rie": 353,
      "Ġva": 354,
      "sie": 355,
      "Ġci": 356,
      "--": 357,
      "ĠĠĠĠ": 358,
      "Ġpred": 359,
      "Ġka": 360,
      "ty": 361,
      "ÑĤ": 362,
      "Ġaj": 363,
      "Ġve": 364,
      "pra": 365,
      "Ġtak": 366,
      "cho": 367,
      "Ġse": 368,
      "sto": 369,
      "pe": 370,
      "ha": 371,
      "ns": 372,
      "Ġked": 373,
      "oved": 374,
      "co": 375,
      "Ð¾": 376,
      "kov": 377,
      ".âĢľ\\": 378,
      "bu": 379,
      "ji": 380,
      "Ġpod": 381,
      "Ġno": 382,
      "alo": 383,
      "Ġja": 384,
      "lad": 385,
      "ovo": 386,
      "nych": 387,
      "Ġ_": 388,
      "ale": 389,
      "Ð¸": 390,
      "Ġg": 391,
      "Ġce": 392,
      "cu": 393,
      "Ġle": 394,
      "men": 395,
      "Ġsta": 396,
      "tom": 397,
      "Ġjej": 398,
      "Ð°": 399,
      "Ġra": 400,
      "Ġpro": 401,
      "Ġca": 402,
      "neho": 403,
      "Ġuz": 404,
      "Ġspo": 405,
      "kom": 406,
      "_\\": 407,
      "ys": 408,
      "Ð½": 409,
      "Ġbu": 410,
      "Ñģ": 411,
      "cha": 412,
      "Ġaby": 413,
      "set": 414,
      "pre": 415,
      "Ġzo": 416,
      "Ġsvo": 417,
      "zna": 418,
      "Ġde": 419,
      "Ġjed": 420,
      "zo": 421,
      "ÑĢ": 422,
      "lov": 423,
      "Ġju": 424,
      "ly": 425,
      "Ġzi": 426,
      "Ġtu": 427,
      "-\\": 428,
      "Ġty": 429,
      "Ġre": 430,
      "ria": 431,
      "Ġhla": 432,
      "cky": 433,
      "@@@@@@@@": 434,
      "Ġvz": 435,
      ",\\": 436,
      "nov": 437,
      "hla": 438,
      "cov": 439,
      "Ġ2": 440,
      "su": 441,
      "stu": 442,
      "eny": 443,
      "sky": 444,
      "Ġjeho": 445,
      "Ġbe": 446,
      "cia": 447,
      "Ġlen": 448,
      "ved": 449,
      "Ġpoved": 450,
      "Ġso": 451,
      "he": 452,
      "Ġktore": 453,
      "Ġbol": 454,
      "Ġru": 455,
      "pri": 456,
      "mie": 457,
      "Ġvset": 458,
      "Ġvi": 459,
      "ng": 460,
      "nosti": 461,
      "nom": 462,
      "\"\\": 463,
      "Ġich": 464,
      "....": 465,
      ",âĢľ": 466,
      "Ġnaj": 467,
      "ate": 468,
      "hu": 469,
      "Ġsme": 470,
      "ske": 471,
      "ar": 472,
      "Ġme": 473,
      "hy": 474,
      "kto": 475,
      "Ġsp": 476,
      "vu": 477,
      "nd": 478,
      "ena": 479,
      "ĠâĢĵ": 480,
      "rom": 481,
      "cie": 482,
      "zu": 483,
      "lie": 484,
      "Ġktory": 485,
      "nt": 486,
      "Ġla": 487,
      "cke": 488,
      "Ġda": 489,
      "hol": 490,
      "**\\": 491,
      "Ġvel": 492,
      "vie": 493,
      "Ġved": 494,
      "nut": 495,
      "ati": 496,
      "rat": 497,
      "pu": 498,
      "Ġtom": 499,
      "Ð»": 500,
      "or": 501,
      "nost": 502,
      "Ġpe": 503,
      "Ġste": 504,
      "cne": 505,
      "nia": 506,
      "Âŀ": 507,
      "Ġin": 508,
      "sla": 509,
      "sko": 510,
      "eni": 511,
      "Ġlu": 512,
      "Ġak": 513,
      "dne": 514,
      "Ġti": 515,
      "Ġani": 516,
      "Ġku": 517,
      "val": 518,
      "rati": 519,
      "Ð²": 520,
      "kol": 521,
      "kla": 522,
      "Ġpr": 523,
      "nou": 524,
      "nym": 525,
      "ÑĮ": 526,
      "kon": 527,
      "vat": 528,
      "my": 529,
      "nk": 530,
      "Ðº": 531,
      "####": 532,
      "Âļ": 533,
      "Ġalebo": 534,
      "ska": 535,
      "âĢ¦": 536,
      "Ġpom": 537,
      "sle": 538,
      "nv": 539,
      "Ġkra": 540,
      "ovat": 541,
      "sku": 542,
      "Ġvla": 543,
      "enie": 544,
      "nna": 545,
      "Ġstra": 546,
      "npo": 547,
      "?âĢľ\\": 548,
      "Ġeste": 549,
      "ovi": 550,
      "Ġbude": 551,
      "Ġmie": 552,
      "Ġten": 553,
      "chu": 554,
      "Ġw": 555,
      "Ġsto": 556,
      "sne": 557,
      "ÂŃ\\": 558,
      "rt": 559,
      "oval": 560,
      "Ġli": 561,
      "nik": 562,
      "Ġmal": 563,
      "Ġbolo": 564,
      "sia": 565,
      ".\"\\": 566,
      "Ġbola": 567,
      "nne": 568,
      "Ġbez": 569,
      "ga": 570,
      "ĠĠĠĠĠĠĠĠ": 571,
      "ym": 572,
      "Ġpotom": 573,
      "lne": 574,
      "stat": 575,
      "sak": 576,
      "vr": 577,
      "cka": 578,
      "Ġpoz": 579,
      "sk": 580,
      "Ġj": 581,
      "kaz": 582,
      "Ġchce": 583,
      "Ġkon": 584,
      "ral": 585,
      "Ġsk": 586,
      "il": 587,
      "rne": 588,
      "vet": 589,
      "Ġdob": 590,
      "pat": 591,
      "Ġpla": 592,
      "Ġba": 593,
      "ÂĿ": 594,
      "tal": 595,
      "ych": 596,
      "Ġdom": 597,
      "Ġpovedal": 598,
      "Ġmys": 599,
      "Ġaz": 600,
      "Ġsku": 601,
      "Ġmed": 602,
      "nal": 603,
      "klad": 604,
      "Ġnad": 605,
      "siel": 606,
      "kou": 607,
      "Ġdru": 608,
      "jem": 609,
      "Ġvsak": 610,
      "poved": 611,
      "Ġ19": 612,
      "Ġzd": 613,
      "gi": 614,
      "mys": 615,
      "Ġot": 616,
      "ÑĤÑĮ": 617,
      "Ġmoz": 618,
      "Ġvie": 619,
      "lia": 620,
      "Ġdi": 621,
      "Ġdu": 622,
      "Ġpi": 623,
      "dob": 624,
      "ou": 625,
      "Ġpot": 626,
      "stre": 627,
      "Ġsl": 628,
      "fi": 629,
      "zy": 630,
      "@@@@@@@@@@@@@@@@": 631,
      "Ġnebo": 632,
      "ĠâĢ¢": 633,
      "ovala": 634,
      "Ġboli": 635,
      "chad": 636,
      "cit": 637,
      "nz": 638,
      "¿½": 639,
      "ï¿½": 640,
      "chy": 641,
      "den": 642,
      "Ġiba": 643,
      "Ġtam": 644,
      "Ġtie": 645,
      "Ð´": 646,
      "00": 647,
      "spo": 648,
      "Ġlo": 649,
      "tia": 650,
      "Ġnez": 651,
      "Ġ3": 652,
      "Ġnas": 653,
      "Ġcel": 654,
      "vne": 655,
      "Ġpreto": 656,
      "Ġdie": 657,
      "cil": 658,
      "ÑĴ": 659,
      "âĢĵ": 660,
      "........": 661,
      "ato": 662,
      "ala": 663,
      "del": 664,
      "Ġnepo": 665,
      "Ġprav": 666,
      "Ġspra": 667,
      "Ġnic": 668,
      "Ġnemo": 669,
      "âĢĿ": 670,
      "Ð¼": 671,
      "Ñĥ": 672,
      "sim": 673,
      "fe": 674,
      "sy": 675,
      "...": 676,
      "hod": 677,
      "od": 678,
      "Ġsko": 679,
      "til": 680,
      "Ġtva": 681,
      "Ġdve": 682,
      "ril": 683,
      "Ġsvoj": 684,
      "rych": 685,
      "Ġtoho": 686,
      "love": 687,
      "Ġau": 688,
      "Ġha": 689,
      "cen": 690,
      "pla": 691,
      "rad": 692,
      "Ġ~": 693,
      "kych": 694,
      "----": 695,
      "Ġkde": 696,
      "Ġvelmi": 697,
      "Ġtre": 698,
      "lom": 699,
      "eda": 700,
      "Ġbyt": 701,
      "pr": 702,
      "robi": 703,
      "ran": 704,
      "dol": 705,
      "Ġ**": 706,
      "Ġvas": 707,
      "ter": 708,
      "roz": 709,
      "dia": 710,
      "Ġzivo": 711,
      "Ġteraz": 712,
      "rej": 713,
      "Ġmedzi": 714,
      "Ġmat": 715,
      "Ġnech": 716,
      "rd": 717,
      "Ñĺ": 718,
      "zil": 719,
      "vali": 720,
      "Ġkaz": 721,
      "Ġke": 722,
      "com": 723,
      "Ñı": 724,
      ".âĢľ": 725,
      "Ġmoze": 726,
      "âĢ¡": 727,
      "Ġvlast": 728,
      "Ġvys": 729,
      "edy": 730,
      "ovej": 731,
      "nova": 732,
      "Ġjedno": 733,
      "enu": 734,
      "nka": 735,
      "Ġtym": 736,
      "sob": 737,
      "?âĢľ": 738,
      "hli": 739,
      "sled": 740,
      "zia": 741,
      "Ġdal": 742,
      "Ġ.": 743,
      "tel": 744,
      "er": 745,
      "Ġzna": 746,
      "Ġfa": 747,
      "stal": 748,
      "Ġkom": 749,
      "Ġpu": 750,
      "Ġhovo": 751,
      "Ġpok": 752,
      "die": 753,
      "Ġstre": 754,
      "-----\\": 755,
      "Ġoci": 756,
      "Ġnieco": 757,
      "Ġdl": 758,
      "Ġnej": 759,
      "py": 760,
      "Ġchvi": 761,
      "Ñĭ": 762,
      "rani": 763,
      "on": 764,
      "Ġok": 765,
      "sty": 766,
      "pro": 767,
      "stvo": 768,
      "pad": 769,
      "slo": 770,
      "enia": 771,
      "Ġvia": 772,
      "cal": 773,
      "chod": 774,
      "Ġlebo": 775,
      "rel": 776,
      "Ġsy": 777,
      "juci": 778,
      "som": 779,
      "Ġsvoje": 780,
      "?\\": 781,
      ",\"": 782,
      "Ġtro": 783,
      "sil": 784,
      "nymi": 785,
      "nim": 786,
      "Ð¿": 787,
      "######": 788,
      "Ġktora": 789,
      "vom": 790,
      "ct": 791,
      "in": 792,
      "ovali": 793,
      "dil": 794,
      "ata": 795,
      "sli": 796,
      "nza": 797,
      "Ġvsetko": 798,
      "ĠÐ¿": 799,
      "smi": 800,
      "stavi": 801,
      "Ġnu": 802,
      "Ñĩ": 803,
      "uzi": 804,
      "rod": 805,
      "Ġslu": 806,
      "rit": 807,
      "Ġim": 808,
      "Ġdva": 809,
      "Ġkri": 810,
      "atel": 811,
      "Ġpoh": 812,
      "kym": 813,
      "stup": 814,
      "nika": 815,
      "Ġpoli": 816,
      "Ġrov": 817,
      "Ġex": 818,
      "),": 819,
      "rci": 820,
      "rz": 821,
      "ÑģÑĤ": 822,
      "Ġvam": 823,
      "kt": 824,
      "mal": 825,
      "Ð·": 826,
      "sel": 827,
      "Ġ\"": 828,
      "Ġnik": 829,
      "Ġpat": 830,
      "cii": 831,
      "Ġal": 832,
      "skej": 833,
      "nes": 834,
      "ck": 835,
      "bli": 836,
      "Ġnedo": 837,
      "Ġtej": 838,
      "Ġneu": 839,
      "Ġstu": 840,
      "Ġl": 841,
      "Ġdobre": 842,
      "stou": 843,
      "ge": 844,
      "zne": 845,
      "Ġslov": 846,
      "nvy": 847,
      "dla": 848,
      "vala": 849,
      "Ġtra": 850,
      "zd": 851,
      "Ġzu": 852,
      "sat": 853,
      "vola": 854,
      "Ġspolo": 855,
      "zaj": 856,
      "tne": 857,
      "Ġprie": 858,
      "npre": 859,
      "Ġmozno": 860,
      "Ġ4": 861,
      "nho": 862,
      "fa": 863,
      "Ġraz": 864,
      "Ġclove": 865,
      "nze": 866,
      "for": 867,
      "cku": 868,
      "Ġneja": 869,
      "ĠâĢĶ": 870,
      "Ġ[": 871,
      "taz": 872,
      "ovy": 873,
      "juce": 874,
      "ble": 875,
      "Ġkeby": 876,
      "Ġspy": 877,
      "kej": 878,
      "Ġprave": 879,
      ":\\": 880,
      "Ġvzdy": 881,
      "Ġtr": 882,
      "Ġvra": 883,
      "nky": 884,
      "pom": 885,
      "ier": 886,
      "rob": 887,
      "Ġkr": 888,
      "Ġmala": 889,
      "jne": 890,
      "Ġnim": 891,
      "Ġtvo": 892,
      "Ġpodla": 893,
      "dal": 894,
      ").": 895,
      "mer": 896,
      "ciu": 897,
      "Ġri": 898,
      "Ð³": 899,
      "bec": 900,
      "zor": 901,
      "Ġchla": 902,
      "bou": 903,
      "chadza": 904,
      "stra": 905,
      "tra": 906,
      "Ġkym": 907,
      "kal": 908,
      "Ġhu": 909,
      "Ġniekto": 910,
      "Ġpan": 911,
      "Ġteda": 912,
      "bra": 913,
      "pis": 914,
      "Ġnich": 915,
      "znam": 916,
      "it": 917,
      "Ġden": 918,
      "tak": 919,
      "Ġurobi": 920,
      "cer": 921,
      "nat": 922,
      "vou": 923,
      "Ġoko": 924,
      "Ġnes": 925,
      "Ġkapi": 926,
      "Ġtri": 927,
      "Ġsvet": 928,
      "Ð±": 929,
      "Ġsed": 930,
      "eno": 931,
      "stva": 932,
      "ĠÑģ": 933,
      "nje": 934,
      "keho": 935,
      "kti": 936,
      "Ġfi": 937,
      "Ġnikdy": 938,
      "Ġrobi": 939,
      "Ġon": 940,
      "Ġchy": 941,
      "Ġ]": 942,
      "Ġmuz": 943,
      "Ġstat": 944,
      "Ġviac": 945,
      "gu": 946,
      "hovo": 947,
      "sej": 948,
      "Ġ5": 949,
      "Ġsla": 950,
      "cny": 951,
      "nku": 952,
      "che": 953,
      "Ġnevy": 954,
      "ned": 955,
      "Ġzia": 956,
      "Ġcu": 957,
      "skeho": 958,
      "Ġpotre": 959,
      "Ġnema": 960,
      "prav": 961,
      "Ġide": 962,
      "ĠÂŀ": 963,
      "go": 964,
      "Ġakoby": 965,
      "Ġmusi": 966,
      "Ġseba": 967,
      "stav": 968,
      "Ġsvoji": 969,
      "hra": 970,
      "cas": 971,
      "Ġproti": 972,
      "tr": 973,
      "dit": 974,
      "zera": 975,
      "Ġge": 976,
      "Ġrych": 977,
      "Ġor": 978,
      "Ġmno": 979,
      "Ġmali": 980,
      "Ġhar": 981,
      "ovanie": 982,
      "npri": 983,
      "?\"\\": 984,
      "Ġpocu": 985,
      "Ġsam": 986,
      "hi": 987,
      "dno": 988,
      "nce": 989,
      "mat": 990,
      "ndo": 991,
      "Ġotvo": 992,
      "ĠÐ²": 993,
      "gra": 994,
      "Ġnepri": 995,
      "Ġar": 996,
      "spe": 997,
      "Ġpomo": 998,
      "Ġmna": 999,
      "Ġneza": 1000,
      "Ġmoj": 1001,
      "slu": 1002,
      "mena": 1003,
      "ĠĠĠ": 1004,
      "ki": 1005,
      "kami": 1006,
      "Ġtento": 1007,
      "zit": 1008,
      "ver": 1009,
      "alej": 1010,
      "cnosti": 1011,
      "Ġcas": 1012,
      "Ġrad": 1013,
      "Ġslova": 1014,
      "Ġzau": 1015,
      "sich": 1016,
      "Ġcez": 1017,
      "âĢĿ\\": 1018,
      "ÑĢÐµ": 1019,
      "Ġnam": 1020,
      "Ġvrati": 1021,
      "nsa": 1022,
      "Ġr": 1023,
      "nil": 1024,
      "tila": 1025,
      "ckych": 1026,
      "ckej": 1027,
      "bez": 1028,
      "via": 1029,
      "Ġdvo": 1030,
      "skych": 1031,
      "Ġfu": 1032,
      "Ġhodi": 1033,
      "Ġnao": 1034,
      "vedom": 1035,
      "Ġtomu": 1036,
      "nici": 1037,
      "tie": 1038,
      "Ġzvy": 1039,
      "Ġpreco": 1040,
      "Ġmy": 1041,
      "Ġmysli": 1042,
      "Ġvoj": 1043,
      "Ġpracov": 1044,
      "dli": 1045,
      "ĠĠĠĠĠĠĠĠĠĠĠĠĠĠĠĠ": 1046,
      "Ġvac": 1047,
      "Ġcha": 1048,
      "tov": 1049,
      "Ġmar": 1050,
      "Ġopat": 1051,
      "tre": 1052,
      "vla": 1053,
      "@@@@@@@@@@@@@@@@@@@@@@@@@@@@@@@@": 1054,
      "Ġpov": 1055,
      "riad": 1056,
      "Ġtych": 1057,
      "bude": 1058,
      "Ġpar": 1059,
      "Ð½Ð¸": 1060,
      "Ġasi": 1061,
      "Ġvsetky": 1062,
      "vaju": 1063,
      "vil": 1064,
      "moz": 1065,
      "Ġpripa": 1066,
      "nikov": 1067,
      "rila": 1068,
      "Ġmla": 1069,
      "hnut": 1070,
      "cna": 1071,
      "Ġneo": 1072,
      "pil": 1073,
      "tedy": 1074,
      "Ġnapo": 1075,
      "nta": 1076,
      "xi": 1077,
      "Ġzlo": 1078,
      "Ġtake": 1079,
      "Ġsle": 1080,
      "nci": 1081,
      "Ġthe": 1082,
      "Ġfor": 1083,
      "!âĢľ": 1084,
      "tym": 1085,
      "nc": 1086,
      "Ġcelkom": 1087,
      "nako": 1088,
      "Ġjeden": 1089,
      "Ġcer": 1090,
      "Ġspa": 1091,
      "Ġsloven": 1092,
      "nde": 1093,
      "dz": 1094,
      "Ġcho": 1095,
      "Ġpovedala": 1096,
      "||": 1097,
      "dela": 1098,
      "alu": 1099,
      "jte": 1100,
      "Ġpres": 1101,
      "Ġhoci": 1102,
      "dom": 1103,
      "................": 1104,
      "vit": 1105,
      "Ġkni": 1106,
      "stna": 1107,
      "stie": 1108,
      "cami": 1109,
      "Ġrodi": 1110,
      "iet": 1111,
      "Ġdost": 1112,
      "nti": 1113,
      "Ġspom": 1114,
      "Ġniekol": 1115,
      "Ġneho": 1116,
      "Ëĩ": 1117,
      "mr": 1118,
      "Ġ6": 1119,
      "Ġvr": 1120,
      "rou": 1121,
      "Ġsve": 1122,
      "Ġdovo": 1123,
      "Ġskuto": 1124,
      "nto": 1125,
      "Ġoh": 1126,
      "zem": 1127,
      "Ġhe": 1128,
      "naj": 1129,
      "ĠÂ": 1130,
      "Ġos": 1131,
      "Ġokolo": 1132,
      "Ġmohol": 1133,
      ")\\": 1134,
      "Ġple": 1135,
      "ÑĢÐ°": 1136,
      "tor": 1137,
      "Ġspolu": 1138,
      "Ġcele": 1139,
      "aly": 1140,
      "liz": 1141,
      ".:": 1142,
      "ĠÐ½": 1143,
      "rak": 1144,
      "Ġjo": 1145,
      "Ġtele": 1146,
      "Ġnemu": 1147,
      "Ġprek": 1148,
      "Ġpouzi": 1149,
      "Ġtoto": 1150,
      "Ġjedi": 1151,
      "Ġbra": 1152,
      "nok": 1153,
      "vol": 1154,
      "sobi": 1155,
      "dala": 1156,
      "Ġodpoved": 1157,
      "nit": 1158,
      "um": 1159,
      "vel": 1160,
      "stne": 1161,
      "sol": 1162,
      "Ġbi": 1163,
      "Ġostat": 1164,
      "Ġoz": 1165,
      "dok": 1166,
      "rili": 1167,
      "Ġpozna": 1168,
      "ckeho": 1169,
      "Ð¾Ð²": 1170,
      "chadz": 1171,
      "Ġnena": 1172,
      "logi": 1173,
      "19": 1174,
      "Ġnav": 1175,
      "rejme": 1176,
      "Ġvobec": 1177,
      "pie": 1178,
      "nte": 1179,
      "Ġzach": 1180,
      "Ġsie": 1181,
      "ber": 1182,
      "ent": 1183,
      "Ġmam": 1184,
      "Ġpohlad": 1185,
      "Ġstale": 1186,
      "novi": 1187,
      "Ġktori": 1188,
      "Ġurci": 1189,
      "tvo": 1190,
      "pl": 1191,
      "Ġrychlo": 1192,
      "et": 1193,
      "hov": 1194,
      "Ġdnes": 1195,
      "Ġdokon": 1196,
      "enych": 1197,
      "Ġtejto": 1198,
      "zite": 1199,
      "kova": 1200,
      "dov": 1201,
      "ply": 1202,
      "ela": 1203,
      "lel": 1204,
      "ĠÐº": 1205,
      "Ġzat": 1206,
      "cila": 1207,
      "Ġzivot": 1208,
      "nejsie": 1209,
      "dou": 1210,
      "Ġpoko": 1211,
      ".,": 1212,
      "nbo": 1213,
      "Ġus": 1214,
      "tou": 1215,
      "Ġmate": 1216,
      "Ġorga": 1217,
      "âĢĶ": 1218,
      "isto": 1219,
      "zala": 1220,
      "Ġpru": 1221,
      "rela": 1222,
      "Ġroku": 1223,
      "Ġzame": 1224,
      "lovi": 1225,
      "Ġjazy": 1226,
      "cou": 1227,
      "nak": 1228,
      "Ġkla": 1229,
      "zila": 1230,
      "tala": 1231,
      "Ġbudu": 1232,
      "zmu": 1233,
      "stro": 1234,
      "stil": 1235,
      "zuje": 1236,
      "Ġsty": 1237,
      "sit": 1238,
      "Ġktoru": 1239,
      "rem": 1240,
      "Ġ20": 1241,
      "us": 1242,
      "!\\": 1243,
      "Ð½Ñĭ": 1244,
      "Ġharry": 1245,
      "Ġof": 1246,
      "nma": 1247,
      "klo": 1248,
      "cial": 1249,
      "Ġhlas": 1250,
      "Ġpol": 1251,
      "Ġiste": 1252,
      "fo": 1253,
      "Ġzah": 1254,
      "Ġdruhe": 1255,
      "Ġsti": 1256,
      "!âĢľ\\": 1257,
      "Ġpoku": 1258,
      "lis": 1259,
      "uz": 1260,
      "viem": 1261,
      "Ġnechce": 1262,
      "razu": 1263,
      "stala": 1264,
      "ak": 1265,
      "Ġpolo": 1266,
      "Ġscho": 1267,
      "vaz": 1268,
      "tli": 1269,
      "nko": 1270,
      "Ġclovek": 1271,
      "Ġmanze": 1272,
      "hom": 1273,
      "Ġnaozaj": 1274,
      "Ġnepre": 1275,
      "nec": 1276,
      "Ġdiev": 1277,
      "Ġiz": 1278,
      "Ġsvoju": 1279,
      "Ġchcel": 1280,
      "kat": 1281,
      "rka": 1282,
      "Ġtvar": 1283,
      "Ġotaz": 1284,
      "Ġnev": 1285,
      "Ġveci": 1286,
      "Ġoby": 1287,
      "Ġzla": 1288,
      "Ġruky": 1289,
      "Ġodve": 1290,
      "Ġspytal": 1291,
      "bezpe": 1292,
      "Ġpretoze": 1293,
      "ano": 1294,
      "Ġtaz": 1295,
      "Ġvyso": 1296,
      "Ġbie": 1297,
      "Ġud": 1298,
      "ciach": 1299,
      "Ġtakmer": 1300,
      "Ġnesko": 1301,
      "Ð½Ð¾": 1302,
      "rb": 1303,
      "pal": 1304,
      "vej": 1305,
      "oveho": 1306,
      "ob": 1307,
      "tva": 1308,
      "bor": 1309,
      "ĠÐ¾": 1310,
      "Ġtaky": 1311,
      "hne": 1312,
      "Ġnevi": 1313,
      "dobne": 1314,
      "Ġodi": 1315,
      "Ġrokov": 1316,
      "Ġchvilu": 1317,
      "rovi": 1318,
      "kra": 1319,
      "Ġy": 1320,
      "dam": 1321,
      "Ġhned": 1322,
      "Ġ7": 1323,
      "Ġnom": 1324,
      "cat": 1325,
      "ram": 1326,
      "Ġzne": 1327,
      "tit": 1328,
      "nda": 1329,
      "lko": 1330,
      "Ġsvojej": 1331,
      "Ġ200": 1332,
      "Ġist": 1333,
      "Ġdvere": 1334,
      "kri": 1335,
      "Ġchlap": 1336,
      "Ġpoda": 1337,
      "Ġproble": 1338,
      "Ġpria": 1339,
      "prie": 1340,
      "rilo": 1341,
      "wa": 1342,
      "Ġpl": 1343,
      "ina": 1344,
      "lou": 1345,
      "Ġtrochu": 1346,
      "Ġprvy": 1347,
      "rova": 1348,
      "Ġkazdy": 1349,
      "Ġdalej": 1350,
      "Ġvysvet": 1351,
      "novu": 1352,
      "Ġsvojho": 1353,
      "Ġhodno": 1354,
      "Ġrie": 1355,
      "hnu": 1356,
      "Ġpani": 1357,
      "tla": 1358,
      "Ġvsetci": 1359,
      "nm": 1360,
      "ren": 1361,
      "Ġstr": 1362,
      "Ð¶": 1363,
      "Ġmiest": 1364,
      "Ġlie": 1365,
      "ÐµÐ»": 1366,
      "Ġtvr": 1367,
      "kala": 1368,
      "zen": 1369,
      "Ġnija": 1370,
      "Ġpredsa": 1371,
      "Ġlud": 1372,
      "Ġchod": 1373,
      "Ġpovedat": 1374,
      "Ġruku": 1375,
      "Ġpodo": 1376,
      "lit": 1377,
      "stia": 1378,
      "Ġludi": 1379,
      "bie": 1380,
      "tok": 1381,
      "Ġ8": 1382,
      "dej": 1383,
      "Ġslo": 1384,
      "cala": 1385,
      "ÑĻ": 1386,
      "Ġnebude": 1387,
      "jde": 1388,
      "Ġpoliti": 1389,
      "Ġzmen": 1390,
      "tec": 1391,
      "psie": 1392,
      "Ġchu": 1393,
      "hat": 1394,
      "ratil": 1395,
      "stred": 1396,
      "Ġniekolko": 1397,
      "Ġcely": 1398,
      "Ġvola": 1399,
      "sov": 1400,
      "Ġcie": 1401,
      "kedy": 1402,
      "cnost": 1403,
      "enim": 1404,
      ".\"": 1405,
      "Ġsna": 1406,
      "Ġvtedy": 1407,
      "roma": 1408,
      "Ġine": 1409,
      "dlo": 1410,
      "Ġ=": 1411,
      "Ġvsetkych": 1412,
      "caj": 1413,
      "livo": 1414,
      "koch": 1415,
      "hal": 1416,
      "spon": 1417,
      "Ġzaci": 1418,
      "Ġry": 1419,
      "stane": 1420,
      "Ñħ": 1421,
      "Ġktorych": 1422,
      "Ġvzta": 1423,
      "Ġvlastne": 1424,
      "Ġposled": 1425,
      "Ġvidel": 1426,
      "Ġusta": 1427,
      "._\\": 1428,
      "bne": 1429,
      "log": 1430,
      "Ġktorej": 1431,
      "Ġsebe": 1432,
      "Ġskor": 1433,
      "jom": 1434,
      "lil": 1435,
      "nic": 1436,
      "plne": 1437,
      "Ġpokra": 1438,
      "zili": 1439,
      "zene": 1440,
      "skom": 1441,
      "Ġpoci": 1442,
      "Ġnou": 1443,
      "Ġrozhod": 1444,
      "rove": 1445,
      "sila": 1446,
      "Ġtreba": 1447,
      "Ġkre": 1448,
      "eli": 1449,
      "Ġga": 1450,
      "Ġdra": 1451,
      "Ġnebol": 1452,
      "Ġukaz": 1453,
      "Ġ9": 1454,
      "stava": 1455,
      "Ġneved": 1456,
      "ÑĪ": 1457,
      "kam": 1458,
      "Ġhlavu": 1459,
      "ten": 1460,
      "Ġobe": 1461,
      "kona": 1462,
      "bil": 1463,
      "hto": 1464,
      "Ġdlho": 1465,
      "dila": 1466,
      "Ġauto": 1467,
      "Ġang": 1468,
      "sem": 1469,
      "Ġhra": 1470,
      "nca": 1471,
      "vac": 1472,
      "Ġhl": 1473,
      "):": 1474,
      "kry": 1475,
      "Ġozna": 1476,
      "Ġzba": 1477,
      "hlad": 1478,
      "Ġuci": 1479,
      "Ġhlavou": 1480,
      "ako": 1481,
      "Ġfo": 1482,
      "qu": 1483,
      "Ġsrd": 1484,
      "Ġpozrel": 1485,
      "ktu": 1486,
      "tat": 1487,
      "Ġano": 1488,
      "Ġpovo": 1489,
      "Ġkraji": 1490,
      "vek": 1491,
      "Ġmaju": 1492,
      "lova": 1493,
      "ÑĨ": 1494,
      "Ġmne": 1495,
      "._": 1496,
      "Ġona": 1497,
      "Ġvse": 1498,
      "Ġulo": 1499,
      "nale": 1500,
      "Ġnebolo": 1501,
      "Ġpritom": 1502,
      "Ġnimi": 1503,
      "Ġvedel": 1504,
      "Ġrozho": 1505,
      "Ġzasa": 1506,
      "pit": 1507,
      "nali": 1508,
      "Ġnanho": 1509,
      "ried": 1510,
      "Ġsem": 1511,
      "vych": 1512,
      "Ġkedy": 1513,
      "klada": 1514,
      "kovi": 1515,
      "Ġspe": 1516,
      "Ġurcite": 1517,
      "Ġopa": 1518,
      "nod": 1519,
      "Ġzena": 1520,
      "Ġludia": 1521,
      "][": 1522,
      "Ġmyslie": 1523,
      "vny": 1524,
      "valo": 1525,
      "Ġspi": 1526,
      "?\"": 1527,
      "tol": 1528,
      "nked": 1529,
      "cnej": 1530,
      "Ġstal": 1531,
      "Ġov": 1532,
      "koho": 1533,
      "dat": 1534,
      "Ġhor": 1535,
      "Ġktoreho": 1536,
      "np": 1537,
      "-_\\": 1538,
      "gen": 1539,
      ".âĢĿ\\": 1540,
      "vanie": 1541,
      "ÐµÐ½": 1542,
      "Ġ18": 1543,
      "Ġdruhy": 1544,
      "Ġmiesto": 1545,
      "Ġand": 1546,
      "Ġkro": 1547,
      "Ġzh": 1548,
      "Ġosob": 1549,
      "Ġsposob": 1550,
      "10": 1551,
      "Ġsil": 1552,
      "Ġvela": 1553,
      "vad": 1554,
      "mati": 1555,
      "Ġaspon": 1556,
      "chol": 1557,
      "Ġuvedom": 1558,
      "jov": 1559,
      "Ġzacal": 1560,
      "nmi": 1561,
      "Ġskupi": 1562,
      "Ġzdvi": 1563,
      "stru": 1564,
      "deli": 1565,
      "Ġtomto": 1566,
      "cni": 1567,
      "Ġsvojich": 1568,
      "Ġznova": 1569,
      "Ġpripade": 1570,
      "Ġsebou": 1571,
      "Ġhru": 1572,
      "Ġ0": 1573,
      "ris": 1574,
      "Ġbliz": 1575,
      "Ġcosi": 1576,
      "Ġmohli": 1577,
      "th": 1578,
      "edi": 1579,
      "sou": 1580,
      "Ġzapa": 1581,
      "jim": 1582,
      "dar": 1583,
      "Ġpozor": 1584,
      "niec": 1585,
      "Ġmoje": 1586,
      "Ġstalo": 1587,
      "ster": 1588,
      "krat": 1589,
      "Ġfran": 1590,
      "Ġhr": 1591,
      "zni": 1592,
      "lej": 1593,
      "Ġstaro": 1594,
      "Ð½ÑĭÐ¸": 1595,
      "Ġoba": 1596,
      "siat": 1597,
      "Ġminu": 1598,
      "Ġobja": 1599,
      "ÐºÐ°": 1600,
      "nos": 1601,
      "@?": 1602,
      "11": 1603,
      "Ġsamo": 1604,
      "Ġotec": 1605,
      "Ġhlad": 1606,
      "Ġ][": 1607,
      "Ġnikto": 1608,
      "dr": 1609,
      "cali": 1610,
      "zito": 1611,
      "rus": 1612,
      "cnych": 1613,
      "rmi": 1614,
      "stov": 1615,
      "Ġnaz": 1616,
      "Ġkona": 1617,
      "Ġtohto": 1618,
      "ss": 1619,
      "Ġpohy": 1620,
      "ÑĢÐ¾": 1621,
      "Ġrozpra": 1622,
      "hor": 1623,
      "dili": 1624,
      "kli": 1625,
      "Ġeu": 1626,
      "nmo": 1627,
      "cko": 1628,
      "nach": 1629,
      "Ġmalo": 1630,
      "ĠÐ´": 1631,
      "Ġmanzel": 1632,
      "Ġsmr": 1633,
      "pred": 1634,
      "jima": 1635,
      "Ġorgani": 1636,
      "Ġdole": 1637,
      "__": 1638,
      "Ġokrem": 1639,
      "cuje": 1640,
      "Ġpos": 1641,
      "Ġab": 1642,
      "Ġprace": 1643,
      "siu": 1644,
      "ovani": 1645,
      "Ġned": 1646,
      "rene": 1647,
      "Ġdr": 1648,
      "hlo": 1649,
      "Ġtieto": 1650,
      "Ġkru": 1651,
      "ÐµÑĤÑĮ": 1652,
      "zie": 1653,
      ").\\": 1654,
      "Ġzm": 1655,
      "Ġinfor": 1656,
      "cili": 1657,
      "Ġcier": 1658,
      "Ġper": 1659,
      "Ġobla": 1660,
      "Ġgu": 1661,
      "kolvek": 1662,
      "Ġdeti": 1663,
      "Ġtiez": 1664,
      "Ġ,": 1665,
      "Ġpozo": 1666,
      "nob": 1667,
      "Ġmen": 1668,
      "Ð½Ð°": 1669,
      "Ġjednodu": 1670,
      "fu": 1671,
      "Ġpravda": 1672,
      "mysla": 1673,
      "Ġpova": 1674,
      "son": 1675,
      "tiahol": 1676,
      "âĪ": 1677,
      "Ġpriatel": 1678,
      "kmi": 1679,
      "Ġzav": 1680,
      "dav": 1681,
      "ovane": 1682,
      "ntro": 1683,
      "cera": 1684,
      "stit": 1685,
      "mysle": 1686,
      "ner": 1687,
      "20": 1688,
      "Ġvecer": 1689,
      "Ġnapokon": 1690,
      "Ġpocho": 1691,
      "ÐµÑĢ": 1692,
      "cim": 1693,
      "Ġtakze": 1694,
      "Ġnecha": 1695,
      "ĠÐ¿Ð¾": 1696,
      "Ġbud": 1697,
      "Ġ10": 1698,
      "Ġvyhla": 1699,
      "Ġkone": 1700,
      "Ġzamestna": 1701,
      "Ġpocit": 1702,
      "|\\": 1703,
      "Ġvyraz": 1704,
      "chla": 1705,
      "smial": 1706,
      "Ġmrt": 1707,
      "Ġbla": 1708,
      "Ġobsa": 1709,
      "nuje": 1710,
      "kro": 1711,
      ";\\": 1712,
      "tim": 1713,
      "Ġur": 1714,
      "sok": 1715,
      "riet": 1716,
      "chce": 1717,
      "ven": 1718,
      "Ġzdra": 1719,
      "ĠÐ·": 1720,
      "der": 1721,
      "Ġpresved": 1722,
      "Ġneskor": 1723,
      "Ġsyste": 1724,
      "ona": 1725,
      "har": 1726,
      "bud": 1727,
      "Ġprekva": 1728,
      "Ġvyzera": 1729,
      "jucich": 1730,
      "Ġusi": 1731,
      "pli": 1732,
      "Ġhisto": 1733,
      "Ġost": 1734,
      "Ġhovori": 1735,
      "Ġchrb": 1736,
      "Ġvyz": 1737,
      "Ġobo": 1738,
      "Ġnamie": 1739,
      "tali": 1740,
      "nami": 1741,
      "chov": 1742,
      "Ġtato": 1743,
      "Ġdoma": 1744,
      "Ġdni": 1745,
      "tera": 1746,
      "Ġsud": 1747,
      "Ġbole": 1748,
      "Ġad": 1749,
      "Ġaky": 1750,
      "an": 1751,
      "vene": 1752,
      "Ġzase": 1753,
      "Ġprid": 1754,
      "Ġnajma": 1755,
      "gy": 1756,
      "Ġom": 1757,
      "zeral": 1758,
      "Ġmuse": 1759,
      "sny": 1760,
      "ÐµÑĤ": 1761,
      "ok": 1762,
      "kach": 1763,
      "Ġobraz": 1764,
      "Ġake": 1765,
      "voj": 1766,
      "tua": 1767,
      "Ġodpo": 1768,
      "Ġdokonca": 1769,
      "sch": 1770,
      "vod": 1771,
      "Ġzaklad": 1772,
      "Ġvon": 1773,
      "vam": 1774,
      "Ġdomov": 1775,
      "Ġver": 1776,
      "ÑĽ": 1777,
      "nkto": 1778,
      "Ġvre": 1779,
      "Ġkrat": 1780,
      "kar": 1781,
      "Ġtakto": 1782,
      "zal": 1783,
      "juc": 1784,
      "mov": 1785,
      "Ġuli": 1786,
      "dsat": 1787,
      "ple": 1788,
      "Ġvyznam": 1789,
      "Ġpek": 1790,
      "Ġvidi": 1791,
      "Ġprisiel": 1792,
      "ktor": 1793,
      "Ġodvetil": 1794,
      "Ġskon": 1795,
      "Ġnemoze": 1796,
      "vili": 1797,
      ".âĢŀ": 1798,
      "jat": 1799,
      "Ġhro": 1800,
      "ÑģÑı": 1801,
      "]\\": 1802,
      "Ġzle": 1803,
      "Ġmesia": 1804,
      "ii": 1805,
      "lim": 1806,
      "nsky": 1807,
      "prv": 1808,
      "covi": 1809,
      "ceny": 1810,
      "Ġpomaly": 1811,
      "ĠÐ¼": 1812,
      "hr": 1813,
      "Ġhore": 1814,
      "Ġvl": 1815,
      "Ġpredpo": 1816,
      "Ġschop": 1817,
      "priklad": 1818,
      "Ġdok": 1819,
      "meni": 1820,
      "veho": 1821,
      "hou": 1822,
      "ol": 1823,
      "man": 1824,
      "Ġcin": 1825,
      "Ġvyja": 1826,
      "Ġmusel": 1827,
      "Ġnem": 1828,
      "Ġexi": 1829,
      "ÑģÐº": 1830,
      "ovania": 1831,
      "dna": 1832,
      "Ġchvili": 1833,
      "ÅĤ": 1834,
      "Ġpravdu": 1835,
      "jeme": 1836,
      "Ġat": 1837,
      "Ġzem": 1838,
      "coval": 1839,
      "cich": 1840,
      "âĢ¦âĢľ\\": 1841,
      "ĠâĢľ": 1842,
      "Ġcase": 1843,
      "bral": 1844,
      "Ġznovu": 1845,
      "ĠÂļ": 1846,
      "Ġoso": 1847,
      "Ġdla": 1848,
      "ĠĠĠĠĠ": 1849,
      "tych": 1850,
      "12": 1851,
      "dra": 1852,
      "vatel": 1853,
      "sal": 1854,
      "cene": 1855,
      "Ġproce": 1856,
      "Ġvidie": 1857,
      "Ġtma": 1858,
      "caka": 1859,
      "nb": 1860,
      "Ġclen": 1861,
      "Ġlah": 1862,
      "ĠÐ½Ð°": 1863,
      "ll": 1864,
      "Ġdav": 1865,
      "em": 1866,
      "nnie": 1867,
      "Ġstrane": 1868,
      "mene": 1869,
      "Ġhlu": 1870,
      "Ġzam": 1871,
      "Ġove": 1872,
      "koj": 1873,
      "18": 1874,
      "ltu": 1875,
      "as": 1876,
      "npa": 1877,
      "âĢº": 1878,
      "Ġpenia": 1879,
      "Ġdostat": 1880,
      "Ġcasto": 1881,
      "Ġtychto": 1882,
      "Ġvacsi": 1883,
      "Ð²Ð°": 1884,
      "Ġ199": 1885,
      "kali": 1886,
      "Ġoch": 1887,
      "Ġcom": 1888,
      "Ġky": 1889,
      "tky": 1890,
      "alne": 1891,
      "@@@@@@@@@@@@@@@@@@@@@@@@@@@@@@@@@@@@@@@@@@@@@@@@@@@@@@@@@@@@@@@@": 1892,
      "zka": 1893,
      "tny": 1894,
      "ĠÑĤ": 1895,
      "nutie": 1896,
      "stali": 1897,
      "ceni": 1898,
      "Ġtuto": 1899,
      "Ġpresne": 1900,
      "Ġsitua": 1901,
      "Ġvol": 1902,
      "âĢ¦\\": 1903,
      "Ġzrejme": 1904,
      "Ġzod": 1905,
      "Ġpris": 1906,
      "vuje": 1907,
      "vate": 1908,
      "Ġlepsie": 1909,
      "Ġmohla": 1910,
      "Ġzivota": 1911,
      "Ġplo": 1912,
      "mom": 1913,
      "ĠÐ¸": 1914,
      "cnu": 1915,
      "Ġpredtym": 1916,
      "diel": 1917,
      "Ġjasne": 1918,
      "sen": 1919,
      "Ġnaro": 1920,
      "niku": 1921,
      "lud": 1922,
      "nict": 1923,
      "ment": 1924,
      "Ġcast": 1925,
      "cenie": 1926,
      "Ġnemal": 1927,
      "aleko": 1928,
      "Ġmnou": 1929,
      "volal": 1930,
      "ovych": 1931,
      "15": 1932,
      "doch": 1933,
      "zol": 1934,
      "les": 1935,
      "tej": 1936,
      "13": 1937,
      "med": 1938,
      "Ġ15": 1939,
      "Ġfar": 1940,
      "Ġcasti": 1941,
      "Ġnavr": 1942,
      "Ġbre": 1943,
      "Ġmimo": 1944,
      "Ġviem": 1945,
      "nroz": 1946,
      "Ġvzdu": 1947,
      "ovu": 1948,
      "Ġspoj": 1949,
      "pod": 1950,
      "tiv": 1951,
      "pol": 1952,
      "Ġdokaz": 1953,
      "ÑĢÐ¸": 1954,
      "Ġpriky": 1955,
      "Ġspat": 1956,
      "jo": 1957,
      "nsi": 1958,
      "ndi": 1959,
      ",_": 1960,
      "mne": 1961,
      "telne": 1962,
      "Ġnor": 1963,
      "Ġticho": 1964,
      "Ġpovie": 1965,
      "cneho": 1966,
      "vidi": 1967,
      "Ġria": 1968,
      "sic": 1969,
      "Ġnarod": 1970,
      "Ġsch": 1971,
      "Ġzas": 1972,
      "Ġteo": 1973,
      "stami": 1974,
      "Ġzvie": 1975,
      "Ġmeno": 1976,
      "bal": 1977,
      "14": 1978,
      "sene": 1979,
      "Ġ12": 1980,
      "Ġcestu": 1981,
      "vila": 1982,
      "Ġuplne": 1983,
      "Ġnoha": 1984,
      "Ġposla": 1985,
      "uje": 1986,
      "stavil": 1987,
      "rali": 1988,
      "Ġnoci": 1989,
      "sten": 1990,
      "zda": 1991,
      "Ġrano": 1992,
      "tna": 1993,
      "pila": 1994,
      "ovin": 1995,
      "Ġdomu": 1996,
      "ach": 1997,
      "stom": 1998,
      "Ġstro": 1999,
      "Ġzb": 2000,
      "Ġkomu": 2001,
      "ndy": 2002,
      "Ġcud": 2003,
      "Ġposta": 2004,
      "Ġpou": 2005,
      "ovany": 2006,
      "Ġher": 2007,
      "rozu": 2008,
      "Ġrobit": 2009,
      "Ġpodmie": 2010,
      "Ġmas": 2011,
      "Ġele": 2012,
      "meri": 2013,
      "tan": 2014,
      "atial": 2015,
      "Ġsama": 2016,
      "Ġuni": 2017,
      "Ġporiad": 2018,
      "Ġstrie": 2019,
      "Ġzeny": 2020,
      "Ġdre": 2021,
      "Ġzabi": 2022,
      "Ġaku": 2023,
      "stli": 2024,
      "iel": 2025,
      "Ġml": 2026,
      "Ġdruhej": 2027,
      "Ġmoja": 2028,
      "zra": 2029,
      "Ġzja": 2030,
      "Ġpomys": 2031,
      "roval": 2032,
      "cet": 2033,
      "povedal": 2034,
      "pov": 2035,
      "Ġfunk": 2036,
      "Ġcloveka": 2037,
      "Ġprirod": 2038,
      "sna": 2039,
      "Ġbrati": 2040,
      "Ġisty": 2041,
      "Ġdy": 2042,
      "Ġbrat": 2043,
      "Ġklu": 2044,
      "chom": 2045,
      "Ġdvoch": 2046,
      "Ġbudem": 2047,
      "ÑĩÐµ": 2048,
      "Ġdat": 2049,
      "Ġpohla": 2050,
      "Ġzvla": 2051,
      "nul": 2052,
      "ktiv": 2053,
      "Ġneviem": 2054,
      "Ġslovo": 2055,
      "sp": 2056,
      "jsie": 2057,
      "Ġsest": 2058,
      "cajne": 2059,
      "Ġkam": 2060,
      "Ð¾Ð»": 2061,
      "17": 2062,
      "Ġusme": 2063,
      "roven": 2064,
      "rna": 2065,
      "tiz": 2066,
      "mysel": 2067,
      "Ġrovnako": 2068,
      "Ġktorom": 2069,
      "tt": 2070,
      "Ġhne": 2071,
      "Ġsvojim": 2072,
      "Ġzmi": 2073,
      "Ġder": 2074,
      "Ġcim": 2075,
      "Ġpostup": 2076,
      "Ġx": 2077,
      "the": 2078,
      "priek": 2079,
      "ĠÐ±": 2080,
      "Ġnebola": 2081,
      "zdy": 2082,
      "rovna": 2083,
      "Ġnoc": 2084,
      "nco": 2085,
      "nmu": 2086,
      "depo": 2087,
      "Ð½Ð¸Ðµ": 2088,
      "Ġbezpe": 2089,
      "lenie": 2090,
      "slov": 2091,
      "knu": 2092,
      "Ġupo": 2093,
      "Ġdostal": 2094,
      "Ġneme": 2095,
      "dnu": 2096,
      "Ġneod": 2097,
      "Ġstare": 2098,
      "Ġposte": 2099,
      "Ġtla": 2100,
      "Ġvaz": 2101,
      "nvo": 2102,
      "Ġvyra": 2103,
      "Ġnapriklad": 2104,
      "rane": 2105,
      "nostou": 2106,
      "ine": 2107,
      "npro": 2108,
      "Ġpy": 2109,
      "16": 2110,
      "nke": 2111,
      "Ġangli": 2112,
      "ton": 2113,
      "sud": 2114,
      "rovat": 2115,
      "lene": 2116,
      "Ġboh": 2117,
      "Ġinforma": 2118,
      "Ġmyslim": 2119,
      "nice": 2120,
      "nila": 2121,
      "Ġtvare": 2122,
      "ciou": 2123,
      "per": 2124,
      "Ġveli": 2125,
      "Ġurobit": 2126,
      "Ġmnoz": 2127,
      "jst": 2128,
      "kovat": 2129,
      "Ġvedla": 2130,
      "Ġsocial": 2131,
      "kde": 2132,
      "Ġpozi": 2133,
      "rala": 2134,
      "teri": 2135,
      "Ġvyro": 2136,
      "Ġtech": 2137,
      "Ġstar": 2138,
      "cej": 2139,
      "Ġrobo": 2140,
      "sili": 2141,
      "Ġtova": 2142,
      "Ġvez": 2143,
      ",_\\": 2144,
      "Ġdoz": 2145,
      "Ġpripra": 2146,
      "Ġ/": 2147,
      "Ġ17": 2148,
      "pati": 2149,
      "Ġstoli": 2150,
      "nh": 2151,
      "Ġrozo": 2152,
      "Ġnedok": 2153,
      "tela": 2154,
      "Ġnove": 2155,
      "Ġsled": 2156,
      "nÐ¿": 2157,
      "Ġnah": 2158,
      "nro": 2159,
      "Ġspolocnosti": 2160,
      "ul": 2161,
      "teraz": 2162,
      ",âĢĿ": 2163,
      "stve": 2164,
      "Ġly": 2165,
      "chal": 2166,
      "âĦ": 2167,
      "Ġvody": 2168,
      "Ġmesta": 2169,
      "bat": 2170,
      "pali": 2171,
      "nja": 2172,
      "Ġpeniaze": 2173,
      "Ġ_~": 2174,
      "Ġmame": 2175,
      "renie": 2176,
      "Ġstoro": 2177,
      "Ġtelo": 2178,
      "ovou": 2179,
      "daj": 2180,
      "Ġobje": 2181,
      "rny": 2182,
      "Ġverej": 2183,
      "desiat": 2184,
      "leni": 2185,
      "hali": 2186,
      "Ġ13": 2187,
      "Ġzen": 2188,
      "klade": 2189,
      "Ġstav": 2190,
      "stny": 2191,
      "roch": 2192,
      "Ġzv": 2193,
      "Ġute": 2194,
      "Ġpripom": 2195,
      "Ġpotrebu": 2196,
      "Ġdia": 2197,
      "Ġnajle": 2198,
      "Ġteba": 2199,
      "zadu": 2200,
      "Ġprud": 2201,
      "koval": 2202,
      "Ñī": 2203,
      "Ġjedna": 2204,
      "Ġhy": 2205,
      "Ð²Ð¾": 2206,
      "sed": 2207,
      "âĦ¢": 2208,
      "Ġuza": 2209,
      "npred": 2210,
      "cilo": 2211,
      "Ġrovna": 2212,
      "Ġkapital": 2213,
      "nicky": 2214,
      "loval": 2215,
      "Ġeuro": 2216,
      "Ġgre": 2217,
      "nle": 2218,
      "Ġskri": 2219,
      "Ġprofe": 2220,
      "Ġcen": 2221,
      "Ġjedneho": 2222,
      "Ġjednotli": 2223,
      "Ġvediet": 2224,
      "Ġsuvi": 2225,
      "Ġwe": 2226,
      "wi": 2227,
      "stupil": 2228,
      "Ġodo": 2229,
      "Ġpreja": 2230,
      "nich": 2231,
      "Ġstrom": 2232,
      ".[": 2233,
      "Ġpocas": 2234,
      "Ġvyjad": 2235,
      "Ġtex": 2236,
      "senie": 2237,
      "Ġslobo": 2238,
      "Ġobchod": 2239,
      "Ġpride": 2240,
      "Ġhlav": 2241,
      "Ġnabo": 2242,
      "vost": 2243,
      "Ġdolu": 2244,
      "Ġvyda": 2245,
      "Ġnohy": 2246,
      "chi": 2247,
      "Ġpane": 2248,
      "vania": 2249,
      "Ġvratil": 2250,
      "Ġsuhla": 2251,
      "Ġvelky": 2252,
      "stavit": 2253,
      "Ġsved": 2254,
      "Ġuva": 2255,
      "Ġvda": 2256,
      "Ġkar": 2257,
      "Ġzatial": 2258,
      "Ġzako": 2259,
      "nn": 2260,
      "Ġkralov": 2261,
      "nsu": 2262,
      "Ġcasu": 2263,
      "Ġprv": 2264,
      "Ġpotreb": 2265,
      "ckou": 2266,
      "Ġobrov": 2267,
      "Ġmozne": 2268,
      "Ġinak": 2269,
      "Ġkamen": 2270,
      "Ġsluz": 2271,
      "Ġbar": 2272,
      "Ġniekedy": 2273,
      "komu": 2274,
      "Ġinter": 2275,
      "Ġtaka": 2276,
      "Ġinte": 2277,
      "Ġvidiet": 2278,
      "Ġstyri": 2279,
      "Ġzemi": 2280,
      "pocu": 2281,
      "rach": 2282,
      "nf": 2283,
      "Ġnebezpe": 2284,
      "pusti": 2285,
      "Ġdalsie": 2286,
      "Ġkazde": 2287,
      "Ġocami": 2288,
      "plo": 2289,
      "enym": 2290,
      "lz": 2291,
      "Ġnevie": 2292,
      "Ġzopa": 2293,
      "atku": 2294,
      "................................": 2295,
      "Ġzdalo": 2296,
      "Ġjednej": 2297,
      "Ġzab": 2298,
      "we": 2299,
      "Ġel": 2300,
      "tili": 2301,
      "Ġdrz": 2302,
      "Ġ16": 2303,
      "vym": 2304,
      "Ġpredsta": 2305,
      "Ġzale": 2306,
      "Ġji": 2307,
      "ĠĠĠĠĠĠ": 2308,
      "Ġzda": 2309,
      "Ġhlbo": 2310,
      "Ġum": 2311,
      "dene": 2312,
      "tku": 2313,
      "ndu": 2314,
      "nten": 2315,
      "Ġpripad": 2316,
      "Ġgo": 2317,
      "niu": 2318,
      "Ġgene": 2319,
      "Ġ14": 2320,
      "Ġtvari": 2321,
      "Ġvelke": 2322,
      "Ġkole": 2323,
      "Ġpozia": 2324,
      "rami": 2325,
      "Ġzisk": 2326,
      "Ġexpr": 2327,
      "Ġnemohol": 2328,
      "nejsi": 2329,
      "ila": 2330,
      "Ġ:": 2331,
      "Ġcla": 2332,
      "Ġjednu": 2333,
      "Ġsvi": 2334,
      "vys": 2335,
      "ĠÐ·Ð°": 2336,
      "ÑĤÐ¾": 2337,
      "nspo": 2338,
      "Ġmiestnosti": 2339,
      "skym": 2340,
      "Ġpredme": 2341,
      "Ġstrany": 2342,
      "Ġcharak": 2343,
      "rii": 2344,
      "rg": 2345,
      "Ġzalo": 2346,
      "Ġmieste": 2347,
      "Ġnielen": 2348,
      "Ġopy": 2349,
      "Ġstary": 2350,
      "Ġurobil": 2351,
      "Ġzrazu": 2352,
      "ĠÑĥ": 2353,
      "Ġbratisla": 2354,
      "Ġstru": 2355,
      "Ġuka": 2356,
      "Ġponu": 2357,
      "Ġkonecne": 2358,
      "Ġnapriek": 2359,
      "nre": 2360,
      "npra": 2361,
      "skou": 2362,
      "cel": 2363,
      "cast": 2364,
      "zmus": 2365,
      "Ġsm": 2366,
      "zku": 2367,
      "voli": 2368,
      "Ġpravi": 2369,
      "dny": 2370,
      "stalo": 2371,
      "pez": 2372,
      "Ġpracu": 2373,
      "ntu": 2374,
      "Ġminut": 2375,
      "lena": 2376,
      "ÑĦ": 2377,
      "covat": 2378,
      "Ġ194": 2379,
      "nno": 2380,
      "stoj": 2381,
      "Ġchlad": 2382,
      "cuz": 2383,
      "naly": 2384,
      "ĠĠĠĠĠĠĠĠĠĠĠĠĠĠĠĠĠĠĠĠĠĠĠĠĠĠĠĠĠĠĠĠ": 2385,
      "Ġzodpoved": 2386,
      "nse": 2387,
      "Ġvyuzi": 2388,
      "Ġaka": 2389,
      "Ġzom": 2390,
      "Ġas": 2391,
      "mozrejme": 2392,
      "**_": 2393,
      "bol": 2394,
      "Ġpriesto": 2395,
      "Ð¸Ð¸": 2396,
      "kovy": 2397,
      "Ġktorym": 2398,
      "Ġpora": 2399,
      "Ġvlasy": 2400,
      "!\"": 2401,
      "kvi": 2402,
      "Ġope": 2403,
      "``": 2404,
      "ret": 2405,
      "cy": 2406,
      "Ġchcela": 2407,
      "!\"\\": 2408,
      "rim": 2409,
      "zrel": 2410,
      "zat": 2411,
      "noch": 2412,
      "chyb": 2413,
      "nli": 2414,
      "ski": 2415,
      "nar": 2416,
      "ruje": 2417,
      "Ġcelu": 2418,
      "Ġspytala": 2419,
      "Ġmiesta": 2420,
      "Ġnasled": 2421,
      "Ġdna": 2422,
      "nla": 2423,
      "Ġcir": 2424,
      "Ġgra": 2425,
      "Ġznamena": 2426,
      "ratila": 2427,
      "Ġprost": 2428,
      "Ġporiadku": 2429,
      "Ġpovin": 2430,
      "Ġed": 2431,
      "onal": 2432,
      "Ġvoja": 2433,
      "Ġpozrela": 2434,
      "kru": 2435,
      "nemu": 2436,
      "ĠÐ³": 2437,
      "Ġnasle": 2438,
      "Ġchcem": 2439,
      "ckym": 2440,
      "Ġvec": 2441,
      "dych": 2442,
      "tami": 2443,
      "huje": 2444,
      "Ġvysku": 2445,
      "Ġvedom": 2446,
      "ÐµÐ»ÑĮ": 2447,
      "Ġnezna": 2448,
      "Ġpodobne": 2449,
      "tri": 2450,
      "Ġvnu": 2451,
      "Ġsmie": 2452,
      "Â©": 2453,
      "Ġsub": 2454,
      "@@?": 2455,
      "Ġzmie": 2456,
      "dobre": 2457,
      "Ġspomenu": 2458,
      "Ġrozhovo": 2459,
      "Ġameri": 2460,
      "Ġdych": 2461,
      "Ġdesat": 2462,
      "Ġfe": 2463,
      "Ġmusim": 2464,
      "Ġinych": 2465,
      "stri": 2466,
      "Ġtela": 2467,
      "Ġram": 2468,
      "Ġspolocen": 2469,
      "Ġpravo": 2470,
      "hl": 2471,
      "preco": 2472,
      "Ġnesta": 2473,
      "cep": 2474,
      "Ġdalsi": 2475,
      "Ġmeto": 2476,
      "Ġrukou": 2477,
      "Ġï¿½": 2478,
      "res": 2479,
      "Ġsvete": 2480,
      "Ġboj": 2481,
      "riadne": 2482,
      "Ġzvu": 2483,
      "smiala": 2484,
      "ien": 2485,
      "Ġzave": 2486,
      "Ġobra": 2487,
      "Ġdobry": 2488,
      "denia": 2489,
      "tnu": 2490,
      "Ġstala": 2491,
      "Ġprislu": 2492,
      "Ġpravdepo": 2493,
      "Ġobi": 2494,
      "Ġpatri": 2495,
      "hodne": 2496,
      "Ġpie": 2497,
      "sad": 2498,
      "Ġzauj": 2499,
      "Ġkonci": 2500,
      "tka": 2501,
      "Ġzabu": 2502,
      "ranit": 2503,
      "Ġhoru": 2504,
      "Ġnejaky": 2505,
      "Ġsveta": 2506,
      "Ġobratil": 2507,
      "nili": 2508,
      "gie": 2509,
      "dva": 2510,
      "Ñİ": 2511,
      "Ġprec": 2512,
      "Ġtotiz": 2513,
      "Ġzavi": 2514,
      "Ġhladi": 2515,
      "vela": 2516,
      "vadza": 2517,
      "Ġsklo": 2518,
      "Ġodmie": 2519,
      "Ġkedze": 2520,
      "Ġpriamo": 2521,
      "Ġnevedel": 2522,
      "Ġkle": 2523,
      "Ġkultu": 2524,
      "Ġpolicaj": 2525,
      "---": 2526,
      "Ġskry": 2527,
      "obe": 2528,
      "Ġrado": 2529,
      "Ġlist": 2530,
      "rozpra": 2531,
      "Ġdieta": 2532,
      "aj": 2533,
      "ckom": 2534,
      "kove": 2535,
      "Ġmozu": 2536,
      "Ġdievca": 2537,
      "mil": 2538,
      "Ġmaje": 2539,
      "Ġsvojom": 2540,
      "zky": 2541,
      "nch": 2542,
      "mozno": 2543,
      "|---": 2544,
      "cti": 2545,
      "Ġsmerom": 2546,
      "Ġsmrti": 2547,
      "dial": 2548,
      "Ġrozu": 2549,
      "Ġpohyb": 2550,
      "lat": 2551,
      "pisa": 2552,
      "bri": 2553,
      "Ġzakon": 2554,
      "Ġovela": 2555,
      "Ġrok": 2556,
      "Ġvykri": 2557,
      "ologi": 2558,
      "pel": 2559,
      "Ġoblo": 2560,
      "Ġhovor": 2561,
      "is": 2562,
      "pili": 2563,
      "Ġvyrob": 2564,
      "Ġ\\": 2565,
      "Ġner": 2566,
      "Ġen": 2567,
      "tar": 2568,
      "nikom": 2569,
      "novat": 2570,
      "Ġtazko": 2571,
      "stupu": 2572,
      "nny": 2573,
      "lal": 2574,
      "Ġneve": 2575,
      "nske": 2576,
      "Ġvystre": 2577,
      "Ġzdvihol": 2578,
      "nme": 2579,
      "Ġhistori": 2580,
      "sycho": 2581,
      "lela": 2582,
      "Ġzacala": 2583,
      "||||": 2584,
      "Ġradsej": 2585,
      "Ġvza": 2586,
      "Ġfrancuz": 2587,
      "...\\": 2588,
      "niz": 2589,
      "Ġmale": 2590,
      "Ġroky": 2591,
      "nst": 2592,
      "Ġpona": 2593,
      "ked": 2594,
      "nast": 2595,
      "Ġspu": 2596,
      "Ġoble": 2597,
      "Ġkapito": 2598,
      "naz": 2599,
      "pec": 2600,
      "tro": 2601,
      "nder": 2602,
      "Ġnajprv": 2603,
      "Ġnesmie": 2604,
      "trov": 2605,
      "kazal": 2606,
      "Ġvytvo": 2607,
      "Ġhlavy": 2608,
      "Ġposky": 2609,
      "Ġsice": 2610,
      "Ġ198": 2611,
      "nve": 2612,
      "Ġzaroven": 2613,
      "Ġsrdce": 2614,
      "ncela": 2615,
      "Ġmateri": 2616,
      "Ġpodob": 2617,
      "luje": 2618,
      "Ġmili": 2619,
      "velmi": 2620,
      "Ġzre": 2621,
      "au": 2622,
      "Ġoblasti": 2623,
      "Ġsiro": 2624,
      "Ġska": 2625,
      "Ġven": 2626,
      "hlia": 2627,
      "Ġzvo": 2628,
      "Ġdvaja": 2629,
      "-**\\": 2630,
      "Ġzmlu": 2631,
      "nsta": 2632,
      "_**\\": 2633,
      "Ġmor": 2634,
      "Ġ_(": 2635,
      "jal": 2636,
      "Ġpriprav": 2637,
      "dnej": 2638,
      "Ġvraz": 2639,
      "koniec": 2640,
      "jich": 2641,
      "yzi": 2642,
      "Ġvzal": 2643,
      "Ġruka": 2644,
      "Ġozval": 2645,
      "ÂĿ,": 2646,
      "hova": 2647,
      "Ġsuk": 2648,
      "Ġtajom": 2649,
      "Ġnapr": 2650,
      "Ġpocul": 2651,
      "Ġnau": 2652,
      "aty": 2653,
      "Ġmyslel": 2654,
      "Ð¾ÑĢ": 2655,
      "ËĿ": 2656,
      "nskej": 2657,
      "Ġprilis": 2658,
      "tuje": 2659,
      "Ġmini": 2660,
      "Ġsva": 2661,
      "Ð½Ðµ": 2662,
      "Ġnejake": 2663,
      "Ġprosim": 2664,
      "Ġpozri": 2665,
      "Ġpis": 2666,
      "tam": 2667,
      "fon": 2668,
      "Ġuspo": 2669,
      "Ġtolko": 2670,
      "zuju": 2671,
      "Ġpribli": 2672,
      "Ġvybe": 2673,
      "Ġzaj": 2674,
      "Ġcitil": 2675,
      "Ġprava": 2676,
      "nuz": 2677,
      "Ġzapla": 2678,
      "lovat": 2679,
      "veny": 2680,
      "Ġprile": 2681,
      "Ð»Ð°": 2682,
      "Ġzeme": 2683,
      "Ġfre": 2684,
      "Ġbru": 2685,
      "Ġocho": 2686,
      "Ġoto": 2687,
      "losti": 2688,
      "Ġfra": 2689,
      "konom": 2690,
      "Ġmuza": 2691,
      "lin": 2692,
      "Ġrada": 2693,
      "pak": 2694,
      "Ð»Ðµ": 2695,
      "Â¡": 2696,
      "Ġzra": 2697,
      "hodno": 2698,
      "Ġpoznamen": 2699,
      "Ġvidela": 2700,
      "Ġcia": 2701,
      "Ġdedi": 2702,
      "Ġcela": 2703,
      "juceho": 2704,
      "enosti": 2705,
      "Ġneda": 2706,
      "Ġpomoc": 2707,
      "Ġprisli": 2708,
      "Ġniekoho": 2709,
      "Ġet": 2710,
      "Ġmoc": 2711,
      "Ġpoha": 2712,
      "Ġben": 2713,
      "Ġuto": 2714,
      "Ġiny": 2715,
      "dali": 2716,
      "Ġmatka": 2717,
      "Ġorganiza": 2718,
      "byt": 2719,
      "Ġprezi": 2720,
      "Ġdaleko": 2721,
      "mou": 2722,
      "Ġpana": 2723,
      "Ġwil": 2724,
      "ir": 2725,
      "nni": 2726,
      "Ġpara": 2727,
      "Ġnovi": 2728,
      "renia": 2729,
      "Ġvedela": 2730,
      "Ġsprav": 2731,
      "Ġceste": 2732,
      "atok": 2733,
      "Ġsmu": 2734,
      "200": 2735,
      "Ġnazna": 2736,
      "Ġii": 2737,
      "Ġotca": 2738,
      "Ġbudeme": 2739,
      "mes": 2740,
      ".)": 2741,
      "Ġusmial": 2742,
      "kujem": 2743,
      "chadzal": 2744,
      "Ġjednoducho": 2745,
      "veda": 2746,
      "ï¿½ï¿½": 2747,
      "?âĢĿ\\": 2748,
      "Ġdosia": 2749,
      "Ġtyz": 2750,
      "Ġpokracoval": 2751,
      "Ġgro": 2752,
      "nove": 2753,
      "Ġrovno": 2754,
      "Ġtvoj": 2755,
      "mar": 2756,
      "nra": 2757,
      "Ġzaujima": 2758,
      "Ġdov": 2759,
      "cik": 2760,
      "Ġmozeme": 2761,
      "ley": 2762,
      "Ġpodpo": 2763,
      "ial": 2764,
      "im": 2765,
      "Ġprikyvol": 2766,
      "Ġskoro": 2767,
      "Ġdoka": 2768,
      "Ġmra": 2769,
      "Ġdemo": 2770,
      "vot": 2771,
      "snu": 2772,
      "cek": 2773,
      "Ġazda": 2774,
      "Ġsvetlo": 2775,
      "ur": 2776,
      "Ġbal": 2777,
      "Ġhodiny": 2778,
      "pen": 2779,
      "tial": 2780,
      "Ġqu": 2781,
      "Ġpokoj": 2782,
      "Ġuna": 2783,
      "Ġradi": 2784,
      "Ġviete": 2785,
      "zim": 2786,
      "Ġstvo": 2787,
      "Ġkontro": 2788,
      "rok": 2789,
      "nzo": 2790,
      "Ġhrani": 2791,
      "Ġdro": 2792,
      "edzi": 2793,
      "Ġhroz": 2794,
      "nskeho": 2795,
      "Ġizby": 2796,
      "nska": 2797,
      "Ġreali": 2798,
      "Ġlenze": 2799,
      "skuto": 2800,
      "Ġpolovi": 2801,
      "Ġpojde": 2802,
      "Ġpodarilo": 2803,
      "Ġstol": 2804,
      "denti": 2805,
      "cova": 2806,
      "Ġble": 2807,
      "zny": 2808,
      "Ġskla": 2809,
      "zeny": 2810,
      "Ġnasiel": 2811,
      "prostred": 2812,
      "kial": 2813,
      "Ġvies": 2814,
      "Ġskutocne": 2815,
      "sci": 2816,
      "Ġnavste": 2817,
      "aha": 2818,
      "Ġdove": 2819,
      "Ġnara": 2820,
      "ntak": 2821,
      "Ġcesty": 2822,
      "Ġtem": 2823,
      "Ġkvoli": 2824,
      "Ġ193": 2825,
      "ovia": 2826,
      "@@@": 2827,
      "Ġbro": 2828,
      "Ġupra": 2829,
      "Ġstali": 2830,
      "Ġodv": 2831,
      "hna": 2832,
      "Ġzamie": 2833,
      "ff": 2834,
      "Ġzve": 2835,
      "Ġnapad": 2836,
      "Ġposu": 2837,
      "plyv": 2838,
      "zovat": 2839,
      "Ġfla": 2840,
      "Ġdnu": 2841,
      "Ġlod": 2842,
      "Ġkancela": 2843,
      "nsku": 2844,
      "Ġskutocnosti": 2845,
      "Ġvraj": 2846,
      "Ġotvoril": 2847,
      "Ġplu": 2848,
      "Ġpribe": 2849,
      "Ġpev": 2850,
      "Ġvysled": 2851,
      "Ġskus": 2852,
      "hlas": 2853,
      "Ġuved": 2854,
      "hych": 2855,
      "Ġpoznam": 2856,
      "mam": 2857,
      "Ġmlade": 2858,
      "Ġsposobom": 2859,
      "cena": 2860,
      "ĠÐ½Ðµ": 2861,
      "zemi": 2862,
      "bro": 2863,
      "ÑĤÑĮÑģÑı": 2864,
      "Ġdlhe": 2865,
      "Ġprazd": 2866,
      "Ð¾Ð³": 2867,
      "âĢľ,": 2868,
      "Ġokam": 2869,
      "Ġfoto": 2870,
      "skoro": 2871,
      "xa": 2872,
      "mol": 2873,
      "Ġcaka": 2874,
      "bili": 2875,
      "Ġsym": 2876,
      "Ġkva": 2877,
      "stan": 2878,
      "Ġzacali": 2879,
      "Ġan": 2880,
      ".;": 2881,
      "Ġvlad": 2882,
      "Ġopi": 2883,
      "myslim": 2884,
      "proti": 2885,
      "lozil": 2886,
      "Ġneboli": 2887,
      "____": 2888,
      "Ġzviera": 2889,
      "klady": 2890,
      "Ġzivote": 2891,
      "ham": 2892,
      "Ġvojen": 2893,
      "aa": 2894,
      "Ġanaly": 2895,
      "Ġnakoniec": 2896,
      "Ġrukami": 2897,
      "Ġprostried": 2898,
      "leny": 2899,
      "zri": 2900,
      "npod": 2901,
      "nica": 2902,
      "mor": 2903,
      "Ġzalu": 2904,
      "Ġokra": 2905,
      "Ġvykona": 2906,
      "Ġindi": 2907,
      "Ġmuzi": 2908,
      "reli": 2909,
      "stitu": 2910,
      "niesol": 2911,
      "suje": 2912,
      "chodu": 2913,
      "Ġmusime": 2914,
      "Ġporu": 2915,
      "Ġocaka": 2916,
      "znal": 2917,
      "âĢĻ": 2918,
      "Ġdar": 2919,
      "Ġpal": 2920,
      "Ġnajvac": 2921,
      "Ġprijem": 2922,
      "Ġsmrt": 2923,
      "nite": 2924,
      "noval": 2925,
      "Ġdozved": 2926,
      "Ġpravdepodobne": 2927,
      "kre": 2928,
      "Ġtrie": 2929,
      "stuje": 2930,
      "Ġvazne": 2931,
      "Ð»Ð¸": 2932,
      "Ġrozum": 2933,
      "Ġisto": 2934,
      "Ġzisti": 2935,
      "Ġener": 2936,
      "Ġnase": 2937,
      "ĠÑĢÐ°": 2938,
      "Ġjazyk": 2939,
      "Ġodva": 2940,
      "vame": 2941,
      "sl": 2942,
      "Ġpredstav": 2943,
      "Ġzara": 2944,
      "Ġnato": 2945,
      "lych": 2946,
      "Ġudalo": 2947,
      "mata": 2948,
      "Ġsen": 2949,
      "ĠÑĩ": 2950,
      "Ġhovorit": 2951,
      "cin": 2952,
      "Ġniz": 2953,
      "Ġruke": 2954,
      "siet": 2955,
      "Ġdvadsat": 2956,
      "zajom": 2957,
      "Ġzele": 2958,
      "Ġvyset": 2959,
      "Ġsedel": 2960,
      "Ð»ÑĮ": 2961,
      "Ġpena": 2962,
      "Ġprofeso": 2963,
      "-_": 2964,
      "Ġvylu": 2965,
      "Ġsne": 2966,
      "Ġzacu": 2967,
      "nw": 2968,
      "Ġlaska": 2969,
      "Ġokami": 2970,
      "Ġvyzna": 2971,
      "Ġzru": 2972,
      "Ġposobi": 2973,
      "Ġpome": 2974,
      "vani": 2975,
      "cnym": 2976,
      "Ġniektore": 2977,
      "nute": 2978,
      "Ġsvie": 2979,
      "Ġpsycho": 2980,
      "bre": 2981,
      "Ġsuca": 2982,
      "Ġmenej": 2983,
      "Ġukazal": 2984,
      "pan": 2985,
      "chode": 2986,
      "Ġgar": 2987,
      "Ġpove": 2988,
      "Ġ197": 2989,
      "Ġnamiesto": 2990,
      "tivne": 2991,
      "jucej": 2992,
      "Ġvede": 2993,
      "nvi": 2994,
      "obec": 2995,
      "Ġopu": 2996,
      "Ġodpovedal": 2997,
      "Ġtrest": 2998,
      "âĢ¦âĢľ": 2999,
      "Ġzho": 3000,
      "Ġpodi": 3001,
      "ld": 3002,
      "Ġnavy": 3003,
      "Ġznamen": 3004,
      "Ġpokial": 3005,
      "Ġposlu": 3006,
      "Ġume": 3007,
      "Ġtru": 3008,
      "Ġuspe": 3009,
      "zla": 3010,
      "Ġmod": 3011,
      "boz": 3012,
      "Ġodde": 3013,
      "atela": 3014,
      "publi": 3015,
      "|---|---": 3016,
      "Ġsvat": 3017,
      "ngu": 3018,
      "rena": 3019,
      "ĠÐ»": 3020,
      "Ġpostav": 3021,
      "Ġzaba": 3022,
      "her": 3023,
      "Ġpokojne": 3024,
      "Ġih": 3025,
      "Ġvnut": 3026,
      "Ġbli": 3027,
      "cte": 3028,
      "Ġ'": 3029,
      "Ġmuzov": 3030,
      "Ġdavno": 3031,
      "Ġmozem": 3032,
      "bel": 3033,
      "soch": 3034,
      "ticky": 3035,
      "Ġzaklade": 3036,
      "Ġzata": 3037,
      "nin": 3038,
      "logie": 3039,
      "âĢ¢": 3040,
      "Ġstraz": 3041,
      "zer": 3042,
      "nor": 3043,
      "zis": 3044,
      "gyp": 3045,
      "spodar": 3046,
      "Ġkoho": 3047,
      "ÑĺÐ½Ð¸Ðµ": 3048,
      ";_": 3049,
      "Ġnasi": 3050,
      "kymi": 3051,
      "Ġelekt": 3052,
      "Ġpresiel": 3053,
      "Ġpotvr": 3054,
      "ene": 3055,
      ".**\\": 3056,
      "pria": 3057,
      "Ġnasa": 3058,
      "Ġsily": 3059,
      "Ġpost": 3060,
      "Ġvoci": 3061,
      "Ġreci": 3062,
      "lenia": 3063,
      "Ð¾Ð¼": 3064,
      "Ġklo": 3065,
      "graf": 3066,
      "slosti": 3067,
      "lila": 3068,
      "fal": 3069,
      "Ġzapad": 3070,
      "drz": 3071,
      "Ġkrv": 3072,
      "pisal": 3073,
      "Ġprisla": 3074,
      "Ġrastli": 3075,
      "Ġnami": 3076,
      "Ġrozsi": 3077,
      "Ġosa": 3078,
      "chadzali": 3079,
      "ovana": 3080,
      "xu": 3081,
      "Ġbur": 3082,
      "Ġchcete": 3083,
      "ovalo": 3084,
      "gh": 3085,
      "Ġ25": 3086,
      "Ġziska": 3087,
      "Ġkuchy": 3088,
      "sticky": 3089,
      "Ġ+": 3090,
      "Ġtaku": 3091,
      "och": 3092,
      "necha": 3093,
      "harry": 3094,
      "koji": 3095,
      "...\"\\": 3096,
      "viedol": 3097,
      "Ġhlasom": 3098,
      "Ġnado": 3099,
      "predu": 3100,
      "Ġproblem": 3101,
      "25": 3102,
      "Ġdruhu": 3103,
      "Ġhovoril": 3104,
      "nba": 3105,
      "Ġtou": 3106,
      "Ġust": 3107,
      "Ġsr": 3108,
      "sieho": 3109,
      "ler": 3110,
      "nso": 3111,
      "cenia": 3112,
      "nva": 3113,
      "Ġis": 3114,
      "Ġvyvola": 3115,
      "Ġdome": 3116,
      "reny": 3117,
      "bit": 3118,
      "Ġprve": 3119,
      "Ġslecna": 3120,
      "grafi": 3121,
      "Ġzenu": 3122,
      "Ġdeji": 3123,
      "Ġnajst": 3124,
      "juca": 3125,
      "nzi": 3126,
      "Ġzac": 3127,
      "ÐµÐ¼": 3128,
      "Ġstrach": 3129,
      "Ġzdo": 3130,
      "Ġnaho": 3131,
      "Ġmaly": 3132,
      "atu": 3133,
      "âĪĴ": 3134,
      "Ġzavola": 3135,
      "Ġpodstat": 3136,
      "Ġstvr": 3137,
      "Ġdolezite": 3138,
      "nskych": 3139,
      "zad": 3140,
      "Ġdet": 3141,
      "Ġply": 3142,
      "Ġprodu": 3143,
      "Ġnasledu": 3144,
      "sala": 3145,
      "nate": 3146,
      "ncov": 3147,
      "Ġpohladom": 3148,
      "vena": 3149,
      "zli": 3150,
      "Ġdce": 3151,
      "Ġvysky": 3152,
      "seli": 3153,
      "Ġcit": 3154,
      "Ġjaz": 3155,
      "Ġpricom": 3156,
      "reni": 3157,
      "Ġjako": 3158,
      "Ġblizko": 3159,
      "Ġokol": 3160,
      "leho": 3161,
      "jme": 3162,
      "Ġchces": 3163,
      "Ġura": 3164,
      "lozo": 3165,
      "Ġpopo": 3166,
      "viac": 3167,
      "skor": 3168,
      "zok": 3169,
      "ph": 3170,
      "Ġauta": 3171,
      "23": 3172,
      "Ġmr": 3173,
      "Ġplne": 3174,
      "riem": 3175,
      "nsom": 3176,
      "Ġrozli": 3177,
      "Ġcislo": 3178,
      "Ð¾Ð´": 3179,
      "Âĵ": 3180,
      "bach": 3181,
      "Ġ11": 3182,
      "Ġund": 3183,
      "Ġfyzi": 3184,
      "tene": 3185,
      "Ġmohlo": 3186,
      "os": 3187,
      "Ġhrad": 3188,
      "Ġkolko": 3189,
      "ich": 3190,
      "fika": 3191,
      "Ġzaz": 3192,
      "Ġspis": 3193,
      "Ġvcera": 3194,
      "Ġnovy": 3195,
      "Ġcaro": 3196,
      "Ġrokoch": 3197,
      "novy": 3198,
      "Ġnajde": 3199,
      "Ġ%": 3200,
      "Ġkral": 3201,
      "nga": 3202,
      "Ġrobot": 3203,
      "Ġdvom": 3204,
      "Ġsal": 3205,
      "nvset": 3206,
      "Ġhodin": 3207,
      "Ġop": 3208,
      "vosti": 3209,
      "Ġociach": 3210,
      "ede": 3211,
      "Ġdot": 3212,
      "zitost": 3213,
      "Ġobaja": 3214,
      "Ġvyho": 3215,
      "chodi": 3216,
      "zom": 3217,
      "Ġcar": 3218,
      "Ġvstal": 3219,
      "Ġhlave": 3220,
      "Ġodisiel": 3221,
      "lost": 3222,
      "Ġkoniec": 3223,
      "Ġhlava": 3224,
      "nala": 3225,
      "ssi": 3226,
      "Ġzov": 3227,
      "Ġuniver": 3228,
      "Ġ30": 3229,
      "Ġnemala": 3230,
      "Ġsamozrejme": 3231,
      "Ġusa": 3232,
      "000": 3233,
      "Ġcvi": 3234,
      "Ġlekar": 3235,
      "Ġochra": 3236,
      "Ġodtial": 3237,
      "Ġkte": 3238,
      "Ġuvaz": 3239,
      "Ġmeste": 3240,
      "col": 3241,
      "Ġstorocia": 3242,
      "stol": 3243,
      "Ġsedem": 3244,
      "Ġ196": 3245,
      "Ġeli": 3246,
      "Ġki": 3247,
      "Ġvdaka": 3248,
      "Ġzaha": 3249,
      "\",": 3250,
      "chova": 3251,
      "Ġnemam": 3252,
      "Ġpekne": 3253,
      "vane": 3254,
      "vra": 3255,
      "Ġpas": 3256,
      "Ġmnozstvo": 3257,
      "Ġkli": 3258,
      "Ġopra": 3259,
      "Ġokamzite": 3260,
      "Ġzlom": 3261,
      "Ġhladel": 3262,
      "22": 3263,
      "tes": 3264,
      "Ġrozdiel": 3265,
      "Ġpery": 3266,
      "Ġposle": 3267,
      "tiahla": 3268,
      "Ġmuseli": 3269,
      "tosti": 3270,
      "simol": 3271,
      "Ġcitila": 3272,
      "atelia": 3273,
      "Ġstatu": 3274,
      "Ġotazku": 3275,
      "let": 3276,
      "Ġvod": 3277,
      "Ġcesta": 3278,
      "nis": 3279,
      "Ñĸ": 3280,
      "Ġuda": 3281,
      "Ġdostane": 3282,
      "Ġsyn": 3283,
      "Ġdefi": 3284,
      "Ġvideli": 3285,
      "Ġbudete": 3286,
      "Ġurad": 3287,
      "knut": 3288,
      "sar": 3289,
      "ceho": 3290,
      "cita": 3291,
      "nnaj": 3292,
      "Ġmojej": 3293,
      "volu": 3294,
      "Ġcoraz": 3295,
      "Ġkapitan": 3296,
      "Ġodvetila": 3297,
      "Ġdola": 3298,
      "Ġseku": 3299,
      "Ġegyp": 3300,
      "tach": 3301,
      "nby": 3302,
      "Ġnew": 3303,
      "tin": 3304,
      "Ġnevidel": 3305,
      "Ġekonom": 3306,
      "Ġbudes": 3307,
      "Ġag": 3308,
      "Ġchlapi": 3309,
      "Ġriadi": 3310,
      "Ġvykon": 3311,
      "pala": 3312,
      "Ġzvolal": 3313,
      "Ġpopri": 3314,
      "Ġvece": 3315,
      "Ġcakal": 3316,
      "âĤ": 3317,
      "Ġpomyslel": 3318,
      "Ġsucas": 3319,
      "Ġpapie": 3320,
      "Ġzahra": 3321,
      "âĤ¬": 3322,
      "Ġche": 3323,
      "rid": 3324,
      "Ġosem": 3325,
      "gan": 3326,
      "Ġhrd": 3327,
      "Ġpovedz": 3328,
      "Ġzajtra": 3329,
      "Ð½Ð°Ñı": 3330,
      "mala": 3331,
      "pka": 3332,
      "Ġzava": 3333,
      "Ġvyko": 3334,
      "star": 3335,
      "Ġsaty": 3336,
      "Ġostatni": 3337,
      "Ġvami": 3338,
      "Ġhm": 3339,
      "Ġbratislava": 3340,
      "24": 3341,
      "rovej": 3342,
      "Ġuve": 3343,
      "mit": 3344,
      "Ġmoznost": 3345,
      "Ġpali": 3346,
      "dro": 3347,
      "nem": 3348,
      "Ġchra": 3349,
      "nlen": 3350,
      ".âĢľâĢŀ": 3351,
      "bliz": 3352,
      "nicka": 3353,
      "tymi": 3354,
      "Ġodrazu": 3355,
      "hala": 3356,
      "ĠÑģÑĤ": 3357,
      "30": 3358,
      "Ġnechcel": 3359,
      "Ġruk": 3360,
      "nalo": 3361,
      "Ġprostre": 3362,
      "myslel": 3363,
      "ÂĿ.": 3364,
      "Ġuvi": 3365,
      "setkym": 3366,
      "zou": 3367,
      ",**\\": 3368,
      "Ġmusiet": 3369,
      "Ġhosti": 3370,
      "Ġnaru": 3371,
      "Ġpevne": 3372,
      "Ġpozornost": 3373,
      "Ġstole": 3374,
      "teho": 3375,
      "Ġdostali": 3376,
      "Ġzveda": 3377,
      "chadzaju": 3378,
      "âĢľ.": 3379,
      "ÑģÑĤÑĮ": 3380,
      "Ġrozhodol": 3381,
      "Ġdrob": 3382,
      "nkom": 3383,
      "Ġmusela": 3384,
      "Ġlahko": 3385,
      "Ġ24": 3386,
      "kr": 3387,
      "Ġdlh": 3388,
      "seni": 3389,
      "plat": 3390,
      "ncu": 3391,
      "lym": 3392,
      "Ġvzduchu": 3393,
      "Ġfil": 3394,
      "ĠÎ": 3395,
      "chodom": 3396,
      "Ġzatvo": 3397,
      "Ġpoklad": 3398,
      "ovom": 3399,
      "covala": 3400,
      "Ġviace": 3401,
      "ÑĢÑĥ": 3402,
      "Ġbojov": 3403,
      "Ġjest": 3404,
      "Ġvysla": 3405,
      "Ġlet": 3406,
      "Ġcelej": 3407,
      "Ġstoji": 3408,
      "rovy": 3409,
      "xx": 3410,
      "Ġsir": 3411,
      "cnom": 3412,
      "ativ": 3413,
      "Ġarma": 3414,
      "Ġvztah": 3415,
      "stvom": 3416,
      "Ġut": 3417,
      "Ġosobi": 3418,
      "Ġprizna": 3419,
      "meno": 3420,
      "Ġplat": 3421,
      "Ġsprava": 3422,
      "Ġoni": 3423,
      "rch": 3424,
      "Ġvysiel": 3425,
      "Ð»Ð¾": 3426,
      "Ġtroch": 3427,
      "str": 3428,
      "Ġspravne": 3429,
      "Ġdoby": 3430,
      "Ġobdob": 3431,
      "Ġspoci": 3432,
      "Ġcelo": 3433,
      "ben": 3434,
      "Ġvyh": 3435,
      "Ġnijake": 3436,
      "Ġprekvap": 3437,
      "vky": 3438,
      "Ġbohat": 3439,
      "Ġobyvatel": 3440,
      "Ġkedysi": 3441,
      ".**": 3442,
      "Ġpokru": 3443,
      "Ġuzi": 3444,
      "Ġkapitola": 3445,
      "nÑģ": 3446,
      "behol": 3447,
      "Ġles": 3448,
      "duje": 3449,
      "lku": 3450,
      "Ġuce": 3451,
      "Ġpraca": 3452,
      "raju": 3453,
      "Ġtebou": 3454,
      "Ġostatne": 3455,
      "Ġam": 3456,
      "nkov": 3457,
      "Ġvelko": 3458,
      "Ġchceli": 3459,
      "Ġmlad": 3460,
      "Ġsposo": 3461,
      "Ġnazy": 3462,
      "Ġoblu": 3463,
      "cina": 3464,
      "dava": 3465,
      "Ġina": 3466,
      "ĠÐ¾ÑĤ": 3467,
      "Ġhvie": 3468,
      "jej": 3469,
      "Ġvoda": 3470,
      "Ġzdro": 3471,
      "Ġlieta": 3472,
      "Ġtymto": 3473,
      "Ġpusti": 3474,
      "Ġprudko": 3475,
      "Ġnabozen": 3476,
      "Ġnevyhnut": 3477,
      "Ġmojho": 3478,
      "sade": 3479,
      "Ġhermi": 3480,
      "Ġvztahu": 3481,
      "ÃŁ": 3482,
      "26": 3483,
      "nech": 3484,
      "ide": 3485,
      "Ġ...": 3486,
      "Ġotazky": 3487,
      "Ġsystem": 3488,
      "ad": 3489,
      "rum": 3490,
      "lik": 3491,
      "Ġneob": 3492,
      "ÑĢÑĴ": 3493,
      "Ġdlhy": 3494,
      "Ġpraci": 3495,
      "Ġodbor": 3496,
      "ruz": 3497,
      "nuti": 3498,
      "pomo": 3499,
      "Ġbolesti": 3500,
      "Ġpotrebne": 3501,
      "zali": 3502,
      "Ġpocita": 3503,
      "Ġjediny": 3504,
      "nutia": 3505,
      "Ġmora": 3506,
      "Ġkozu": 3507,
      "buje": 3508,
      "Ġvytva": 3509,
      "Ġspravy": 3510,
      "Ġsvojou": 3511,
      "land": 3512,
      "ut": 3513,
      "Ġjedine": 3514,
      "ctu": 3515,
      "Ġer": 3516,
      "Ġprogra": 3517,
      "riu": 3518,
      "Ġtelefon": 3519,
      "@@@@@@@@@@@@@@@@@@@@@@@@@@@@@@@@@@@@@@@@@@@@@@@@@@@@@@@@@@@@@@@@@@@@@@@@@@@@@@@@@@@@@@@@@@@@@@@@@@@@@@@@@@@@@@@@@@@@@@@@@@@@@@@@": 3520,
      "nicke": 3521,
      "Ġsval": 3522,
      "Ġnasli": 3523,
      "stiach": 3524,
      "ger": 3525,
      "nge": 3526,
      "liet": 3527,
      "Ġopre": 3528,
      "bami": 3529,
      "dilo": 3530,
      "Ġdoho": 3531,
      "ani": 3532,
      "vita": 3533,
      "Ġciga": 3534,
      "Ġpochyb": 3535,
      "byto": 3536,
      "thew": 3537,
      "Ġtradi": 3538,
      "Ġjsem": 3539,
      "Ġzakaz": 3540,
      "kladu": 3541,
      "Ġzapo": 3542,
      "Ġvznik": 3543,
      "Ġmena": 3544,
      "Ġduse": 3545,
      "nas": 3546,
      "Ġmesto": 3547,
      "Ġrim": 3548,
      "Ġprislus": 3549,
      "stlivo": 3550,
      "Ġdvoj": 3551,
      "Ġsukrom": 3552,
      "Ġcestou": 3553,
      "Ġanti": 3554,
      "cata": 3555,
      "Ġvedu": 3556,
      "Ġmnoho": 3557,
      "Ġzva": 3558,
      "Ġnespo": 3559,
      "Ġzopar": 3560,
      "Ġprev": 3561,
      "ÑĤÐ¸": 3562,
      "vok": 3563,
      "Ġineho": 3564,
      "Ġdoktor": 3565,
      "Ġnos": 3566,
      "lah": 3567,
      "Ġnepa": 3568,
      "ciek": 3569,
      "zes": 3570,
      "Ġvseobec": 3571,
      "skocil": 3572,
      "vodli": 3573,
      "Ġnepriatel": 3574,
      "fam": 3575,
      "Ġvytiahol": 3576,
      "Ġnaopak": 3577,
      "Ġrozhodne": 3578,
      "Ġcudzi": 3579,
      "sis": 3580,
      "Ġrepubli": 3581,
      "vset": 3582,
      "Ġmlady": 3583,
      "zova": 3584,
      "niel": 3585,
      "bert": 3586,
      "Ġzl": 3587,
      "Ġvyvi": 3588,
      "Ġnala": 3589,
      "rn": 3590,
      "Ġstruktu": 3591,
      "Ġdoty": 3592,
      "Ġchytil": 3593,
      "bora": 3594,
      "Ġcinnosti": 3595,
      "Ġtelefo": 3596,
      "Ġpeter": 3597,
      "Ġpolozil": 3598,
      "wo": 3599,
      "Ġuvedomil": 3600,
      "stej": 3601,
      "Ġpoznamenal": 3602,
      "Ġnechal": 3603,
      "Ð¾Ð²Ð°": 3604,
      "Ġtyka": 3605,
      "Ġjazyka": 3606,
      "lka": 3607,
      "alie": 3608,
      "dim": 3609,
      "ÑĤÐ°": 3610,
      "Ġhlavne": 3611,
      "Ġnazo": 3612,
      "Ġzmo": 3613,
      "bla": 3614,
      "Ġrokmi": 3615,
      "Ġopytal": 3616,
      "Ġprez": 3617,
      "Ġser": 3618,
      "Ġblizsie": 3619,
      "Ġupre": 3620,
      "Ġzbadal": 3621,
      "Ġkonk": 3622,
      "Ġnale": 3623,
      "Ġnemali": 3624,
      "struk": 3625,
      "jucim": 3626,
      "Ġdesi": 3627,
      "Ġvacsmi": 3628,
      "Ġpoho": 3629,
      "Ġsvetla": 3630,
      "ovym": 3631,
      "Ġtuz": 3632,
      "Ġ23": 3633,
      "Ġnemozem": 3634,
      "ntom": 3635,
      "tnut": 3636,
      "npe": 3637,
      "Ġnormal": 3638,
      "lite": 3639,
      "Ġcoskoro": 3640,
      "Ġzasep": 3641,
      "dent": 3642,
      "bia": 3643,
      "Ġvratit": 3644,
      "Ġvytr": 3645,
      "nula": 3646,
      "Ġron": 3647,
      "rky": 3648,
      "sme": 3649,
      "Ġali": 3650,
      "kuje": 3651,
      "Ġoku": 3652,
      "Ġtebe": 3653,
      "Ġsiel": 3654,
      "Ġsmi": 3655,
      "Ġkat": 3656,
      "nkra": 3657,
      "Ġdes": 3658,
      "Ġnajlepsie": 3659,
      "Ġprostred": 3660,
      "Ġvybral": 3661,
      "jene": 3662,
      "Ġvyhlasil": 3663,
      "ranil": 3664,
      "ciny": 3665,
      "Ġnajlep": 3666,
      "nty": 3667,
      "Ġvystu": 3668,
      "Ġchlapec": 3669,
      "Ġsli": 3670,
      "Ġvnutor": 3671,
      "vice": 3672,
      "Ġnama": 3673,
      "Ġzachy": 3674,
      "Ġzmysel": 3675,
      "atej": 3676,
      "zv": 3677,
      "mej": 3678,
      "Ġpocet": 3679,
      "Ġostatnych": 3680,
      "Ġpoj": 3681,
      "dle": 3682,
      "Ġfilozo": 3683,
      "jedno": 3684,
      "Ġzni": 3685,
      "ÂĢ": 3686,
      "Ġcoho": 3687,
      "dobi": 3688,
      "Ġprakti": 3689,
      "Ġnepocu": 3690,
      "tah": 3691,
      "Ġtakych": 3692,
      "gar": 3693,
      "Ġsami": 3694,
      "Ġpredov": 3695,
      "atich": 3696,
      "vim": 3697,
      "Ġporov": 3698,
      "Ġstup": 3699,
      "Ġboha": 3700,
      "Ġidenti": 3701,
      "Ġneprijem": 3702,
      "Ġjoh": 3703,
      "cz": 3704,
      "nkon": 3705,
      "Ġzastup": 3706,
      "padne": 3707,
      "Ġnemohla": 3708,
      "Ġstred": 3709,
      "27": 3710,
      "Ġvzdial": 3711,
      "Ġkate": 3712,
      "Ġdosled": 3713,
      "Ġstara": 3714,
      "Ġzaciatku": 3715,
      "ser": 3716,
      "...âĢľ\\": 3717,
      "Ġnapi": 3718,
      "am": 3719,
      "kva": 3720,
      "Ġwi": 3721,
      "Ġukry": 3722,
      "zilo": 3723,
      "Ð²Ð¸": 3724,
      "Ġvyba": 3725,
      "Ġoboch": 3726,
      "nden": 3727,
      "Ġprinci": 3728,
      "Ġkapitalu": 3729,
      "Ġsotva": 3730,
      "Ġpostupne": 3731,
      "Ġlitera": 3732,
      "rik": 3733,
      "Ġista": 3734,
      "Ġzabezpe": 3735,
      "Ġobmed": 3736,
      "Ġhlada": 3737,
      "Ġtyzden": 3738,
      "Ġusmiala": 3739,
      "Ġuvidi": 3740,
      "Ġdovod": 3741,
      "Ġplane": 3742,
      "Ġkov": 3743,
      "Ġduchu": 3744,
      "Ġvybu": 3745,
      "tem": 3746,
      "Ġkrauz": 3747,
      "slav": 3748,
      "teli": 3749,
      "nlu": 3750,
      "ĠĠĠĠĠĠĠ": 3751,
      "kty": 3752,
      "Ġnajvys": 3753,
      "pust": 3754,
      "las": 3755,
      "ciali": 3756,
      "Ġlam": 3757,
      "Ġvzapati": 3758,
      "sticke": 3759,
      "Ġkvali": 3760,
      "ÑĭÐ¸": 3761,
      "Ġmaji": 3762,
      "Ġposteli": 3763,
      "Ġvsetkym": 3764,
      "Ġposob": 3765,
      "Ð¾ÑĤ": 3766,
      "Ġvyslov": 3767,
      "Ġrozmysla": 3768,
      "npotom": 3769,
      "28": 3770,
      "ĠÏ": 3771,
      "Ġspolocne": 3772,
      "hladom": 3773,
      "ps": 3774,
      "por": 3775,
      "Ġjak": 3776,
      "ntov": 3777,
      "Ġknihy": 3778,
      "Ġzbo": 3779,
      "Ġzvycajne": 3780,
      "ft": 3781,
      "Ġcy": 3782,
      "ticke": 3783,
      "pene": 3784,
      "Ġdalsich": 3785,
      "Ġsyna": 3786,
      "Ġvsim": 3787,
      "Ġvychod": 3788,
      "rovo": 3789,
      "Ġpala": 3790,
      "mera": 3791,
      "hovoril": 3792,
      "Ġsposobi": 3793,
      "des": 3794,
      "vymi": 3795,
      "Ġramci": 3796,
      "praved": 3797,
      "ntra": 3798,
      "solu": 3799,
      "es": 3800,
      "Ġkol": 3801,
      "tisic": 3802,
      "Ġvari": 3803,
      "Ġnavyse": 3804,
      "Ġchoro": 3805,
      "ĠÐ°": 3806,
      "Ġvybra": 3807,
      "Ġneko": 3808,
      "Ġvypra": 3809,
      "Ġzit": 3810,
      "`\\": 3811,
      "Ġmag": 3812,
      "Ġrukach": 3813,
      "Ġfina": 3814,
      "ÑĨÐ¸": 3815,
      "Ġautom": 3816,
      "Ġporozpra": 3817,
      "narod": 3818,
      "Ġobcas": 3819,
      "Ġkraj": 3820,
      "uju": 3821,
      "vov": 3822,
      "Ġcarodej": 3823,
      "mus": 3824,
      "Ġneroz": 3825,
      "Ġdala": 3826,
      "Ġdali": 3827,
      "nictvom": 3828,
      "covia": 3829,
      "Ġproblemy": 3830,
      "Ġnenavi": 3831,
      "tost": 3832,
      "nima": 3833,
      "lili": 3834,
      "Ġkop": 3835,
      "zeni": 3836,
      "Ġpomoct": 3837,
      "Ġcharakteri": 3838,
      "Ġnetu": 3839,
      "Ġprist": 3840,
      "Ġpamat": 3841,
      "Ġbri": 3842,
      "Ġmozete": 3843,
      "Ġvase": 3844,
      "Ġpoti": 3845,
      "Ġlep": 3846,
      "Ġdoku": 3847,
      "Ġrodiny": 3848,
      "29": 3849,
      "niky": 3850,
      "borne": 3851,
      "Ġzrak": 3852,
      "Ġtyzd": 3853,
      "Ġboz": 3854,
      "Ġteplo": 3855,
      "Ġcl": 3856,
      "kne": 3857,
      "Ġschod": 3858,
      "Ġchyba": 3859,
      "Ġpredpoklad": 3860,
      "Ġsadol": 3861,
      "Ġsever": 3862,
      "zmi": 3863,
      "nsko": 3864,
      "pustil": 3865,
      "zity": 3866,
      "war": 3867,
      "Ġjednom": 3868,
      "Ġslovensku": 3869,
      "Ð¾Ð±": 3870,
      "skr": 3871,
      "Ġstopy": 3872,
      "enost": 3873,
      "nvz": 3874,
      "ron": 3875,
      "bar": 3876,
      "Ġvyzeral": 3877,
      "kovych": 3878,
      "Ġusmev": 3879,
      "Ġpozera": 3880,
      "Ġvsade": 3881,
      "Ġresp": 3882,
      "Ġokolnosti": 3883,
      "dnes": 3884,
      "Ġ*": 3885,
      "Ġskuma": 3886,
      "Ġuprostred": 3887,
      "Ġprij": 3888,
      "Ġmaj": 3889,
      "ÐºÐ¸": 3890,
      "Ġsila": 3891,
      "Ġnaklo": 3892,
      "Ġkrimi": 3893,
      "Ġprirodzene": 3894,
      "site": 3895,
      "Ġjas": 3896,
      "Ġprena": 3897,
      "Ġkrvi": 3898,
      "Ġodist": 3899,
      "Ġdeje": 3900,
      "Ð·Ð°": 3901,
      "Ġzahla": 3902,
      "siela": 3903,
      "Ġpodrob": 3904,
      "Ġdodal": 3905,
      "@@@?": 3906,
      "vadz": 3907,
      "Ġpomocou": 3908,
      "Ġcest": 3909,
      "Ġmoci": 3910,
      "Ġpredovsetkym": 3911,
      "ozaj": 3912,
      "Ġskupiny": 3913,
      "Ġdveram": 3914,
      "pia": 3915,
      "tion": 3916,
      "sloven": 3917,
      "Ġdostoj": 3918,
      "Ġsvojmu": 3919,
      "Ġformu": 3920,
      "Ġuzav": 3921,
      "hle": 3922,
      "meho": 3923,
      "Ġpostele": 3924,
      "Ġdrzal": 3925,
      "Ġhi": 3926,
      "telny": 3927,
      "vuju": 3928,
      "21": 3929,
      "ml": 3930,
      "Ġzavr": 3931,
      "Ġvyu": 3932,
      "Â»": 3933,
      "Ġpriro": 3934,
      "Ġmoznosti": 3935,
      "Ġobsah": 3936,
      "povedala": 3937,
      "Ġindia": 3938,
      "sz": 3939,
      "Ġpreru": 3940,
      "mel": 3941,
      "Ġnahra": 3942,
      "vihol": 3943,
      "Ġmuze": 3944,
      "Ġpostavi": 3945,
      "Ġzbra": 3946,
      "Ġvzdela": 3947,
      "Ġspomina": 3948,
      "Ġdvoma": 3949,
      ")_\\": 3950,
      "vany": 3951,
      "Ġtaj": 3952,
      "nau": 3953,
      "lt": 3954,
      "Ġ26": 3955,
      "viest": 3956,
      "stroj": 3957,
      "este": 3958,
      "Ġstane": 3959,
      "Ġstud": 3960,
      "Ġopatrne": 3961,
      "hej": 3962,
      "Ġslovenskej": 3963,
      "ura": 3964,
      "Ġleka": 3965,
      "Ġzistil": 3966,
      "zenie": 3967,
      "Ġfaj": 3968,
      "ili": 3969,
      "Ġvese": 3970,
      "Ġmladi": 3971,
      "Ġpubli": 3972,
      "Ġ27": 3973,
      "Ġoblie": 3974,
      "nru": 3975,
      "ww": 3976,
      "budu": 3977,
      "Ġstastie": 3978,
      "Ġohla": 3979,
      "kolko": 3980,
      "Ġmom": 3981,
      "Ġlode": 3982,
      "Ġdiva": 3983,
      "hovor": 3984,
      "Ġzastal": 3985,
      "```\\": 3986,
      "brat": 3987,
      "Ġvelka": 3988,
      "ĠÐ¿ÑĢÐ¾": 3989,
      "Ġuzemi": 3990,
      "Ġakti": 3991,
      "Ġzacina": 3992,
      "nju": 3993,
      "Ġniekde": 3994,
      "Ġslnko": 3995,
      "Ġkomi": 3996,
      "Ġzmysle": 3997,
      "Ġulohu": 3998,
      "Ġpote": 3999,
      "toch": 4000,
      "50": 4001,
      "Ġber": 4002,
      "Ġrozpa": 4003,
      "Ġorie": 4004,
      "Ġtaketo": 4005,
      "Ġkil": 4006,
      "iste": 4007,
      "chadzat": 4008,
      "Ġregi": 4009,
      "Ġkapitali": 4010,
      "Ġktorymi": 4011,
      "wy": 4012,
      "ÐµÑĢÐµ": 4013,
      "Ġvrecka": 4014,
      "Ġsubje": 4015,
      "Ġdruheho": 4016,
      "Ġinformacie": 4017,
      "Ġotazka": 4018,
      "rovali": 4019,
      "npr": 4020,
      "Ġvyply": 4021,
      "ag": 4022,
      "ovatel": 4023,
      "Ġhodnoty": 4024,
      "Ġporovna": 4025,
      "Ġchar": 4026,
      "cania": 4027,
      "nuju": 4028,
      "Ġopera": 4029,
      "nved": 4030,
      "vaj": 4031,
      "Ġkrajiny": 4032,
      "Ġvelkej": 4033,
      "Ġpach": 4034,
      "Ġnasej": 4035,
      "Ġpribu": 4036,
      "Ġminister": 4037,
      "kovej": 4038,
      "Ġpotrebuje": 4039,
      "ÑĢÑĺ": 4040,
      "Ġsep": 4041,
      "Ġsvojimi": 4042,
      "nlo": 4043,
      "Ġins": 4044,
      "Ġkoru": 4045,
      "Ġprvej": 4046,
      "Ġvasa": 4047,
      "Ġporiadne": 4048,
      "Ġprsty": 4049,
      "Ġupri": 4050,
      "ktora": 4051,
      "Ġtisic": 4052,
      "Ġmn": 4053,
      "Ġspolupra": 4054,
      "Ġobvi": 4055,
      "lar": 4056,
      "Ġkazdom": 4057,
      "Ġproje": 4058,
      "mali": 4059,
      "veri": 4060,
      "Ġkazdeho": 4061,
      "ĠâĢĵ\\": 4062,
      "'\\": 4063,
      "Ġnapl": 4064,
      "Ġdverach": 4065,
      "\".": 4066,
      "ĠÐ¾Ð±": 4067,
      "...âĢľ": 4068,
      "Ġmit": 4069,
      "Ġslav": 4070,
      "Ġposledne": 4071,
      "Ġnaraz": 4072,
      "Ġvypoved": 4073,
      "Ġpen": 4074,
      "Ġroma": 4075,
      "Ġhlb": 4076,
      "Ġnan": 4077,
      "Ġuskuto": 4078,
      "Ġstrati": 4079,
      "Ġobdobi": 4080,
      "silo": 4081,
      "Ġpotla": 4082,
      "menej": 4083,
      "Ġvykro": 4084,
      "Ġdel": 4085,
      "Ġ28": 4086,
      "Ġpozem": 4087,
      "ktov": 4088,
      "Ġmesiac": 4089,
      "lle": 4090,
      "Ġblo": 4091,
      "Ġzbyto": 4092,
      "Ġspolocnost": 4093,
      "Ġizbe": 4094,
      "Ġvedeli": 4095,
      "Ġbod": 4096,
      "Ġzela": 4097,
      "Ġspomie": 4098,
      "Ġtentoraz": 4099,
      "Ġumoz": 4100,
      "zerat": 4101,
      "dost": 4102,
      "Ġlondy": 4103,
      "voch": 4104,
      "vidne": 4105,
      "Ġkazdu": 4106,
      "nhla": 4107,
      "Ġsilu": 4108,
      "ÑĴÐ¸": 4109,
      "Ġzaujem": 4110,
      "Ġbolest": 4111,
      "vin": 4112,
      "Ġpotra": 4113,
      "Ġusmevom": 4114,
      "stale": 4115,
      "rda": 4116,
      "Ġumie": 4117,
      "Ġmama": 4118,
      "199": 4119,
      "nkach": 4120,
      "noho": 4121,
      "Ġdosta": 4122,
      "alen": 4123,
      "rina": 4124,
      "enymi": 4125,
      "ej": 4126,
      "Ġpisa": 4127,
      "neviem": 4128,
      "Ġsou": 4129,
      "bujem": 4130,
      "line": 4131,
      "Ġtl": 4132,
      "Ġnapat": 4133,
      "Ġnasho": 4134,
      "Ġmyslienky": 4135,
      "Ġprisl": 4136,
      "vas": 4137,
      "robil": 4138,
      "logia": 4139,
      "Ġtymi": 4140,
      "Ġdoteraz": 4141,
      "ktory": 4142,
      "Ġvyvo": 4143,
      "Ġproces": 4144,
      "vidu": 4145,
      "zacie": 4146,
      "Ġvosiel": 4147,
      "Ġpriebe": 4148,
      "rek": 4149,
      "Ġdopredu": 4150,
      "nemo": 4151,
      "Ġslove": 4152,
      "nmie": 4153,
      "Ġmusia": 4154,
      "tova": 4155,
      "Ġplati": 4156,
      "Ġpodoz": 4157,
      "cine": 4158,
      "fer": 4159,
      "Ġlogi": 4160,
      "Ġobycaj": 4161,
      "Ġbil": 4162,
      "nuty": 4163,
      "Ġspoloc": 4164,
      "znat": 4165,
      "Ġmetrov": 4166,
      "Ġpocut": 4167,
      "Ġdisku": 4168,
      "zitosti": 4169,
      "Ġtazke": 4170,
      "Ġekonomi": 4171,
      "Ġdalo": 4172,
      "njeho": 4173,
      "Ġpristup": 4174,
      "Ġmnohych": 4175,
      "porov": 4176,
      "rich": 4177,
      "Ġnezo": 4178,
      "Ġkama": 4179,
      "bom": 4180,
      "kle": 4181,
      "los": 4182,
      "ation": 4183,
      "Ġudalosti": 4184,
      "vku": 4185,
      "Ġznamy": 4186,
      "zoval": 4187,
      "lho": 4188,
      "Ġchrbtom": 4189,
      "Ġpoza": 4190,
      "Ġmaterial": 4191,
      "Ġnaklad": 4192,
      "Ġem": 4193,
      "Ġpenazi": 4194,
      "Ġstarostlivo": 4195,
      "Ġoce": 4196,
      "Ġkry": 4197,
      "Ġskoly": 4198,
      "Ġveru": 4199,
      "Ġmoju": 4200,
      "Ġtrocha": 4201,
      "Ġzacne": 4202,
      "Ġvyle": 4203,
      "zena": 4204,
      "Ġkriti": 4205,
      "Ġzamra": 4206,
      "Ġstl": 4207,
      "jit": 4208,
      "Ġniektorych": 4209,
      "ĠÂ§": 4210,
      "Ġsustre": 4211,
      "chop": 4212,
      "Ġjem": 4213,
      "Ġtreti": 4214,
      "lËĩ": 4215,
      "sah": 4216,
      "nbol": 4217,
      "Ġbit": 4218,
      "Ġprepa": 4219,
      "Ġrec": 4220,
      "Ġhodinu": 4221,
      "Ġvacsina": 4222,
      "Ġexisten": 4223,
      "ï£": 4224,
      "gal": 4225,
      "Ġnevedela": 4226,
      "takze": 4227,
      "Ġnachadza": 4228,
      "ÐºÐ¾": 4229,
      "ĠÐ¿ÑĢÐ¸": 4230,
      "tex": 4231,
      "Ġdos": 4232,
      "Ġmyslis": 4233,
      "Ġvonku": 4234,
      "Ġrozvi": 4235,
      "ziat": 4236,
      "Ġprisa": 4237,
      "skymi": 4238,
      "vna": 4239,
      "nktore": 4240,
      "Ġdruhom": 4241,
      "bera": 4242,
      "denie": 4243,
      "Ġzuby": 4244,
      "sni": 4245,
      "tane": 4246,
      "Ġdruha": 4247,
      "Ġdial": 4248,
      "Ġmatthew": 4249,
      "Ġstave": 4250,
      "Ġav": 4251,
      "Ġupozor": 4252,
      "Ġvelku": 4253,
      "Ġnervo": 4254,
      "Ġwa": 4255,
      "Ġvta": 4256,
      "eniu": 4257,
      ".)\\": 4258,
      "Ġzaslu": 4259,
      "Ġpriam": 4260,
      "pezlivo": 4261,
      "Ġumy": 4262,
      "Ġpustil": 4263,
      "ÑĤÐµÐ»ÑĮ": 4264,
      "Ġzad": 4265,
      "stvu": 4266,
      "ot": 4267,
      "Ġpodal": 4268,
      "Ġvodu": 4269,
      "Ġmil": 4270,
      "zob": 4271,
      "omet": 4272,
      "Ġobdi": 4273,
      "Ġspl": 4274,
      "Ġsused": 4275,
      "Ġtakisto": 4276,
      "Ġnedostat": 4277,
      "Ġpoch": 4278,
      "Ġdostala": 4279,
      "novych": 4280,
      "Ġ-\\": 4281,
      "Ġmedi": 4282,
      "Ġvsimol": 4283,
      "bali": 4284,
      "Ġpart": 4285,
      "slobo": 4286,
      "van": 4287,
      "boli": 4288,
      "Ġcelom": 4289,
      "Ġpredstavit": 4290,
      "Ġvymen": 4291,
      "mble": 4292,
      "Ġgeor": 4293,
      "reb": 4294,
      "Ġjednym": 4295,
      "Ġudr": 4296,
      "Ġkrku": 4297,
      "Ġzvlast": 4298,
      "zko": 4299,
      "Ġjim": 4300,
      "Ġvypla": 4301,
      "Ġopo": 4302,
      "Ð²Ðµ": 4303,
      "rine": 4304,
      "niest": 4305,
      "Ġmyslite": 4306,
      "Ġsuvislosti": 4307,
      "red": 4308,
      "zacia": 4309,
      "Ġneci": 4310,
      "Ġpredstavi": 4311,
      "sche": 4312,
      "40": 4313,
      "rec": 4314,
      "Ġodov": 4315,
      "Ġâ": 4316,
      "krad": 4317,
      "Ġnijaky": 4318,
      "ÑĺÐ½": 4319,
      "pilo": 4320,
      "Ġvietor": 4321,
      "Ġboji": 4322,
      "Ġcierne": 4323,
      "ÑģÐ¿": 4324,
      "Ġfir": 4325,
      "Ġvypo": 4326,
      "bene": 4327,
      "Ġzakry": 4328,
      "Ġgrof": 4329,
      "enom": 4330,
      "ndal": 4331,
      ");": 4332,
      "Ġzakona": 4333,
      "pem": 4334,
      "Ġpozriet": 4335,
      "pane": 4336,
      "Ġnikoho": 4337,
      "sime": 4338,
      "Ġpopolud": 4339,
      "Ġabsolu": 4340,
      "Ġspal": 4341,
      "Ġkusok": 4342,
      "Ġzuri": 4343,
      "Ġzmys": 4344,
      "zov": 4345,
      "Ġhom": 4346,
      "Ġnahodou": 4347,
      "ling": 4348,
      "Ġnasich": 4349,
      "Ġubo": 4350,
      "Ġkolo": 4351,
      "Ġurov": 4352,
      "Ġposa": 4353,
      "Ġnemoz": 4354,
      "had": 4355,
      "Ġkratko": 4356,
      "Ġodkial": 4357,
      "nkou": 4358,
      "vilo": 4359,
      "Ġ29": 4360,
      "nj": 4361,
      "nam": 4362,
      "Ġnechcem": 4363,
      "ex": 4364,
      "Ġskol": 4365,
      "Ġvojny": 4366,
      "Ġmila": 4367,
      "canie": 4368,
      "Ġvet": 4369,
      "zke": 4370,
      "nuli": 4371,
      "atoli": 4372,
      "Ġzien": 4373,
      "rin": 4374,
      "Ġpokr": 4375,
      "cifi": 4376,
      "Ġhmo": 4377,
      "Ġchut": 4378,
      "Ġpremie": 4379,
      "tovat": 4380,
      "dina": 4381,
      "Ġotro": 4382,
      "Ġpozdra": 4383,
      "ÑĩÐ¸": 4384,
      "Ġrela": 4385,
      "vati": 4386,
      "alia": 4387,
      "Ġusu": 4388,
      "Ġcirke": 4389,
      "don": 4390,
      "Ġrozkaz": 4391,
      "naby": 4392,
      "Ġzvuk": 4393,
      "Ġwal": 4394,
      "?âĢĿ": 4395,
      "Î±": 4396,
      "stene": 4397,
      "pravne": 4398,
      "Ġoproti": 4399,
      "Ġplan": 4400,
      "Ġslovenska": 4401,
      "nalebo": 4402,
      "33": 4403,
      "Ġpodnik": 4404,
      "Ġmozes": 4405,
      "Ð½Ð¾Ðµ": 4406,
      "Ġktoremu": 4407,
      "Ġotvore": 4408,
      "pravedl": 4409,
      "Ġrady": 4410,
      "Ġspokoj": 4411,
      "nvla": 4412,
      "rku": 4413,
      "ciam": 4414,
      "Ġuvol": 4415,
      "Ġvezmi": 4416,
      "Ġlad": 4417,
      "Ġvypocu": 4418,
      "Ġnebezpecen": 4419,
      "Ġosoby": 4420,
      "can": 4421,
      "Ġniet": 4422,
      "Ð½Ð¸Ñı": 4423,
      "Ġduchov": 4424,
      "Ġvyse": 4425,
      "aju": 4426,
      "Ġkve": 4427,
      "Ġpokry": 4428,
      "Ġosobne": 4429,
      "bila": 4430,
      "sova": 4431,
      "Ð²Ð°ÑĤÑĮ": 4432,
      "Ġeurop": 4433,
      "kaza": 4434,
      "iek": 4435,
      "Ġpacie": 4436,
      "Ġosu": 4437,
      "Ġprikaz": 4438,
      "Ġislo": 4439,
      "Ġrobil": 4440,
      "chcem": 4441,
      "Ġpoznat": 4442,
      "Ġnezne": 4443,
      "sey": 4444,
      "Ġplece": 4445,
      "Ġpole": 4446,
      "alny": 4447,
      "Ġmeni": 4448,
      "Ġpresla": 4449,
      "Ġdete": 4450,
      "cent": 4451,
      "Ġtermi": 4452,
      "Ġvhod": 4453,
      "dalo": 4454,
      "Ġznepo": 4455,
      "Ġpoma": 4456,
      "Ġpouziva": 4457,
      "pisu": 4458,
      "Ġpotichu": 4459,
      "Ġzvola": 4460,
      "Ġktorou": 4461,
      "Ġvratila": 4462,
      "bov": 4463,
      "Ġmak": 4464,
      "Ġocividne": 4465,
      "Ġkrok": 4466,
      "ith": 4467,
      "pina": 4468,
      "Ġtesne": 4469,
      "snej": 4470,
      "Ġjemne": 4471,
      "Ġvysoko": 4472,
      "Ġkus": 4473,
      "Ġmasa": 4474,
      "Ġprvom": 4475,
      "Ġposledny": 4476,
      "Ġspre": 4477,
      "Ġstrasne": 4478,
      "Ġotvorene": 4479,
      "Ġtakej": 4480,
      "lip": 4481,
      "Ð´Ðµ": 4482,
      "ÑĬ": 4483,
      "Ġzvac": 4484,
      "Ġpremysla": 4485,
      "Ġkolena": 4486,
      "??": 4487,
      "Ġstranu": 4488,
      "Ġseve": 4489,
      "Ġpovedali": 4490,
      "cki": 4491,
      "Ġrozlu": 4492,
      "Ġvyhra": 4493,
      "Ġmyslela": 4494,
      "Ġach": 4495,
      "mos": 4496,
      "Ġnejaku": 4497,
      "Ġpostavil": 4498,
      "Ð³ÑĴ": 4499,
      "Ġpovinnosti": 4500,
      "Ġpoznal": 4501,
      "nii": 4502,
      "Ġsestra": 4503,
      "prava": 4504,
      "vis": 4505,
      "Ġzasmial": 4506,
      "mbledo": 4507,
      "Ġgi": 4508,
      "pky": 4509,
      "Ġefe": 4510,
      "moj": 4511,
      "novali": 4512,
      "Ġuzna": 4513,
      "Ġdievcat": 4514,
      "nha": 4515,
      "Ġinterpre": 4516,
      "Ġseda": 4517,
      "Ġps": 4518,
      "Ġveku": 4519,
      "Ġhen": 4520,
      "ndru": 4521,
      "Ġkniz": 4522,
      "Ġuvadza": 4523,
      "Ð³Ð¾": 4524,
      "cvi": 4525,
      "Ġtabu": 4526,
      "Ġnajviac": 4527,
      "Ġpripo": 4528,
      "covali": 4529,
      "liam": 4530,
      "Ġap": 4531,
      "tina": 4532,
      "Ġnesu": 4533,
      "Ġstry": 4534,
      "Ġhlboko": 4535,
      "dsi": 4536,
      "Ġhud": 4537,
      "niesli": 4538,
      "Ġcaj": 4539,
      "fle": 4540,
      "hm": 4541,
      "Ġinten": 4542,
      "Ġsteny": 4543,
      "Ġziadne": 4544,
      "ig": 4545,
      "nedok": 4546,
      "Ġkdy": 4547,
      "Ġvzduch": 4548,
      "Ġchi": 4549,
      "Ġokru": 4550,
      "ziv": 4551,
      "Ġvsetkeho": 4552,
      "nÐ²": 4553,
      "Ġzly": 4554,
      "fere": 4555,
      "Ġusmie": 4556,
      "Ġrozde": 4557,
      "Ġstran": 4558,
      "povie": 4559,
      "dru": 4560,
      "Ġota": 4561,
      "vid": 4562,
      "toval": 4563,
      "rozumie": 4564,
      "Ġprikry": 4565,
      "Ġslzy": 4566,
      "Ġtakom": 4567,
      "Ġplecami": 4568,
      "Ġpalu": 4569,
      "zita": 4570,
      "Ġaf": 4571,
      "Ġrozumie": 4572,
      "ist": 4573,
      "Ġkose": 4574,
      "Ġsystemu": 4575,
      "Ġspomenul": 4576,
      "Ġdora": 4577,
      "Ġklobu": 4578,
      "boj": 4579,
      "poli": 4580,
      "Ġfakt": 4581,
      "Ġotra": 4582,
      "Ġpren": 4583,
      "jil": 4584,
      "exi": 4585,
      "Ġotvorila": 4586,
      "klu": 4587,
      "Ġsig": 4588,
      "zalo": 4589,
      "Ð°Ð½": 4590,
      "Ġstava": 4591,
      "viaza": 4592,
      "Ġfung": 4593,
      "kovali": 4594,
      "Ġstola": 4595,
      "Ġtvarou": 4596,
      "Ġdievcata": 4597,
      "Ġhladiska": 4598,
      "!âĢĿ\\": 4599,
      "Ġpodst": 4600,
      "Ġpriklad": 4601,
      "tiahnu": 4602,
      "Ġmodli": 4603,
      "Ġstarosti": 4604,
      "Ġtel": 4605,
      "Ġprva": 4606,
      "Ġ50": 4607,
      "_(": 4608,
      "Ġsvate": 4609,
      "Ġstudi": 4610,
      "ndom": 4611,
      "Ġvystup": 4612,
      "Ġsia": 4613,
      "mas": 4614,
      "ÑĤÐµ": 4615,
      "cuju": 4616,
      "Ġzasia": 4617,
      "ÑĢÐµÐ´": 4618,
      "Ġbrehu": 4619,
      "neste": 4620,
      "obecne": 4621,
      "nstra": 4622,
      "nasa": 4623,
      "Ġdojem": 4624,
      "Ġnavsti": 4625,
      "nikmi": 4626,
      "nikovi": 4627,
      "Ġvzo": 4628,
      "hodil": 4629,
      "Ġzhroma": 4630,
      "Ġkresta": 4631,
      "par": 4632,
      "Ġpochopil": 4633,
      ";_\\": 4634,
      "Ġfara": 4635,
      "Ġnahne": 4636,
      "ovanych": 4637,
      "Ġakym": 4638,
      "Ġnazor": 4639,
      "Ġstareho": 4640,
      "toze": 4641,
      "Ġspravodli": 4642,
      "80": 4643,
      "lovali": 4644,
      "Ġlodi": 4645,
      "Ġovlad": 4646,
      "time": 4647,
      "Ġcinnost": 4648,
      "Ġzuf": 4649,
      "Ġnemohli": 4650,
      "Ġzrka": 4651,
      "âĢĺ": 4652,
      "alene": 4653,
      "Ġnahle": 4654,
      "nharry": 4655,
      "Ġol": 4656,
      "Ġwhi": 4657,
      "Ġzavolal": 4658,
      "Ġhermiona": 4659,
      "nad": 4660,
      "Ġindividu": 4661,
      "Ġknaz": 4662,
      "Ġkosti": 4663,
      "Ġspod": 4664,
      "Ġhospodar": 4665,
      "nati": 4666,
      "Ġokoli": 4667,
      "Ġpoviem": 4668,
      "Ġvyci": 4669,
      "Ġinstitu": 4670,
      "Ëĺ": 4671,
      "feren": 4672,
      "Ġtim": 4673,
      "Ġnetr": 4674,
      "ĠÐ¶": 4675,
      "Ġosla": 4676,
      "Ġprostrednictvom": 4677,
      "Ġtakym": 4678,
      "Ġrozhovor": 4679,
      "Ġdevat": 4680,
      "Ġpocula": 4681,
      "Ġposlal": 4682,
      "Â·": 4683,
      "Ġkonf": 4684,
      "nbu": 4685,
      "nicu": 4686,
      "produ": 4687,
      "Ġtzv": 4688,
      "bolo": 4689,
      "brie": 4690,
      "ons": 4691,
      "Ġcize": 4692,
      "ker": 4693,
      "Ġbrata": 4694,
      "Ġohrom": 4695,
      "Ġskusenosti": 4696,
      "Ġzato": 4697,
      "Ġpobre": 4698,
      "Ġ40": 4699,
      "Ġvesmi": 4700,
      "Ġtrans": 4701,
      "Ġhal": 4702,
      "tul": 4703,
      "Ġzostal": 4704,
      "ciar": 4705,
      "Ġreak": 4706,
      "novej": 4707,
      "nsvo": 4708,
      "Ġriad": 4709,
      "Ġmore": 4710,
      ".âĢĿ": 4711,
      "Ġzahrani": 4712,
      "bl": 4713,
      "Ġprezra": 4714,
      "Ġmecha": 4715,
      "ckov": 4716,
      "Ġnezi": 4717,
      "Ġprofesor": 4718,
      "Ġzdvihla": 4719,
      "Ġsledoval": 4720,
      "zn": 4721,
      "mini": 4722,
      "Ġnehy": 4723,
      "mami": 4724,
      "Ġradost": 4725,
      "Ġziskat": 4726,
      "Ġtelevi": 4727,
      "lejsie": 4728,
      "rva": 4729,
      "Ġnajbliz": 4730,
      "Ġtakeho": 4731,
      "pova": 4732,
      "Ġminulosti": 4733,
      "Ġslad": 4734,
      "Ġtvor": 4735,
      "Ġzazna": 4736,
      "coch": 4737,
      "Ġstene": 4738,
      "Ġcakat": 4739,
      "mani": 4740,
      "cnou": 4741,
      "nl": 4742,
      "Ġuvedomila": 4743,
      "Ġlady": 4744,
      "Ġ..": 4745,
      "Ġstaci": 4746,
      "Ġihned": 4747,
      "Ġzried": 4748,
      "Ġinym": 4749,
      "Ġcudne": 4750,
      "Ġrezi": 4751,
      "tis": 4752,
      "Ġlord": 4753,
      "Ġvedie": 4754,
      "pier": 4755,
      "Ġobratila": 4756,
      "cinu": 4757,
      "Ġpreda": 4758,
      "Ġbyval": 4759,
      "seny": 4760,
      "Ġmysle": 4761,
      "Ġurobila": 4762,
      "Ġnepovedal": 4763,
      "dem": 4764,
      "Ġdostato": 4765,
      "Ġkrva": 4766,
      "Ġmoder": 4767,
      "Ġdne": 4768,
      "ktivne": 4769,
      "asi": 4770,
      "Â¾": 4771,
      "Ġlyzi": 4772,
      "ĠÂ«": 4773,
      "dym": 4774,
      "radsej": 4775,
      "cis": 4776,
      "Ġzelen": 4777,
      "vlast": 4778,
      "Ġude": 4779,
      "Ġtridsat": 4780,
      "ĠÂĦ": 4781,
      "forma": 4782,
      "Ġzastavi": 4783,
      "Ġvonka": 4784,
      "',": 4785,
      "Ġpoboz": 4786,
      "niho": 4787,
      "Ġsucasne": 4788,
      "Ġvplyv": 4789,
      "Ġmoct": 4790,
      "Ġjsou": 4791,
      "Ġzidov": 4792,
      "dneho": 4793,
      "Ġpohar": 4794,
      "nkami": 4795,
      "tori": 4796,
      "Ġroznych": 4797,
      "telov": 4798,
      "Ġvnutri": 4799,
      "Ġistej": 4800,
      "kalo": 4801,
      "Ġnemozno": 4802,
      "Ġhel": 4803,
      "Ġmysliet": 4804,
      "Ġvidim": 4805,
      "Ġwol": 4806,
      "35": 4807,
      "Ġkola": 4808,
      "Ġkatego": 4809,
      ".âĢĶ": 4810,
      "Ġprote": 4811,
      "rym": 4812,
      "Ġnuz": 4813,
      "Ġcr": 4814,
      "Ġniektori": 4815,
      "Ġjednotlivych": 4816,
      "vz": 4817,
      "Ġatd": 4818,
      "pne": 4819,
      "Ġvlady": 4820,
      "cio": 4821,
      "Ġzistit": 4822,
      "menie": 4823,
      "Ġdohod": 4824,
      "Ġjednou": 4825,
      "Ġpraha": 4826,
      "dakujem": 4827,
      "Ġkazdej": 4828,
      "tnej": 4829,
      "Ġzdr": 4830,
      "Ġes": 4831,
      "Ġbyva": 4832,
      "ndie": 4833,
      "Ġniekomu": 4834,
      "Ġakysi": 4835,
      "Ġbezpecnost": 4836,
      "Ġryt": 4837,
      "Ġpodu": 4838,
      "selne": 4839,
      "nbolo": 4840,
      "schen": 4841,
      "Ġpatria": 4842,
      "padla": 4843,
      "Ġrozpo": 4844,
      "Ġakej": 4845,
      "Ġnadhe": 4846,
      "Ġnady": 4847,
      "Ġradu": 4848,
      "Ġsluzby": 4849,
      "lada": 4850,
      "Ġpripomenu": 4851,
      "Ġneskoro": 4852,
      "Ġkata": 4853,
      "Ġzozna": 4854,
      "Ġceleho": 4855,
      "cional": 4856,
      "Ð´Ñĺ": 4857,
      "ĠÑĩÐµ": 4858,
      "ÂŃ**\\": 4859,
      "Ġvych": 4860,
      "Ġboze": 4861,
      "jala": 4862,
      "Ġzije": 4863,
      "Ġkosto": 4864,
      "Ġprospe": 4865,
      "Ġostrov": 4866,
      "Ġuc": 4867,
      "treb": 4868,
      "Ġkomunika": 4869,
      "Ġodbo": 4870,
      "Ġdveri": 4871,
      "Ġvyssie": 4872,
      "Ġpodmienky": 4873,
      "Ġpocka": 4874,
      "pozri": 4875,
      "nter": 4876,
      "tik": 4877,
      "Ġpor": 4878,
      "Ġara": 4879,
      "ovanim": 4880,
      "Ġbali": 4881,
      "Ġdenne": 4882,
      "ncie": 4883,
      "Ġobid": 4884,
      "Ġvelitel": 4885,
      "lbo": 4886,
      "Ġzaria": 4887,
      "ranie": 4888,
      "Ġvole": 4889,
      "Ġjen": 4890,
      "ziu": 4891,
      "Ġcerv": 4892,
      "Ġkvet": 4893,
      "znych": 4894,
      "Ġohni": 4895,
      "Ġmati": 4896,
      "xe": 4897,
      "zii": 4898,
      "Ġvina": 4899,
      "Ġlisty": 4900,
      "pravda": 4901,
      "onov": 4902,
      "Ġkonca": 4903,
      "Ġvzdychol": 4904,
      "Ġdobra": 4905,
      "Ġ195": 4906,
      "reza": 4907,
      "Ġzamr": 4908,
      "Ġodkaz": 4909,
      "Ġblu": 4910,
      "Ġmimoriadne": 4911,
      "Ġzaobe": 4912,
      "nikdy": 4913,
      "Ġnezvy": 4914,
      "mila": 4915,
      "Ġhadam": 4916,
      "teda": 4917,
      "ĠâĪ": 4918,
      "Ġstratil": 4919,
      "net": 4920,
      "zime": 4921,
      "Ġtvoje": 4922,
      "Ġkrala": 4923,
      "Ġkniha": 4924,
      "nbe": 4925,
      "Ġurobili": 4926,
      "Ġarchi": 4927,
      "hen": 4928,
      "nnych": 4929,
      "skemu": 4930,
      "Ġvtom": 4931,
      "Ġhod": 4932,
      "Ġnepat": 4933,
      "mok": 4934,
      "Ġsef": 4935,
      "ÑģÑĤÐ²": 4936,
      "Ġvodou": 4937,
      "Ġnebudem": 4938,
      "Ġnahlas": 4939,
      "Ð½Ñĥ": 4940,
      "Ġvlastnej": 4941,
      "Ġ000": 4942,
      "zte": 4943,
      "Ġpoveda": 4944,
      "Ġcias": 4945,
      "//": 4946,
      "Ġpredchadza": 4947,
      "Ġhodil": 4948,
      "ckymi": 4949,
      "Ġmc": 4950,
      "ĠÑĦ": 4951,
      "?âĢľâĢŀ": 4952,
      "Ġpari": 4953,
      "Ġhladat": 4954,
      "Ġzbran": 4955,
      "naozaj": 4956,
      "ateho": 4957,
      "ĠÐ¸Ð·": 4958,
      "Ġdcera": 4959,
      "Ġposko": 4960,
      "Ġula": 4961,
      "Ġvziat": 4962,
      "nilo": 4963,
      "Ġohen": 4964,
      "ÐºÑĥ": 4965,
      "Ġargu": 4966,
      "tury": 4967,
      "Ġstrachu": 4968,
      "Ġdol": 4969,
      "dosti": 4970,
      "Ġharryho": 4971,
      "Ġvzajom": 4972,
      "Ġposlednych": 4973,
      "mate": 4974,
      "Ġhad": 4975,
      "inal": 4976,
      "Ġkomen": 4977,
      "Ġ)": 4978,
      "Ġtera": 4979,
      "lina": 4980,
      "Ġalex": 4981,
      "Ġktosi": 4982,
      "Ġpokrutil": 4983,
      "kovala": 4984,
      "potom": 4985,
      "Ġchrbat": 4986,
      "Ġname": 4987,
      "Ġzahu": 4988,
      "njej": 4989,
      "Ġzakri": 4990,
      "Ð´Ð°": 4991,
      "Ġnoveho": 4992,
      "Ġnadej": 4993,
      "bola": 4994,
      "Ġkomple": 4995,
      "Ġyor": 4996,
      "Ġklie": 4997,
      "Ġalexa": 4998,
      "Ġded": 4999,
      "Ġvysvetlit": 5000,
      "Ġzastavil": 5001,
      "nus": 5002,
      "drzia": 5003,
      "Ġdruh": 5004,
      "Ġzvlastne": 5005,
      "Ġponad": 5006,
      "Ġcenu": 5007,
      "hoch": 5008,
      "ford": 5009,
      "rio": 5010,
      "var": 5011,
      "Ġosoba": 5012,
      ")_": 5013,
      "Ġhodnot": 5014,
      "Ġotocil": 5015,
      "Ġvychadza": 5016,
      "Ġoznamil": 5017,
      "Ġkore": 5018,
      "Ġudrz": 5019,
      "vec": 5020,
      "znej": 5021,
      "Ð¼Ðµ": 5022,
      "Ġkapita": 5023,
      "Ġprebe": 5024,
      "bina": 5025,
      "Ð¼Ð°": 5026,
      "Ġmojich": 5027,
      "Ġosud": 5028,
      "Ġzabud": 5029,
      "Ġini": 5030,
      "ychi": 5031,
      "_~": 5032,
      "vnych": 5033,
      "Ġstuden": 5034,
      "kojne": 5035,
      "Ġlezal": 5036,
      "Ġhrob": 5037,
      "Ġrozpravat": 5038,
      "vka": 5039,
      "Ġustavi": 5040,
      "Ġdava": 5041,
      "Ġpopu": 5042,
      "Ġlete": 5043,
      "pani": 5044,
      "Ġnaja": 5045,
      "stickej": 5046,
      "niesla": 5047,
      "lach": 5048,
      "Ġtraja": 5049,
      "ramati": 5050,
      "Ġnevidi": 5051,
      "Ġzdoraz": 5052,
      "Ġmiery": 5053,
      "Ġokamih": 5054,
      "Ġsprie": 5055,
      "Ġvzbu": 5056,
      "Ġdoklad": 5057,
      "senia": 5058,
      "Ġkor": 5059,
      "Ġjohn": 5060,
      "Ġupl": 5061,
      "Ġodporu": 5062,
      "ovymi": 5063,
      "ÑģÐºÐ¸Ð¸": 5064,
      "Ġmrtvy": 5065,
      "Ġ100": 5066,
      "ĠÐºÐ°": 5067,
      "Ġnamor": 5068,
      "Ġgeneral": 5069,
      "beth": 5070,
      "Ġhladela": 5071,
      "Ġschopnosti": 5072,
      "Ġsedela": 5073,
      "Ġodsu": 5074,
      "wac": 5075,
      "Ġprilezitost": 5076,
      "Ġumele": 5077,
      "Ġbr": 5078,
      "Ġniekolkych": 5079,
      "Ġzali": 5080,
      "Ġvyt": 5081,
      "Ġdam": 5082,
      "Ġcat": 5083,
      "necne": 5084,
      "Ġnemaju": 5085,
      "ts": 5086,
      "Ġtopa": 5087,
      "Ġvlastnosti": 5088,
      "Ġsvetle": 5089,
      "Ġspravu": 5090,
      "ken": 5091,
      "Ġzapal": 5092,
      "Ġnepoda": 5093,
      "~~": 5094,
      "Ġnechat": 5095,
      "gno": 5096,
      "Ġkoni": 5097,
      "________": 5098,
      "Ġtroj": 5099,
      "venie": 5100,
      "steho": 5101,
      "Ġai": 5102,
      "delne": 5103,
      "Ġpremen": 5104,
      "Ġvysoky": 5105,
      "Ġdobe": 5106,
      "hovia": 5107,
      ",,": 5108,
      "Ġvlh": 5109,
      "svet": 5110,
      "Ġnacel": 5111,
      "Ġexistuje": 5112,
      "Ġnohami": 5113,
      "Ġtria": 5114,
      "Ġautor": 5115,
      "?@@@@": 5116,
      "nologi": 5117,
      "Ġokna": 5118,
      "Ġkazda": 5119,
      "nbola": 5120,
      "stila": 5121,
      "Ġboja": 5122,
      "Ġofi": 5123,
      "zeme": 5124,
      "Ġutr": 5125,
      "Ġprispe": 5126,
      "Ġodra": 5127,
      "Ġjasky": 5128,
      "Ġvstu": 5129,
      "31": 5130,
      "rovych": 5131,
      "Ġzap": 5132,
      "zt": 5133,
      "Ġsrdca": 5134,
      "daju": 5135,
      "Ġpoky": 5136,
      "Ġuskr": 5137,
      "Ġvystra": 5138,
      "nneho": 5139,
      "Ġmenom": 5140,
      "ÂĹ": 5141,
      "Ġsamostat": 5142,
      "34": 5143,
      "Ġzabit": 5144,
      "Ġpredstavuje": 5145,
      "Ġsalo": 5146,
      "Ġhot": 5147,
      "chat": 5148,
      "Ġsilne": 5149,
      "Ġvyplyva": 5150,
      "vnej": 5151,
      "Ġaa": 5152,
      "Ġger": 5153,
      "Ġslne": 5154,
      "Ġludom": 5155,
      "reti": 5156,
      "nsy": 5157,
      "Ġprstami": 5158,
      "Ġvply": 5159,
      "Ġpracovat": 5160,
      "lovej": 5161,
      "Ġdlhsie": 5162,
      "tilo": 5163,
      "tura": 5164,
      "Ġtisi": 5165,
      "Ġisla": 5166,
      "chen": 5167,
      "nnej": 5168,
      "nani": 5169,
      "Ġzha": 5170,
      "boha": 5171,
      "sam": 5172,
      "Ġkancelarie": 5173,
      "bur": 5174,
      "Ġzobu": 5175,
      "...\"": 5176,
      "Ġ35": 5177,
      "Ġobrati": 5178,
      "Ġnajskor": 5179,
      "robit": 5180,
      "toto": 5181,
      "sley": 5182,
      "voval": 5183,
      "dzi": 5184,
      "Ġnalie": 5185,
      "prepa": 5186,
      "nkapi": 5187,
      "Ġdivo": 5188,
      "tiahnut": 5189,
      "Ġnedoka": 5190,
      "ÑĴÑĢ": 5191,
      "Ġobet": 5192,
      "Ġospravedl": 5193,
      "jeho": 5194,
      "skal": 5195,
      "nmedzi": 5196,
      "kola": 5197,
      "Ġbohu": 5198,
      "Ġmohu": 5199,
      "viedli": 5200,
      "Ġklad": 5201,
      "Ġdvoji": 5202,
      "casti": 5203,
      "Ġtext": 5204,
      "Ġrozne": 5205,
      "Ġter": 5206,
      "Ġpreci": 5207,
      "Ġchodi": 5208,
      "Ġchlapci": 5209,
      "fil": 5210,
      "Ġneg": 5211,
      "mon": 5212,
      "Ġeva": 5213,
      "Ġnasla": 5214,
      "Ġval": 5215,
      "zme": 5216,
      "Ġstoja": 5217,
      "cialne": 5218,
      "Ġzmizol": 5219,
      "Ġdozadu": 5220,
      "Ġdumbledo": 5221,
      "stejsie": 5222,
      "npom": 5223,
      "Ġprista": 5224,
      "han": 5225,
      "jali": 5226,
      "sahu": 5227,
      "ÑģÑĤÐ¸": 5228,
      "Ġarche": 5229,
      "Ġodhali": 5230,
      "Ġnaci": 5231,
      "ruju": 5232,
      "cus": 5233,
      "uu": 5234,
      "Ġnat": 5235,
      "ctvo": 5236,
      "peri": 5237,
      "Ġhnev": 5238,
      "Ġcaso": 5239,
      "Ġzhova": 5240,
      "Ġvozi": 5241,
      "davky": 5242,
      "Ġulici": 5243,
      "loch": 5244,
      "Ġpripomina": 5245,
      "ntne": 5246,
      "Ġrod": 5247,
      "Ġepi": 5248,
      "Ġvyzerala": 5249,
      "78": 5250,
      "uro": 5251,
      "Ġtvoja": 5252,
      "Ġpad": 5253,
      "Ġosvet": 5254,
      "Ġmlie": 5255,
      "Ġny": 5256,
      "jak": 5257,
      "Ġsedi": 5258,
      "Ġnajmen": 5259,
      "Ġvyp": 5260,
      "nesie": 5261,
      "reho": 5262,
      "Ġplecia": 5263,
      "Ġkrk": 5264,
      "Ġciel": 5265,
      "Ġpribeh": 5266,
      "Ġnapisa": 5267,
      "Ġvnima": 5268,
      "napr": 5269,
      "Ġspina": 5270,
      "Ð¾Ð½": 5271,
      "Ġcigare": 5272,
      "sali": 5273,
      "Ġjednoduche": 5274,
      "Ġnasta": 5275,
      "Ġrana": 5276,
      "ÐºÐµ": 5277,
      "Ġvieme": 5278,
      "Ġlavi": 5279,
      "Ġ**_": 5280,
      "Ġpresvedceny": 5281,
      "Ġslovami": 5282,
      "vovat": 5283,
      "Ġsv": 5284,
      "Ġhrud": 5285,
      "fra": 5286,
      "treba": 5287,
      "Ġzvr": 5288,
      "vies": 5289,
      "Ġgeorge": 5290,
      "kcie": 5291,
      "Ġ21": 5292,
      "Ġmierne": 5293,
      "Ġodpor": 5294,
      "Ġmnohe": 5295,
      "Ġfotograf": 5296,
      "),\\": 5297,
      "Ġpoob": 5298,
      "one": 5299,
      "Ġnade": 5300,
      "chou": 5301,
      "Ġsnazil": 5302,
      "Ġrade": 5303,
      "jsi": 5304,
      "Ġzacalo": 5305,
      "Ġnavrh": 5306,
      "Ġknihu": 5307,
      "Ġzabo": 5308,
      "Ġnepozna": 5309,
      "Ġnap": 5310,
      "lok": 5311,
      "nmal": 5312,
      "Ġapli": 5313,
      "Ġcita": 5314,
      "dge": 5315,
      "Ġpredo": 5316,
      "Ġsport": 5317,
      "Ġdakujem": 5318,
      "Ġvyno": 5319,
      "dame": 5320,
      "Ġotvorili": 5321,
      "Ġbiele": 5322,
      "Ġnova": 5323,
      "demi": 5324,
      "Ġnecaka": 5325,
      "Ġdufam": 5326,
      "que": 5327,
      "rite": 5328,
      "Ġwy": 5329,
      "Ġpaci": 5330,
      "Ġskve": 5331,
      "Ġmaxi": 5332,
      "snych": 5333,
      "Ġkomuni": 5334,
      "Ġuvo": 5335,
      "Ġode": 5336,
      "Ġzmeny": 5337,
      "45": 5338,
      "Ġzname": 5339,
      "dl": 5340,
      "Ġodse": 5341,
      "ndra": 5342,
      "Ġsynov": 5343,
      "Ġbudovy": 5344,
      "ĠÑĢÐµ": 5345,
      "Ġzabil": 5346,
      "ring": 5347,
      "kte": 5348,
      "Ġmomen": 5349,
      "nenie": 5350,
      "Ġvitaz": 5351,
      "ĠÑ": 5352,
      "Ġ36": 5353,
      "hliad": 5354,
      "Ġbel": 5355,
      "Ġpatdesiat": 5356,
      "nejsia": 5357,
      "Ġtrvalo": 5358,
      "Ġmusis": 5359,
      "Ġkmen": 5360,
      "Ð¼Ð¸": 5361,
      "Ġvysledky": 5362,
      "Ġvrch": 5363,
      "az": 5364,
      "Ġdokumen": 5365,
      "Ġnechcela": 5366,
      "Ġmlcky": 5367,
      "Ġavsak": 5368,
      "Ġnapisal": 5369,
      "far": 5370,
      "Ġpohod": 5371,
      "Ġpouzit": 5372,
      "39": 5373,
      "ckami": 5374,
      "lozila": 5375,
      "rovu": 5376,
      "Ġudi": 5377,
      "ÑĺÑĢ": 5378,
      "Ð´Ð¸": 5379,
      "rs": 5380,
      "Ġvzdi": 5381,
      "Âº": 5382,
      "kovu": 5383,
      "Ġpravom": 5384,
      "Ġviedol": 5385,
      "Ġnikomu": 5386,
      "36": 5387,
      "Âį": 5388,
      "Ġrevolu": 5389,
      "Ġdispo": 5390,
      "prave": 5391,
      "Ġstoroci": 5392,
      "ĠÑĢÐ°Ð·": 5393,
      "ktom": 5394,
      "Ġzariad": 5395,
      "Ġnedovo": 5396,
      "ries": 5397,
      "Ġustanov": 5398,
      "chti": 5399,
      "sledok": 5400,
      "Ġnaku": 5401,
      "Ġtvori": 5402,
      "Ġpozoroval": 5403,
      "Ġpripadoch": 5404,
      "Ġvezme": 5405,
      "Ġ60": 5406,
      "Ġobcia": 5407,
      "Ġpriestor": 5408,
      "Ġdopl": 5409,
      "Ġmedzinarod": 5410,
      "ckat": 5411,
      "Ġdokonale": 5412,
      "wie": 5413,
      "37": 5414,
      "onali": 5415,
      "noci": 5416,
      "Ġvycer": 5417,
      "Ġwar": 5418,
      "Ġgenera": 5419,
      "Ġcent": 5420,
      "Ġnebe": 5421,
      "niach": 5422,
      "Ġhodnotu": 5423,
      "Ġlatky": 5424,
      "Ġbiely": 5425,
      "Ġvzru": 5426,
      "Ġjack": 5427,
      "Ġstavu": 5428,
      "jucu": 5429,
      "Ġforme": 5430,
      "Ġcierny": 5431,
      "Ġposti": 5432,
      "Ġprivelmi": 5433,
      "dole": 5434,
      "Ġpripadne": 5435,
      "Ġvstup": 5436,
      "vana": 5437,
      "Ġvseobecne": 5438,
      "Ġpes": 5439,
      "Ġpravdaze": 5440,
      "Â¥": 5441,
      "Ġzbytocne": 5442,
      "ĠÂĿ": 5443,
      "Ġprsia": 5444,
      "Ġaugu": 5445,
      "Ġodtialto": 5446,
      "kl": 5447,
      "Ġpostel": 5448,
      "lky": 5449,
      "Ġkal": 5450,
      "stok": 5451,
      "mestna": 5452,
      "Ġobrazov": 5453,
      "Ġmoti": 5454,
      "pusta": 5455,
      "tika": 5456,
      "talne": 5457,
      "Ġvedia": 5458,
      "Ġinform": 5459,
      "canov": 5460,
      "Ġflo": 5461,
      "Ġnaspat": 5462,
      "ĠÑħ": 5463,
      "Ġucast": 5464,
      "Ġcakala": 5465,
      "Ġprikyvla": 5466,
      "hlu": 5467,
      "kula": 5468,
      "Ġschodi": 5469,
      "Ġizra": 5470,
      "Ġzare": 5471,
      "Ġludmi": 5472,
      "Ġutie": 5473,
      "Ġrozpraval": 5474,
      "Ġudo": 5475,
      "Ġpamata": 5476,
      "chala": 5477,
      "kladam": 5478,
      "Ġelektri": 5479,
      "Ġobjavil": 5480,
      "bny": 5481,
      "Ġpomyslela": 5482,
      "ost": 5483,
      "cove": 5484,
      "Ġei": 5485,
      "Ġdozvedel": 5486,
      "padol": 5487,
      "penie": 5488,
      "Ġpomerne": 5489,
      "Â´": 5490,
      "Ġvode": 5491,
      "Ġdobru": 5492,
      "hre": 5493,
      "Ġstretnu": 5494,
      ")**\\": 5495,
      "Ġjedlo": 5496,
      "brala": 5497,
      "Ġpovod": 5498,
      "Ġpredpoklada": 5499,
      "rr": 5500,
      "bala": 5501,
      "Ġpozeral": 5502,
      "dzie": 5503,
      "padlo": 5504,
      "Ġlesa": 5505,
      "Ð¾Ñģ": 5506,
      "Ġzamrm": 5507,
      "!âĢĿ": 5508,
      "Ġvyskum": 5509,
      "vrt": 5510,
      "Ġagen": 5511,
      "Ġzvaz": 5512,
      "Ġotcovi": 5513,
      "Ġzacat": 5514,
      "rovatel": 5515,
      "stovat": 5516,
      "cht": 5517,
      "ces": 5518,
      "Ġsied": 5519,
      "jucimi": 5520,
      "nickych": 5521,
      "Ġvzala": 5522,
      "Ġvznika": 5523,
      "Ġpriebehu": 5524,
      "gia": 5525,
      "Ġukon": 5526,
      "Ġemi": 5527,
      "Ġhry": 5528,
      "Ġtovar": 5529,
      "lika": 5530,
      "Ġpodstate": 5531,
      "tuju": 5532,
      "Ġvzrus": 5533,
      "Ġprichadza": 5534,
      "Ġstrate": 5535,
      "Ġspecifi": 5536,
      "Ġvelkeho": 5537,
      "Ġpsychi": 5538,
      "Ġuvahy": 5539,
      "cnymi": 5540,
      "Ġstarych": 5541,
      "pustit": 5542,
      "Ġskutocnost": 5543,
      "Ġrieky": 5544,
      "broj": 5545,
      "Ġocit": 5546,
      "sela": 5547,
      "nfa": 5548,
      "Ġtar": 5549,
      "Ġchrbte": 5550,
      "38": 5551,
      "://": 5552,
      "stvi": 5553,
      "etko": 5554,
      "Ġstena": 5555,
      "Ġmnohi": 5556,
      "Ġdverami": 5557,
      "Ġotva": 5558,
      "âĢ°": 5559,
      "kovane": 5560,
      "Ġ,,": 5561,
      "ud": 5562,
      "Ġnajmenej": 5563,
      "tnutie": 5564,
      "Ġmasi": 5565,
      "stupuje": 5566,
      "Ġjoze": 5567,
      "Ġrazy": 5568,
      "covanie": 5569,
      "Ġjulia": 5570,
      "Ġpracovne": 5571,
      "Ġzosta": 5572,
      "Ġzostat": 5573,
      "Ġzdravot": 5574,
      "teny": 5575,
      "osti": 5576,
      "Ġnevyhnutne": 5577,
      "Ġkost": 5578,
      "ater": 5579,
      "certa": 5580,
      "Ġmode": 5581,
      "alnej": 5582,
      "Ġcirkvi": 5583,
      "Ġmajetok": 5584,
      "Ġodst": 5585,
      "nktory": 5586,
      "Ġokamihu": 5587,
      "Ġobrat": 5588,
      "Ġvyta": 5589,
      "Ġcre": 5590,
      "sledy": 5591,
      "Ġtyp": 5592,
      "Ġzomrel": 5593,
      "Ġspravanie": 5594,
      "Ġlasky": 5595,
      "Ġdas": 5596,
      "rey": 5597,
      "Ġuplat": 5598,
      "nnu": 5599,
      "Ġpotu": 5600,
      "Ġvratili": 5601,
      "Ġboku": 5602,
      "Ġpodobe": 5603,
      "nictvo": 5604,
      "],": 5605,
      "Ġkroky": 5606,
      "veli": 5607,
      "lan": 5608,
      "Ġniecom": 5609,
      "Ġgeo": 5610,
      "Ġsnu": 5611,
      "Ġprveho": 5612,
      "Ġrodina": 5613,
      "Ġ34": 5614,
      "ilo": 5615,
      "plom": 5616,
      "Ġvyrie": 5617,
      "Ġemo": 5618,
      "Ġtypu": 5619,
      "Ġkrasne": 5620,
      "Ġnavzajom": 5621,
      "viete": 5622,
      "Ġchcu": 5623,
      "Ġjan": 5624,
      "Ġsedeli": 5625,
      "ĠÐ¿Ð¾Ð´": 5626,
      "nhe": 5627,
      "chli": 5628,
      "zovali": 5629,
      "Ġphi": 5630,
      "Ġskupina": 5631,
      "Ġaktivi": 5632,
      "ara": 5633,
      "Ġspojene": 5634,
      "vnu": 5635,
      "Ġformy": 5636,
      "kor": 5637,
      "Ġvysvetlil": 5638,
      "Ġsamy": 5639,
      "Ġpono": 5640,
      "Ġprenika": 5641,
      "Ġjedina": 5642,
      "op": 5643,
      "ncha": 5644,
      "ciet": 5645,
      "pot": 5646,
      "Ġori": 5647,
      "Ġsvr": 5648,
      "Ġobsahu": 5649,
      "Ġvystrel": 5650,
      "jedna": 5651,
      "Ġfunkcie": 5652,
      "cher": 5653,
      "Ġvino": 5654,
      "Âĵ\\": 5655,
      "ÂĦ": 5656,
      "Ġvravi": 5657,
      "Ġcal": 5658,
      "nskom": 5659,
      "Ġmest": 5660,
      "Ġovo": 5661,
      "ntre": 5662,
      "sticka": 5663,
      "Ġinu": 5664,
      "ciami": 5665,
      "Ġnedaleko": 5666,
      "?@": 5667,
      "ngen": 5668,
      "ĠâĢļ": 5669,
      "Ġkrajine": 5670,
      "stoval": 5671,
      "Ġzabudol": 5672,
      "Ġpola": 5673,
      "Ġjane": 5674,
      "Ġinspe": 5675,
      "ÑĴÐ½": 5676,
      "Ġstvor": 5677,
      "Ġhli": 5678,
      "Ġinde": 5679,
      "Ġschopny": 5680,
      "Ġdobro": 5681,
      "Ġmaso": 5682,
      "Ġneuveri": 5683,
      "Ġvylie": 5684,
      "Ġoli": 5685,
      "Ġnada": 5686,
      "Ġjusti": 5687,
      "cimi": 5688,
      "Ġsluzob": 5689,
      "bn": 5690,
      "Ġvolal": 5691,
      "Ġposad": 5692,
      "Ġskole": 5693,
      "pomenu": 5694,
      "nsto": 5695,
      "Ġprijat": 5696,
      "prosim": 5697,
      "ÑĽÑĤÑĮ": 5698,
      "zenia": 5699,
      "Ġlegi": 5700,
      "Ġvzhladom": 5701,
      "Ġodisla": 5702,
      "Ġsmer": 5703,
      "mp": 5704,
      "Ġmud": 5705,
      "zivo": 5706,
      "Ġobal": 5707,
      "Ġbisku": 5708,
      "ban": 5709,
      "Ġvztahy": 5710,
      "Ġmojim": 5711,
      "nejsich": 5712,
      "Ġnohu": 5713,
      "Ġnadobu": 5714,
      "Ġhodnota": 5715,
      "Ġjar": 5716,
      "Ġkonstruk": 5717,
      "nnad": 5718,
      "scipli": 5719,
      "Ġuvidel": 5720,
      "Ġdoslo": 5721,
      "Ġzmenil": 5722,
      "form": 5723,
      "Ġcielom": 5724,
      "ya": 5725,
      "cem": 5726,
      "Ġniecoho": 5727,
      "Ġustavicne": 5728,
      "Ġzajat": 5729,
      "ĠÐ²Ðº": 5730,
      "Ġmeta": 5731,
      "nteraz": 5732,
      "non": 5733,
      "telom": 5734,
      "ĠÂĹ": 5735,
      "Ġisiel": 5736,
      "Ġslabo": 5737,
      "Ġprocesu": 5738,
      "Ġtabo": 5739,
      "Ġvydat": 5740,
      "Ġnejde": 5741,
      "Ġnezabu": 5742,
      "Ġ22": 5743,
      "Ġvzor": 5744,
      "hodi": 5745,
      "Ġvsetkom": 5746,
      "lly": 5747,
      "Ġneexi": 5748,
      "novanie": 5749,
      "Ġnapra": 5750,
      "bru": 5751,
      "Ġpotreby": 5752,
      "Ġvyna": 5753,
      "Ġmusite": 5754,
      "Ġktere": 5755,
      "Ġkoncep": 5756,
      "nnost": 5757,
      "Ġmari": 5758,
      "skov": 5759,
      "Ġrizi": 5760,
      "naty": 5761,
      "valil": 5762,
      "Ġobocie": 5763,
      "Ġdolarov": 5764,
      "ric": 5765,
      "Ġpohybu": 5766,
      "nfi": 5767,
      "npla": 5768,
      "Ġvravel": 5769,
      "Ġsituacii": 5770,
      "Ġzene": 5771,
      "vni": 5772,
      "Ġprekli": 5773,
      "Ġpanov": 5774,
      "Ġslnka": 5775,
      "Ġpapez": 5776,
      "Ġtvrdo": 5777,
      "Ġzbrane": 5778,
      "Ġzasu": 5779,
      "Ġpredmet": 5780,
      "Ġnovych": 5781,
      "Ġoslov": 5782,
      "ĠÑĪ": 5783,
      "Ġkamarat": 5784,
      "Ġponahla": 5785,
      "Ġdvi": 5786,
      "Ġrol": 5787,
      "Ġluce": 5788,
      "chybne": 5789,
      "stupi": 5790,
      "Ð»Ñĺ": 5791,
      "stiev": 5792,
      "Ġzil": 5793,
      "Ġisteho": 5794,
      "Ġsni": 5795,
      "kul": 5796,
      "Ġprekvapene": 5797,
      "Ġsad": 5798,
      "Ġosi": 5799,
      "Ġklasto": 5800,
      "ntie": 5801,
      "Ġroztr": 5802,
      "sovi": 5803,
      "nbez": 5804,
      "lade": 5805,
      "Ġrodicov": 5806,
      "Ġrepubliky": 5807,
      "Ġvaria": 5808,
      "npodla": 5809,
      "-**": 5810,
      "iu": 5811,
      "Ġpozorne": 5812,
      "Ġadre": 5813,
      "Ð½Ð¾ÑģÑĤÑĮ": 5814,
      "Ġspr": 5815,
      "keby": 5816,
      "Ġhorsie": 5817,
      "Ġenergi": 5818,
      "Ġriaditel": 5819,
      "boze": 5820,
      "Ġnezau": 5821,
      "kolo": 5822,
      "Ð½ÑĭÐµ": 5823,
      "Ġvlastnu": 5824,
      "Ġnezavi": 5825,
      "Ġakeho": 5826,
      "Ġciti": 5827,
      "Ġzucast": 5828,
      "pustila": 5829,
      "Ġzdvo": 5830,
      "Ġspisov": 5831,
      "nepo": 5832,
      "jor": 5833,
      "Ġvojakov": 5834,
      "Ġmoji": 5835,
      "Ġmalu": 5836,
      "Ġpoziadal": 5837,
      "Ġzvolala": 5838,
      "Ġvyhy": 5839,
      "Ġovplyv": 5840,
      "Ġnemys": 5841,
      "Ġcloveku": 5842,
      "Ġzriedka": 5843,
      "Ġtalia": 5844,
      "Ġnehovo": 5845,
      "Ġzaklo": 5846,
      "tur": 5847,
      "vv": 5848,
      "Ġbuducnosti": 5849,
      "Ġpreu": 5850,
      "Ġzrane": 5851,
      "ÑģÑĤÐ²Ð¾": 5852,
      "Ġkontex": 5853,
      "Ġnohach": 5854,
      "bb": 5855,
      "vodu": 5856,
      "32": 5857,
      "Ġvrat": 5858,
      "sh": 5859,
      "Ġfer": 5860,
      "sek": 5861,
      "njedno": 5862,
      "Ġkilomet": 5863,
      "Ġdovodu": 5864,
      "Ġapa": 5865,
      "ÑĴÐ´": 5866,
      "znu": 5867,
      "Ġpazu": 5868,
      "haj": 5869,
      "Ġdovtedy": 5870,
      "Ġmatky": 5871,
      "Ġchle": 5872,
      "Ġspoza": 5873,
      "ÑĴÐ²": 5874,
      "Ġgabrie": 5875,
      "Ġvydy": 5876,
      "Ġnajavo": 5877,
      "Ġspri": 5878,
      "razd": 5879,
      "Ġstroj": 5880,
      "Ġhovoria": 5881,
      "Ġstretol": 5882,
      "Ġklasi": 5883,
      "Ġmlada": 5884,
      "Ġchvile": 5885,
      "stupne": 5886,
      "Ġdraha": 5887,
      "chcel": 5888,
      "Ġvynika": 5889,
      "Ġlati": 5890,
      "ngo": 5891,
      "Ġchri": 5892,
      "Ġsexu": 5893,
      "jici": 5894,
      "Ġ80": 5895,
      "lala": 5896,
      "Ġkali": 5897,
      "kovia": 5898,
      "Ġprijemne": 5899,
      "Ġzacul": 5900,
      "ckal": 5901,
      "Ġpostavenie": 5902,
      "Ġbl": 5903,
      "myslela": 5904,
      "telia": 5905,
      "menia": 5906,
      "Ġoslobo": 5907,
      "pt": 5908,
      "zdu": 5909,
      "Ġnadalej": 5910,
      "Ġvyhr": 5911,
      "Ġzastre": 5912,
      "tneho": 5913,
      "Ġsha": 5914,
      "Ġcitit": 5915,
      "Ġprikazal": 5916,
      "koveho": 5917,
      "Ġobdobia": 5918,
      "nulo": 5919,
      "Ġnaco": 5920,
      "Ġnejako": 5921,
      "Ġari": 5922,
      "noz": 5923,
      "Ġcharakter": 5924,
      "Ð¾ÑģÑĤ": 5925,
      "Ġnasu": 5926,
      "Ġvojaci": 5927,
      "rcite": 5928,
      "Ġinteli": 5929,
      "Ġporo": 5930,
      "Ġubezpe": 5931,
      "Ġroka": 5932,
      "Ġakosi": 5933,
      "Ġobed": 5934,
      "Ð²ÐµÑĤÑĮ": 5935,
      "Ġsucastou": 5936,
      "Ġnejaka": 5937,
      "myslene": 5938,
      "Ġkonzu": 5939,
      "Ġnevsim": 5940,
      "ome": 5941,
      "Ġprinu": 5942,
      "Ġstretli": 5943,
      "Ġprestal": 5944,
      "Ġmec": 5945,
      "rcila": 5946,
      "atimi": 5947,
      "Ġnejakeho": 5948,
      "nickej": 5949,
      "Ġnoz": 5950,
      "Ġfarby": 5951,
      "burg": 5952,
      "Ġforma": 5953,
      "Ġzavaz": 5954,
      "chard": 5955,
      "Ġ~\\": 5956,
      "Ġtol": 5957,
      "Ð³Ð°": 5958,
      "zlo": 5959,
      "Ġozaj": 5960,
      "kemu": 5961,
      "nikol": 5962,
      "Ġanna": 5963,
      "Ġrozdie": 5964,
      "Ġzapali": 5965,
      "Ġrepre": 5966,
      "nutra": 5967,
      "Ġnaposledy": 5968,
      "Ġknie": 5969,
      "vca": 5970,
      "Ġpovodne": 5971,
      "sial": 5972,
      "vere": 5973,
      "Ġoprel": 5974,
      "strie": 5975,
      "panie": 5976,
      "mula": 5977,
      "coho": 5978,
      "Ġpokracovala": 5979,
      "vale": 5980,
      "Ġchape": 5981,
      "Ġhrdi": 5982,
      "Ġprenasled": 5983,
      "bus": 5984,
      "Ġvyroby": 5985,
      "Ġparti": 5986,
      "nier": 5987,
      "cenu": 5988,
      "nhu": 5989,
      "dor": 5990,
      "riada": 5991,
      "Ġplny": 5992,
      "alebo": 5993,
      "Ġsuhlasil": 5994,
      "pisov": 5995,
      "Ġzlata": 5996,
      "................................................................": 5997,
      "Ġpovz": 5998,
      "Ġzmluvy": 5999,
      "Ġupokoji": 6000,
      "Ġiii": 6001,
      "Ġvlastny": 6002,
      "Ġdosiahnut": 6003,
      "Â«": 6004,
      "cieho": 6005,
      "Ġodli": 6006,
      "vic": 6007,
      "Ġmesiacov": 6008,
      "Ġzmena": 6009,
      "Ġdon": 6010,
      "@@@@@": 6011,
      "Ġurovni": 6012,
      "Ġinymi": 6013,
      "Ġpokusil": 6014,
      "kazuje": 6015,
      "Ġdeta": 6016,
      "lovy": 6017,
      "Ġprejst": 6018,
      "--------": 6019,
      "skol": 6020,
      "zerala": 6021,
      "Ġvlasov": 6022,
      "zrela": 6023,
      "njo": 6024,
      "hrad": 6025,
      "Ġpresli": 6026,
      "Ġverit": 6027,
      "Ġchciet": 6028,
      "Ġucitel": 6029,
      "Ġziskal": 6030,
      "Ġneustale": 6031,
      "Ġhre": 6032,
      "Ġstato": 6033,
      "bin": 6034,
      "Ġtvrdi": 6035,
      "Ġcor": 6036,
      "Ġusiloval": 6037,
      "Ġnovu": 6038,
      "nkaz": 6039,
      "nri": 6040,
      "taj": 6041,
      "Ġzlato": 6042,
      "Ġprechadza": 6043,
      "Ġtypi": 6044,
      "Ġlica": 6045,
      "mane": 6046,
      "hana": 6047,
      "Ġjazd": 6048,
      "lieb": 6049,
      "Ġobsahuje": 6050,
      "Ġukazala": 6051,
      "podla": 6052,
      "Ġdycha": 6053,
      "Ġrefle": 6054,
      "Ġbet": 6055,
      "Ġspie": 6056,
      "Ġbala": 6057,
      "Ġstarsi": 6058,
      "gre": 6059,
      "Ġprijima": 6060,
      "Ġkl": 6061,
      "Ġvide": 6062,
      "Ġpoto": 6063,
      "Ġlesk": 6064,
      "Ġkosi": 6065,
      "nzna": 6066,
      "Ġpotreboval": 6067,
      "Ð¾Ð³ÑĴ": 6068,
      "Ġmadar": 6069,
      "Ġschodoch": 6070,
      "Ġmalej": 6071,
      "Ġjemu": 6072,
      "Ġdalsiu": 6073,
      "Ġobdobie": 6074,
      "telna": 6075,
      "Ġdomnie": 6076,
      "pustili": 6077,
      "stich": 6078,
      "Ġeurope": 6079,
      "Ġmikro": 6080,
      "Ġvyslo": 6081,
      "Ġexistu": 6082,
      "Ġuzko": 6083,
      "Ġmuzom": 6084,
      "kcia": 6085,
      "Ġmer": 6086,
      "Ġodvtedy": 6087,
      "Ġmyslienka": 6088,
      "Ġkracal": 6089,
      "Ġzaso": 6090,
      "Ġodlis": 6091,
      "Ġinej": 6092,
      "Ġtito": 6093,
      "nera": 6094,
      "nkri": 6095,
      "Ġzasta": 6096,
      "Ġdospe": 6097,
      "skri": 6098,
      "48": 6099,
      "tech": 6100,
      "Ġvyber": 6101,
      "Ġspaniel": 6102,
      "jed": 6103,
      "Ġvasej": 6104,
      "sina": 6105,
      "ÅĤo": 6106,
      "nste": 6107,
      "nvel": 6108,
      "Ġroc": 6109,
      "Ġplie": 6110,
      "piera": 6111,
      "skami": 6112,
      "ranili": 6113,
      "Ġpriti": 6114,
      "Ġvoli": 6115,
      "Ġrast": 6116,
      "Ġzamieril": 6117,
      "ranila": 6118,
      "Ġzbadala": 6119,
      "ÑģÐºÐ¸": 6120,
      "Ġpriatelia": 6121,
      "Ġproto": 6122,
      "Ġzatia": 6123,
      "Ġtakyto": 6124,
      "mina": 6125,
      "car": 6126,
      "Ġzapis": 6127,
      "Ġilu": 6128,
      "zete": 6129,
      "Ġzostala": 6130,
      "Ġspro": 6131,
      "ÐºÑĤ": 6132,
      "Ġcokolvek": 6133,
      "Ġpredstava": 6134,
      "Ġkna": 6135,
      "vyznam": 6136,
      "zdi": 6137,
      "meny": 6138,
      "Ġplach": 6139,
      "Ġvyhlad": 6140,
      "Ġpody": 6141,
      "Ġmier": 6142,
      "Ġbyl": 6143,
      "Ġtvoria": 6144,
      "Ġhrozne": 6145,
      "Ġprenho": 6146,
      "Ġsklad": 6147,
      "Ġpreva": 6148,
      "Ġdazd": 6149,
      "Ġrozhodnutie": 6150,
      "npi": 6151,
      "tru": 6152,
      "Ġpise": 6153,
      "pravy": 6154,
      "Ġmiestach": 6155,
      "Ġuro": 6156,
      "Ġkonkret": 6157,
      "Ġhrie": 6158,
      "Ġnedav": 6159,
      "zant": 6160,
      "Ġvyzadu": 6161,
      "Ġ37": 6162,
      "Ġmanzelka": 6163,
      "cze": 6164,
      "Ġdosledku": 6165,
      "Ġkilometrov": 6166,
      "Ġnastro": 6167,
      "Ġpochadza": 6168,
      "Ġpomaha": 6169,
      "Ġsma": 6170,
      "Ġfotografi": 6171,
      "Ġsvaty": 6172,
      "dova": 6173,
      "Ġaspe": 6174,
      "rol": 6175,
      "Ġzob": 6176,
      "Ġstriebor": 6177,
      "nmar": 6178,
      "Ġchodit": 6179,
      "Ġnajhor": 6180,
      "Ġsituaciu": 6181,
      "stupila": 6182,
      "Ġrozhodla": 6183,
      "Ġstarej": 6184,
      "Ġjedla": 6185,
      "lboka": 6186,
      "44": 6187,
      "Ġdoj": 6188,
      "Ġmono": 6189,
      "Ġkuchyne": 6190,
      "rana": 6191,
      "ÑĢÑĻ": 6192,
      "Ġnatolko": 6193,
      "Ġpracuje": 6194,
      "Ġman": 6195,
      "Ġproblemati": 6196,
      "Ġvlada": 6197,
      "nictva": 6198,
      "hosta": 6199,
      "Ġistom": 6200,
      "60": 6201,
      "sc": 6202,
      "vneho": 6203,
      "Ġtomuto": 6204,
      "Ġfrank": 6205,
      "Ġbrit": 6206,
      "Ġzahr": 6207,
      "Ġmojom": 6208,
      "Ġzasepkal": 6209,
      "zdra": 6210,
      "Ġpracoval": 6211,
      "Ġbat": 6212,
      "tine": 6213,
      "||||||||": 6214,
      "Ġpochopit": 6215,
      "Ġzaru": 6216,
      "citat": 6217,
      "tvor": 6218,
      "Ġzhlboka": 6219,
      "lozit": 6220,
      "Ġein": 6221,
      "ï¿½ï¿½ï¿½ï¿½": 6222,
      "Ġvyhlasila": 6223,
      "Ġhg": 6224,
      "tvr": 6225,
      "Ġbytosti": 6226,
      "Ġegypt": 6227,
      "Ġzatva": 6228,
      "Ġokno": 6229,
      "ctva": 6230,
      "Ġdrahy": 6231,
      "enou": 6232,
      "Ġnevidela": 6233,
      "pku": 6234,
      "hly": 6235,
      "Ġlov": 6236,
      "Ġgru": 6237,
      "Ġpomohol": 6238,
      "rychlo": 6239,
      "Ġpodari": 6240,
      "Ġnovo": 6241,
      "Ġokraj": 6242,
      "ĠÑĩÑĤÐ¾": 6243,
      "Ġzapi": 6244,
      "Ġuskutoc": 6245,
      "hoe": 6246,
      "Ġcitat": 6247,
      "Ġrozbe": 6248,
      "Ġdefini": 6249,
      "Ġdzi": 6250,
      "chel": 6251,
      "].": 6252,
      "Ġmagi": 6253,
      "samozrejme": 6254,
      "ÑģÐµ": 6255,
      "Ġchodbe": 6256,
      "Ġzenou": 6257,
      "histo": 6258,
      "Ġvaj": 6259,
      "vedie": 6260,
      "sse": 6261,
      "Ġprivi": 6262,
      "nski": 6263,
      "gel": 6264,
      "Ġchlapca": 6265,
      "Ġpriniesol": 6266,
      "55": 6267,
      "ÂĢÂ": 6268,
      "ÂĢÂŀ": 6269,
      "pera": 6270,
      "ĠÐ²Ð¾": 6271,
      "ÂĢÂľ": 6272,
      "lec": 6273,
      "mia": 6274,
      "Ġprebie": 6275,
      "gani": 6276,
      "raj": 6277,
      "Ġvzdychla": 6278,
      "Ġsara": 6279,
      "tacie": 6280,
      "Ġpodme": 6281,
      "ÑģÑĮ": 6282,
      "Ġzbe": 6283,
      "Ġsituacia": 6284,
      "Ġzahladel": 6285,
      "Ġmanzela": 6286,
      "Ġvyd": 6287,
      "Ġkultur": 6288,
      "Ġcti": 6289,
      "Ġvaha": 6290,
      "Ġranaj": 6291,
      "Ġare": 6292,
      "Ġpochopi": 6293,
      "id": 6294,
      "ÑĢÐ°Ð·": 6295,
      "Ġkys": 6296,
      "Ġvona": 6297,
      "Ġclenov": 6298,
      "Ġpodisiel": 6299,
      "Ġdielo": 6300,
      "rieme": 6301,
      "Ġvykrocil": 6302,
      "Ġstov": 6303,
      "Ġdevi": 6304,
      "Ġprogram": 6305,
      "Ġorganizacie": 6306,
      "Ġautori": 6307,
      "Ġvelkych": 6308,
      "Ġpreklad": 6309,
      "Ġsikov": 6310,
      "zel": 6311,
      "casne": 6312,
      "Ġznie": 6313,
      "brali": 6314,
      "Ġzakladne": 6315,
      "Ġhlupo": 6316,
      "lebo": 6317,
      "low": 6318,
      "Ġzist": 6319,
      "Ġvelkom": 6320,
      "Ġzvlad": 6321,
      "Ġsituacie": 6322,
      "nmat": 6323,
      "Ġpapier": 6324,
      "nsme": 6325,
      "Ġcesko": 6326,
      "Ġold": 6327,
      "Ġzahy": 6328,
      "Ġfinanc": 6329,
      "Ġopis": 6330,
      "Ġpojem": 6331,
      "Ġbezo": 6332,
      "Ġteorie": 6333,
      "Ġzadu": 6334,
      "Ġspaja": 6335,
      "ÑīÐµ": 6336,
      "Ġostro": 6337,
      "Ġnemame": 6338,
      "Ġkluc": 6339,
      "cok": 6340,
      "Ġozvala": 6341,
      "Ġcentra": 6342,
      "Ġbran": 6343,
      "Ġauf": 6344,
      "Ġkdesi": 6345,
      "Ġprofesi": 6346,
      "Ġsmo": 6347,
      "Ġodpoci": 6348,
      "Ġstolicku": 6349,
      "Ġducha": 6350,
      "Ġpokracovat": 6351,
      "ttp": 6352,
      "Ġpresku": 6353,
      "Ġulice": 6354,
      "Ġvedomie": 6355,
      "Ġdetektiv": 6356,
      "vl": 6357,
      "cl": 6358,
      "Ġpravidla": 6359,
      "Ġton": 6360,
      "romi": 6361,
      "Ġpomedzi": 6362,
      "Ġvstala": 6363,
      "Ġvhodne": 6364,
      "Ġodkedy": 6365,
      "Ġmene": 6366,
      "Ġhovorila": 6367,
      "Ġalter": 6368,
      "cenim": 6369,
      "rate": 6370,
      "Ġfalo": 6371,
      "Ġcakali": 6372,
      "Ġnovej": 6373,
      "ÑģÐºÐ°": 6374,
      "Ġsilny": 6375,
      "nslov": 6376,
      "mann": 6377,
      "ncom": 6378,
      "Ġsluchad": 6379,
      "Ġciasto": 6380,
      "Ġaute": 6381,
      "sneho": 6382,
      "Ġplast": 6383,
      "Ġport": 6384,
      "Ġsar": 6385,
      "Ġzazra": 6386,
      "Ġrecep": 6387,
      "Ġidem": 6388,
      "Ġvacsinou": 6389,
      "riadok": 6390,
      "retne": 6391,
      "Ġbio": 6392,
      "47": 6393,
      "Ġvysko": 6394,
      "Ġstefa": 6395,
      "Ġnieko": 6396,
      "Ġzvierata": 6397,
      "Ġpolozila": 6398,
      "Ġmel": 6399,
      "Ġmur": 6400,
      "tora": 6401,
      "nkym": 6402,
      "Ġubli": 6403,
      "Ġzazrel": 6404,
      "Ġnemusi": 6405,
      "Ġvynim": 6406,
      "Ġpresta": 6407,
      "Ġskal": 6408,
      "Ġuraz": 6409,
      "menu": 6410,
      "Ġruz": 6411,
      "nene": 6412,
      "mentu": 6413,
      "Ġaktu": 6414,
      "ĠÐµ": 6415,
      "nspolo": 6416,
      "Ġwo": 6417,
      "Ġkonstat": 6418,
      "vajuc": 6419,
      "Ġpamati": 6420,
      "Ġzbie": 6421,
      "torne": 6422,
      "Ġzaob": 6423,
      "Ġsvedom": 6424,
      "Ġvyni": 6425,
      "Ġukra": 6426,
      "Ġzlu": 6427,
      "Ġlezi": 6428,
      "Ġhovorili": 6429,
      "Ġotcov": 6430,
      "Ġpohlade": 6431,
      "Ġluto": 6432,
      "Ġvyklad": 6433,
      "Ġotcom": 6434,
      "Ġmodel": 6435,
      "Ġzostane": 6436,
      "kazu": 6437,
      "Ġbul": 6438,
      "Ġvyskocil": 6439,
      "kovo": 6440,
      "Ġdama": 6441,
      "Ġlisti": 6442,
      "Ġunik": 6443,
      "Ġuhor": 6444,
      "ktivi": 6445,
      "tovie": 6446,
      "spel": 6447,
      "Ġpodozri": 6448,
      "Ġsel": 6449,
      "Ġlove": 6450,
      "Ġnepred": 6451,
      "Ġstredove": 6452,
      "Ġkonta": 6453,
      "Ġveceru": 6454,
      "Ġhrat": 6455,
      "46": 6456,
      "viedla": 6457,
      "Ġsudca": 6458,
      "Ġpresu": 6459,
      "Ġmiestnost": 6460,
      "Ġkopi": 6461,
      "atelne": 6462,
      "jest": 6463,
      "Ġfred": 6464,
      "rika": 6465,
      "moch": 6466,
      "nnosti": 6467,
      "Ġpoze": 6468,
      "hodla": 6469,
      "Ġmicha": 6470,
      "Ġhan": 6471,
      "Ġnabok": 6472,
      "Ġpovinnost": 6473,
      "Ġfilozof": 6474,
      "cs": 6475,
      "riasol": 6476,
      "Ġ39": 6477,
      "Ġtia": 6478,
      "poru": 6479,
      "gov": 6480,
      "kot": 6481,
      "Ġmatku": 6482,
      "Ġreprodu": 6483,
      "Ġvita": 6484,
      "vajte": 6485,
      "kus": 6486,
      "Ġodtr": 6487,
      "Ġmartin": 6488,
      "zemie": 6489,
      "Ġrobili": 6490,
      "nzu": 6491,
      "ntento": 6492,
      "Ġskru": 6493,
      "Ġzostali": 6494,
      "Ġvratane": 6495,
      "mna": 6496,
      "presne": 6497,
      "liekol": 6498,
      "nuta": 6499,
      "Ġhladal": 6500,
      "Ġochran": 6501,
      "Ġfilozofi": 6502,
      "Ġzvi": 6503,
      "Ġvyku": 6504,
      "Ġzde": 6505,
      "Ġsilou": 6506,
      "luju": 6507,
      "ros": 6508,
      "Ġenergie": 6509,
      "nechal": 6510,
      "malne": 6511,
      "Ġvyzeralo": 6512,
      "Ġala": 6513,
      "ward": 6514,
      "fy": 6515,
      "Ġpokusal": 6516,
      "hadz": 6517,
      "dlom": 6518,
      "oma": 6519,
      "zam": 6520,
      "stickych": 6521,
      "Ġpracovneho": 6522,
      "Ġodisli": 6523,
      "Ġlezala": 6524,
      "Ð¼ÐµÐ½": 6525,
      "Ġzmenit": 6526,
      "Ġnijako": 6527,
      "Ġspola": 6528,
      "Ð¸Ð·": 6529,
      "hnute": 6530,
      "Ġleti": 6531,
      "Ġmet": 6532,
      "ĠâĪĴ": 6533,
      "diet": 6534,
      "Ġzasepkala": 6535,
      "Ġsala": 6536,
      "chut": 6537,
      "Ġpopoludni": 6538,
      ",âĢľ\\": 6539,
      "Ġmile": 6540,
      "sena": 6541,
      "Ġnepra": 6542,
      "simi": 6543,
      "venej": 6544,
      "Ġskoncil": 6545,
      "Ġstromov": 6546,
      "Ġkoze": 6547,
      "Ġrozvo": 6548,
      "char": 6549,
      "Ġpose": 6550,
      "Ġkano": 6551,
      "ÑģÑģ": 6552,
      "Ġobyva": 6553,
      "Ġhypo": 6554,
      "Ġkonku": 6555,
      "Ġukrad": 6556,
      "Ġnosi": 6557,
      "slal": 6558,
      "Ġamy": 6559,
      "Ġruko": 6560,
      "Ġwie": 6561,
      "Ġcinu": 6562,
      "tiahli": 6563,
      "Ġcervene": 6564,
      "Ġnoviny": 6565,
      "_**": 6566,
      "ziva": 6567,
      "Ġomy": 6568,
      "Ġchro": 6569,
      "Ġzjavil": 6570,
      "Ġnestalo": 6571,
      "Ġrespe": 6572,
      "ĠÐ¿ÐµÑĢÐµ": 6573,
      "neu": 6574,
      "vyzn": 6575,
      "matal": 6576,
      "silne": 6577,
      "ativne": 6578,
      "Ġsmiech": 6579,
      "Ġmaria": 6580,
      "Ġprostriedky": 6581,
      "ite": 6582,
      "Ġhranice": 6583,
      "svo": 6584,
      "Ġnezale": 6585,
      "Ġpolicia": 6586,
      "Ġprvych": 6587,
      "duju": 6588,
      "Ġ.\\": 6589,
      "Ġpostu": 6590,
      "Ġlieci": 6591,
      "ls": 6592,
      "Ġodpovedala": 6593,
      "Ġelektro": 6594,
      "Ġpredstie": 6595,
      "haju": 6596,
      "Ġtyzdne": 6597,
      "Ġneba": 6598,
      "zenych": 6599,
      "Ġvysiela": 6600,
      "Ġzvysok": 6601,
      "Ġdceru": 6602,
      "Ġapri": 6603,
      "Ġkavu": 6604,
      "Ġrodicia": 6605,
      "Ġpovola": 6606,
      "Ġbas": 6607,
      "tiku": 6608,
      "Ġnesmierne": 6609,
      "Ġrobia": 6610,
      "Ġpoten": 6611,
      "kta": 6612,
      "Ð¸Ð½": 6613,
      "Ġnavrhol": 6614,
      "Ġsvad": 6615,
      "Ġvar": 6616,
      "Ġkabat": 6617,
      "Ġtrp": 6618,
      "Ġit": 6619,
      "Ġpriz": 6620,
      "cati": 6621,
      "Ġstenu": 6622,
      "Ġtajomstvo": 6623,
      "gram": 6624,
      "Ġudrzia": 6625,
      "Ġtme": 6626,
      "Ġdodala": 6627,
      "Ġleo": 6628,
      "Ġvydal": 6629,
      "tovi": 6630,
      "Ġkup": 6631,
      "venu": 6632,
      "Ġadam": 6633,
      "Ġtouto": 6634,
      "Ġgal": 6635,
      "Ġprele": 6636,
      "ncho": 6637,
      "Ġzmat": 6638,
      "neny": 6639,
      "Ġpovy": 6640,
      "tiez": 6641,
      "strati": 6642,
      "Ġfro": 6643,
      "Ġulohy": 6644,
      "Ġutva": 6645,
      "Ġdane": 6646,
      "Ġobrovske": 6647,
      "novala": 6648,
      "Ġiro": 6649,
      "Ġstatov": 6650,
      "sved": 6651,
      "Ġkupel": 6652,
      "Ġviacerych": 6653,
      "ncia": 6654,
      "Ġvti": 6655,
      "Ġnahli": 6656,
      "Ġpreme": 6657,
      "Ġnedalo": 6658,
      "Ġpochy": 6659,
      "Ġvelkym": 6660,
      "Ġvlastnych": 6661,
      "nena": 6662,
      "Ġproblemov": 6663,
      "mili": 6664,
      "npat": 6665,
      "slova": 6666,
      "Ġkatoli": 6667,
      "Ġriesenie": 6668,
      "Ġuprene": 6669,
      "Ġvenu": 6670,
      "nÐº": 6671,
      "gon": 6672,
      "Ġviano": 6673,
      "ktore": 6674,
      "jes": 6675,
      "mur": 6676,
      "Ġnemoc": 6677,
      "Ġpriblizne": 6678,
      ",**": 6679,
      "Ġvsetkymi": 6680,
      "Ġprstom": 6681,
      "Ġwor": 6682,
      "Ġdostatocne": 6683,
      "Ġdiela": 6684,
      "lte": 6685,
      "Ġdvadsi": 6686,
      "pou": 6687,
      "Ġpovr": 6688,
      "Ð»Ñı": 6689,
      "Ġrychle": 6690,
      "alil": 6691,
      "Ġstreta": 6692,
      "Ġstromy": 6693,
      "Ġzakli": 6694,
      "ĠĠĠĠĠĠĠĠĠĠĠĠĠĠĠĠĠĠĠĠĠĠĠĠĠĠĠĠĠĠĠĠĠĠĠĠĠĠĠĠĠĠĠĠĠĠĠĠĠĠĠĠĠĠĠĠĠĠĠĠĠĠĠĠ": 6695,
      "Ġstyroch": 6696,
      "Ġpoculi": 6697,
      "piri": 6698,
      "Ġpriatelov": 6699,
      "Ġplukov": 6700,
      "Ġnasom": 6701,
      "Ġvecera": 6702,
      "Ġjaze": 6703,
      "Ġkresla": 6704,
      "Ġhodinky": 6705,
      "Ġregu": 6706,
      "alnych": 6707,
      "Ġobr": 6708,
      "ston": 6709,
      "Ġkyvol": 6710,
      "Ġaus": 6711,
      "vanim": 6712,
      "Ġkrasna": 6713,
      "nel": 6714,
      "Ġstati": 6715,
      "Ġstacilo": 6716,
      "]_": 6717,
      "Ġsadla": 6718,
      "Ġokto": 6719,
      "Ġzauto": 6720,
      "Ġdreva": 6721,
      "Ġole": 6722,
      "Ġresta": 6723,
      "nskym": 6724,
      "Ġposlednom": 6725,
      "covy": 6726,
      "Ġprisne": 6727,
      "Ġ&": 6728,
      "Ġnebezpecne": 6729,
      "dak": 6730,
      "Ġvecne": 6731,
      "nicku": 6732,
      "vilu": 6733,
      "Ġprislo": 6734,
      "Ġnede": 6735,
      "Ġvlak": 6736,
      "Ġschopnost": 6737,
      "Ġnemocni": 6738,
      "pyt": 6739,
      "Ġpoba": 6740,
      "Ġmily": 6741,
      "Ġpomoci": 6742,
      "Ġochranu": 6743,
      "Ġkel": 6744,
      "Ġpopre": 6745,
      "Ġbeto": 6746,
      "Ġdiel": 6747,
      "Ġvysoke": 6748,
      "Ġq": 6749,
      "Ġph": 6750,
      "Ġnebudu": 6751,
      "Ġinterne": 6752,
      "Ġvsimla": 6753,
      "Ġrozko": 6754,
      "ture": 6755,
      "novane": 6756,
      "Ġnikde": 6757,
      "Ġnejakej": 6758,
      "Ġvacsie": 6759,
      "pise": 6760,
      "Ġpostavit": 6761,
      "zaciu": 6762,
      "znice": 6763,
      "Ġpovrch": 6764,
      "Ġnedal": 6765,
      "Ġmysel": 6766,
      "Ġtaki": 6767,
      "Ġchvilku": 6768,
      "nbude": 6769,
      "Ġprivela": 6770,
      "Ġkultury": 6771,
      "Ġpramen": 6772,
      "Ġapo": 6773,
      "Ġfanta": 6774,
      "nejsim": 6775,
      "Ġseri": 6776,
      "Ġvrcho": 6777,
      "stickeho": 6778,
      "Ġbom": 6779,
      "Ġkvety": 6780,
      "Ġhroma": 6781,
      "nger": 6782,
      "Ġpoca": 6783,
      "Ġodvola": 6784,
      "Ġinve": 6785,
      "Ġmajetku": 6786,
      "asley": 6787,
      "Ġprekaz": 6788,
      "Ġdolezi": 6789,
      "Ġorigi": 6790,
      "Ġnesk": 6791,
      "Ġpotrebujem": 6792,
      "rick": 6793,
      "Ġglo": 6794,
      "Ġnavzdy": 6795,
      "Ġvysetrova": 6796,
      "70": 6797,
      "Ġvasho": 6798,
      "Ġandre": 6799,
      "Ġduch": 6800,
      "Ġjedena": 6801,
      "spa": 6802,
      "Ġktovie": 6803,
      "Ġstolu": 6804,
      "Ġodpovedat": 6805,
      "Ġstanovi": 6806,
      "Ġrodine": 6807,
      "Ġjedinym": 6808,
      "Ġcital": 6809,
      "ÑĺÑĤ": 6810,
      "iera": 6811,
      "kyna": 6812,
      "san": 6813,
      "Ġhag": 6814,
      "Ġprerusil": 6815,
      "nnemo": 6816,
      "Ġlou": 6817,
      "lep": 6818,
      "Ġodchadza": 6819,
      "Ġpasa": 6820,
      "Ġzjavne": 6821,
      "Ġstrana": 6822,
      "civo": 6823,
      "Ġjazyku": 6824,
      "Ġmetody": 6825,
      "Ġmesiace": 6826,
      "Ġmori": 6827,
      "Ġkomo": 6828,
      "Ġdvor": 6829,
      "covych": 6830,
      "Ġvysli": 6831,
      "ks": 6832,
      "zami": 6833,
      "Ġteta": 6834,
      "Ġtrva": 6835,
      "nmozno": 6836,
      "Â°": 6837,
      "vidim": 6838,
      "Ġzopakoval": 6839,
      "rze": 6840,
      "nÐ·Ð°": 6841,
      "Ð¾Ðº": 6842,
      "ony": 6843,
      "Ġastro": 6844,
      "Ġpasi": 6845,
      "Ġ_[": 6846,
      "Ġ2003": 6847,
      "Ġpodstatne": 6848,
      "Ġuprimne": 6849,
      "Ġstvrt": 6850,
      "Ġmieru": 6851,
      "ÂĿ.\\": 6852,
      "Ġduf": 6853,
      "Ġzodpovednost": 6854,
      "Ġnepria": 6855,
      "@@@@@@@@@@@@": 6856,
      "Ġsociali": 6857,
      "Ġprebu": 6858,
      "Ġpraz": 6859,
      "veru": 6860,
      "Ð¸ÑĤ": 6861,
      "Ġpit": 6862,
      "@@@@@@@@@@@@@@@@@@@@@@@@@@@@@@@@@@@@@@@@@@@@@@@@@@@@@@@@@@@@@@@@@@@@@@@@@@@@@@@@@@@@@@@@@@@@@@@@@@@@@@@@@@@@@@@@@@@@@@@@@@@@@@@@@@@@@@@@@@@@@@@@@@@@@@@@@@@@@@@@@@@@@@@@@@@@@@@@@@@@@@@@@@@@@@@@@@@@@@@@@@@@@@@@@@@@@@@@@@@@@@@@@@@@@@@@@@@@@@@@@@@@@@@@@@@@@@@@": 6863,
      "vidla": 6864,
      "Ġzoznam": 6865,
      "Ġpomen": 6866,
      "Â§": 6867,
      "Ġvlastneho": 6868,
      "Ġtat": 6869,
      "Ġrohu": 6870,
      "Ġpanom": 6871,
      "Ġnepocul": 6872,
      "Ġpoo": 6873,
      "Ġzlep": 6874,
      "Ġ31": 6875,
      "Ġstretnut": 6876,
      "Ġspyta": 6877,
      "49": 6878,
      "dolezite": 6879,
      "Ġvyrovna": 6880,
      "Ġhol": 6881,
      "Ġ38": 6882,
      "Ġjednotlive": 6883,
      "rger": 6884,
      "Ġjames": 6885,
      "klonil": 6886,
      "Ġvodi": 6887,
      "Ġdejin": 6888,
      "Ġlat": 6889,
      "Ġozeni": 6890,
      "Ġprenik": 6891,
      "jili": 6892,
      "Ġopytala": 6893,
      "Ġistu": 6894,
      "Ġprehl": 6895,
      "Ġdiet": 6896,
      "Ġknih": 6897,
      "int": 6898,
      "Ġrovnova": 6899,
      "kani": 6900,
      "zive": 6901,
      "Ġpozd": 6902,
      "tele": 6903,
      "stili": 6904,
      "padli": 6905,
      "Ġdvanast": 6906,
      "Ġpremo": 6907,
      "Ġpokus": 6908,
      "Ġokulia": 6909,
      "cmi": 6910,
      "Ġkonania": 6911,
      "Ġspojenie": 6912,
      "vami": 6913,
      "ding": 6914,
      "Ġpokrcil": 6915,
      "Ġil": 6916,
      "nek": 6917,
      "Ġpritomnost": 6918,
      "Ġpolie": 6919,
      "Ġprive": 6920,
      "gg": 6921,
      "ÐµÐ·": 6922,
      "stupit": 6923,
      "Ġagre": 6924,
      "Ġtur": 6925,
      "Ġhlase": 6926,
      "Ġvysoka": 6927,
      "halo": 6928,
      "Ġpripraveny": 6929,
      "Ġsmutne": 6930,
      "Ġzar": 6931,
      "dka": 6932,
      "seda": 6933,
      "Ġpisom": 6934,
      "Ġlabora": 6935,
      "Ġdovodov": 6936,
      "Ġdrzat": 6937,
      "iba": 6938,
      "ovanej": 6939,
      "nstat": 6940,
      "sona": 6941,
      "Ð¸ÑĤÑĮ": 6942,
      "Ġzaujimave": 6943,
      "Ġchytila": 6944,
      "Ð¶Ðµ": 6945,
      "Ġbratislave": 6946,
      "Ġcomu": 6947,
      "hane": 6948,
      "Ġinformacii": 6949,
      "Ġneznamy": 6950,
      "Ġkancelarii": 6951,
      "Ġ1938": 6952,
      "Ġdaj": 6953,
      "Ġvlo": 6954,
      "kel": 6955,
      "Ġosobnosti": 6956,
      "Ġ1939": 6957,
      "veneho": 6958,
      "Ġstretnutie": 6959,
      "fr": 6960,
      "Ġir": 6961,
      "novom": 6962,
      "Ġjednozna": 6963,
      "aky": 6964,
      "Ġvseli": 6965,
      "Ġodohra": 6966,
      "Ġjuh": 6967,
      "Ġsobo": 6968,
      "Ġobycajne": 6969,
      "ÑĢÐ¾Ð²Ð°": 6970,
      "Ġvzna": 6971,
      "alna": 6972,
      "nedlho": 6973,
      "Ġpocuval": 6974,
      "Ġpocitil": 6975,
      "videl": 6976,
      "Ġnali": 6977,
      "Ġporovnani": 6978,
      "ning": 6979,
      "Ġvystav": 6980,
      "hing": 6981,
      "dami": 6982,
      "Ġvasu": 6983,
      "rodi": 6984,
      "Ġvysledok": 6985,
      "tari": 6986,
      "bok": 6987,
      "Ġchat": 6988,
      "Ġrozma": 6989,
      "Ġminim": 6990,
      "Ġcerven": 6991,
      "Ġstri": 6992,
      "Ġcisla": 6993,
      "Ġslub": 6994,
      ".-": 6995,
      "styri": 6996,
      "Ġkridla": 6997,
      "41": 6998,
      "Ġpet": 6999,
      "Ġvysta": 7000,
      "zicii": 7001,
      "Ġwas": 7002,
      "lum": 7003,
      "razne": 7004,
      "Ġdovolit": 7005,
      "Ġsekund": 7006,
      "Ð¿Ð°": 7007,
      "ĠÐºÐ¾Ð³ÑĴ": 7008,
      "livy": 7009,
      "pp": 7010,
      "Ð½Ð¸Ðº": 7011,
      "tnych": 7012,
      "vrat": 7013,
      "Ġpridu": 7014,
      "Ġnicom": 7015,
      "Ġbradu": 7016,
      "ÐµÑĤÑĮÑģÑı": 7017,
      "Ġanje": 7018,
      "Ġnazov": 7019,
      "Ġpodmienok": 7020,
      "diska": 7021,
      "pravdaze": 7022,
      "Ġveciach": 7023,
      "ncla": 7024,
      "Ġosame": 7025,
      "Ġsediet": 7026,
      "Ġzbavit": 7027,
      "Ġdumbledore": 7028,
      "Ġjean": 7029,
      "nnepo": 7030,
      "Ġhovorim": 7031,
      "daval": 7032,
      "Ġmesa": 7033,
      "ÅĤa": 7034,
      "rime": 7035,
      "vsetko": 7036,
      "Ġnepod": 7037,
      "Ġatmos": 7038,
      "Ġobchodu": 7039,
      "Ġsudu": 7040,
      "steny": 7041,
      "iac": 7042,
      "âĢ¦âĢ¦": 7043,
      "hka": 7044,
      "hoval": 7045,
      "Ġmoral": 7046,
      "chodne": 7047,
      "Ġuvazoval": 7048,
      "jeden": 7049,
      "Ġnepresta": 7050,
      "zar": 7051,
      "Ġjozef": 7052,
      "nieco": 7053,
      "Ġvyslu": 7054,
      "hro": 7055,
      "Ġpostava": 7056,
      "vlad": 7057,
      "Ġtanec": 7058,
      "Ġtheo": 7059,
      "ÑĢÐ¾Ð²": 7060,
      "Ġzili": 7061,
      "Ġposlednej": 7062,
      "Ġdokazal": 7063,
      "Ġvyvoj": 7064,
      "Ġodml": 7065,
      "ĠâĢ¢\\": 7066,
      "Ġ45": 7067,
      "jake": 7068,
      "Ġmedzitym": 7069,
      "Ġnemozeme": 7070,
      "Ġnespra": 7071,
      "ndar": 7072,
      "Ġone": 7073,
      "Ġinom": 7074,
      "Ġpozoru": 7075,
      "roveho": 7076,
      "Ġdz": 7077,
      "Ġmadam": 7078,
      "Ġdrzala": 7079,
      "Ġcirkev": 7080,
      "covej": 7081,
      "kura": 7082,
      "Ġhej": 7083,
      "Ġtal": 7084,
      "Ġklobuk": 7085,
      "ovho": 7086,
      "Ġvzniku": 7087,
      "Ġodpovede": 7088,
      "Ġrodinu": 7089,
      "Ġprezident": 7090,
      "stanti": 7091,
      "hry": 7092,
      "ĠÑģÐ»": 7093,
      "koju": 7094,
      "sponden": 7095,
      "Ġsameho": 7096,
      "Ġprehra": 7097,
      "vatelia": 7098,
      "Ġprstov": 7099,
      "pravdepo": 7100,
      "Ġukazuje": 7101,
      "ticka": 7102,
      "Ġskrat": 7103,
      "Ġpresvedcit": 7104,
      "Ġzaja": 7105,
      "ovaneho": 7106,
      "Ġprejav": 7107,
      "Ġnajstar": 7108,
      "Ġnepotre": 7109,
      "hoebe": 7110,
      "Ġstyridsat": 7111,
      "Ġpredstavu": 7112,
      "Ġostal": 7113,
      "Ġposto": 7114,
      "Ġtmave": 7115,
      "Ġznamenalo": 7116,
      "Ġnavstev": 7117,
      "ïģ": 7118,
      "Ġrastu": 7119,
      "Ġsol": 7120,
      "Ġsov": 7121,
      "Ġcisto": 7122,
      "Ġmotor": 7123,
      "stran": 7124,
      "Ġozy": 7125,
      "Ġmudro": 7126,
      "Ġnedavno": 7127,
      "Ġeine": 7128,
      "Ġchudob": 7129,
      "Ġprostriedkov": 7130,
      "tacia": 7131,
      "Ġkompli": 7132,
      "Ġvosla": 7133,
      "Ġpau": 7134,
      "Ġneva": 7135,
      "Ġobzrel": 7136,
      "Ġdejiny": 7137,
      "Ġtrpezlivo": 7138,
      "Ġkori": 7139,
      "Ġslovenskeho": 7140,
      "pru": 7141,
      "Ġzme": 7142,
      "Ġpodzem": 7143,
      "suju": 7144,
      "Ġbytu": 7145,
      "Ġdival": 7146,
      "198": 7147,
      "Ã¦": 7148,
      "Ġpale": 7149,
      "ville": 7150,
      "Ġoma": 7151,
      "Ġdoko": 7152,
      "Ġvymed": 7153,
      "Ġvrhol": 7154,
      "Ġvynimo": 7155,
      "Ġkap": 7156,
      "Ġegypta": 7157,
      "oni": 7158,
      "Ġrobert": 7159,
      "Ġrake": 7160,
      "Ġmilen": 7161,
      "Ġslovensko": 7162,
      "Ġpodraz": 7163,
      "Ġpsychologi": 7164,
      "lami": 7165,
      "Ġvyhov": 7166,
      "centra": 7167,
      "Ġtextu": 7168,
      "ds": 7169,
      "Ġvypu": 7170,
      "Ġrestaura": 7171,
      "Ġkrokov": 7172,
      "ncer": 7173,
      "Ġvojne": 7174,
      "Ġcharakteristi": 7175,
      "Ġrodu": 7176,
      "hnal": 7177,
      "pomina": 7178,
      "Ġspojenych": 7179,
      "Ġ?": 7180,
      "Ġhlavny": 7181,
      "desi": 7182,
      "Ð¾Ð¿": 7183,
      "Ġdiscipli": 7184,
      "lam": 7185,
      "Ġnerozu": 7186,
      "Ġdokaze": 7187,
      "Ġvopred": 7188,
      "ktorov": 7189,
      "nikla": 7190,
      "Ġpohladu": 7191,
      "Ġblaho": 7192,
      "met": 7193,
      "Ġvied": 7194,
      "Ġuzavre": 7195,
      "oby": 7196,
      "Ġcitim": 7197,
      "Ġsvateho": 7198,
      "Ġbojovat": 7199,
      "alneho": 7200,
      "sor": 7201,
      "Ġpolitiky": 7202,
      "Ġbato": 7203,
      "nickeho": 7204,
      "Ġris": 7205,
      "Ġdym": 7206,
      "Ġvedy": 7207,
      "nez": 7208,
      "Ġseptem": 7209,
      "gat": 7210,
      "Ġobli": 7211,
      "Ġpritaz": 7212,
      "Ġstla": 7213,
      "Ġkonec": 7214,
      "hel": 7215,
      "Ġkolen": 7216,
      "Ġibaze": 7217,
      "Ġumysle": 7218,
      "Ġperso": 7219,
      "Ġpekny": 7220,
      "Ġnijaku": 7221,
      "Ġsprievod": 7222,
      "Ġzamrmlal": 7223,
      "Ġovi": 7224,
      "nvsak": 7225,
      "Ġneurobi": 7226,
      "Ġmni": 7227,
      "Ġspomenula": 7228,
      "mana": 7229,
      "Ġvycerpa": 7230,
      "veni": 7231,
      "obr": 7232,
      "gent": 7233,
      "Ġvypa": 7234,
      "Ġschodmi": 7235,
      "hand": 7236,
      "Ġzmoc": 7237,
      "Ġvolne": 7238,
      "Ġnemi": 7239,
      "vejsie": 7240,
      "inu": 7241,
      "Ġobklo": 7242,
      "niny": 7243,
      "Ġzistila": 7244,
      "Ġslaby": 7245,
      "Ġvztahov": 7246,
      "hovat": 7247,
      "Ġpolovicu": 7248,
      "Ġrea": 7249,
      "Ġkazdo": 7250,
      "Ġobavy": 7251,
      "atky": 7252,
      "Ġmac": 7253,
      "czy": 7254,
      "ovaniu": 7255,
      "Ġpovedzte": 7256,
      "ĠÑı": 7257,
      "Ġzamestnavatel": 7258,
      "Ġsame": 7259,
      "ÑĨÐ°": 7260,
      "Ġcena": 7261,
      "Ġktera": 7262,
      "Ġnera": 7263,
      "Ġvyrazne": 7264,
      "Ġpriho": 7265,
      "Ġspanku": 7266,
      "Ġrovnake": 7267,
      "Ġodle": 7268,
      "Ġdusi": 7269,
      "Ġpostoj": 7270,
      "Ð±ÑĴ": 7271,
      "nzel": 7272,
      "Ġspecial": 7273,
      "Ġzasmiala": 7274,
      "Ġchodby": 7275,
      "Ġgom": 7276,
      "zovala": 7277,
      "hovorit": 7278,
      "Ġdruhym": 7279,
      "tiky": 7280,
      "zach": 7281,
      "Ġpotrebovat": 7282,
      "Ġ70": 7283,
      "Ġ;": 7284,
      "Ġzabe": 7285,
      "berg": 7286,
      "Ġprisved": 7287,
      "Ġsklonil": 7288,
      "?@@?": 7289,
      "liv": 7290,
      "Ġtvrdil": 7291,
      "Ġkriminali": 7292,
      "Ġniekolkymi": 7293,
      "Ġposme": 7294,
      "Ġnaklonil": 7295,
      "|---|---|---|---": 7296,
      "nprie": 7297,
      "Ġanto": 7298,
      "Ġspociva": 7299,
      "rymi": 7300,
      "Ġstupen": 7301,
      "Ġkratky": 7302,
      "Ġods": 7303,
      "Ġtaxi": 7304,
      "Ġbezmo": 7305,
      "ele": 7306,
      "niek": 7307,
      "Ġposvat": 7308,
      "oci": 7309,
      "Ġcou": 7310,
      "Ġpast": 7311,
      "Ġceskosloven": 7312,
      "Ġprostredia": 7313,
      "Ġchlapik": 7314,
      "Ġnebezpecenstvo": 7315,
      "Ġpriate": 7316,
      "Ġpatnast": 7317,
      "nenia": 7318,
      "pisy": 7319,
      "Ġcerveny": 7320,
      "Ġfilm": 7321,
      "Ġpredlo": 7322,
      "Ġsestry": 7323,
      "dach": 7324,
      "Ġdruhou": 7325,
      "Ġdvakrat": 7326,
      "lujem": 7327,
      "Ġ2000": 7328,
      "Ġzavrel": 7329,
      "Ġtep": 7330,
      "Ġukazat": 7331,
      "Ġrozumu": 7332,
      "Ġneca": 7333,
      "Ġdialo": 7334,
      "ÑĩÐ°": 7335,
      "chutna": 7336,
      "Ġpravidelne": 7337,
      "sebe": 7338,
      "hodny": 7339,
      "doby": 7340,
      "pela": 7341,
      "Ġpoznamenala": 7342,
      "Ġkoli": 7343,
      "Ġvek": 7344,
      "Ġmera": 7345,
      "Ġpobozkal": 7346,
      "lus": 7347,
      "Ġhodva": 7348,
      "nasob": 7349,
      "Ġrozcu": 7350,
      "zog": 7351,
      "Ġstop": 7352,
      "gor": 7353,
      "vihla": 7354,
      "Ġpravdi": 7355,
      "Ġskontro": 7356,
      "Ġlahosta": 7357,
      "ĠÂ»": 7358,
      "Ġohladu": 7359,
      "Ġzakrical": 7360,
      "Ġstate": 7361,
      "chadzalo": 7362,
      "nboli": 7363,
      "Ġmodlit": 7364,
      "Ġsche": 7365,
      "hanie": 7366,
      "Ġpocity": 7367,
      "Ġnechala": 7368,
      "blo": 7369,
      "chot": 7370,
      "Ġnajradsej": 7371,
      "dovo": 7372,
      "Ġuzito": 7373,
      "npoli": 7374,
      "Ġslavnost": 7375,
      "Ġohra": 7376,
      "Ġkonanie": 7377,
      "Ġpriestoru": 7378,
      "Ġbob": 7379,
      "Ġjednak": 7380,
      "Ġmatemati": 7381,
      "Ġnahor": 7382,
      "Ġprvu": 7383,
      "Ġvoz": 7384,
      "ĠÐ¼Ð°": 7385,
      "Ġneuvedom": 7386,
      "lovek": 7387,
      "Ġlasku": 7388,
      "Ġtazkosti": 7389,
      "Ġzial": 7390,
      "Ġzamestnancov": 7391,
      "Ġzasy": 7392,
      "min": 7393,
      "Ġteku": 7394,
      "Ġline": 7395,
      "Ġudaje": 7396,
      "Ġkonat": 7397,
      "Ġzavraz": 7398,
      "Ġkoselu": 7399,
      "66": 7400,
      "Ġrany": 7401,
      "Ġtakychto": 7402,
      "Ġuct": 7403,
      "mis": 7404,
      "musim": 7405,
      "Ġtriedy": 7406,
      "Ġpolia": 7407,
      "jaky": 7408,
      "Ġmater": 7409,
      "Ġhruby": 7410,
      "pozi": 7411,
      "Ġnechali": 7412,
      "Ġspozna": 7413,
      "Ġnesvr": 7414,
      "tiek": 7415,
      "Ġostatnymi": 7416,
      "nsla": 7417,
      "Ġnadhodno": 7418,
      "www": 7419,
      "kin": 7420,
      "Ġodsud": 7421,
      "nsle": 7422,
      "Ġaktiv": 7423,
      "ckach": 7424,
      "Ġpriemysel": 7425,
      "Ġrima": 7426,
      "Ġzakazdym": 7427,
      "Ġobrovsky": 7428,
      "ysel": 7429,
      "Ġnaria": 7430,
      "zon": 7431,
      "Ġviest": 7432,
      "Ġucinok": 7433,
      "Ġzistili": 7434,
      "viet": 7435,
      "Ġnepodarilo": 7436,
      "bnu": 7437,
      "jednodu": 7438,
      "nsie": 7439,
      "Ġramena": 7440,
      "Ġling": 7441,
      "Ġknihe": 7442,
      "aby": 7443,
      "dza": 7444,
      "knuty": 7445,
      "Ġpojdem": 7446,
      "Ġinac": 7447,
      "Ġstryko": 7448,
      "Ġisli": 7449,
      "Ġoset": 7450,
      "kazala": 7451,
      "Ġcitli": 7452,
      "Ġokre": 7453,
      "Ġkomentar": 7454,
      "42": 7455,
      "Ġput": 7456,
      "Ġsat": 7457,
      "jete": 7458,
      "ntri": 7459,
      "skat": 7460,
      "Ġvrchol": 7461,
      "Ġrozhovoru": 7462,
      "Ġnalo": 7463,
      "Ġlle": 7464,
      "Ġprov": 7465,
      "tus": 7466,
      "Ġstolom": 7467,
      "Ġpier": 7468,
      "dan": 7469,
      "slost": 7470,
      "Ġzufalo": 7471,
      "Ġvystupil": 7472,
      "Ġprostredi": 7473,
      "ee": 7474,
      "Ġken": 7475,
      "Ġnepocho": 7476,
      "Ġpsa": 7477,
      "Ġpoce": 7478,
      "Ġjejich": 7479,
      "Ġtovarov": 7480,
      "Ġera": 7481,
      "Ġviedla": 7482,
      "Ġmary": 7483,
      "Ġprospech": 7484,
      "kost": 7485,
      "zacii": 7486,
      "cnik": 7487,
      "Ġvysvetloval": 7488,
      "Ġarmady": 7489,
      "ÑĨÐ¸Ñı": 7490,
      "Ġoka": 7491,
      "demo": 7492,
      "Ġlexi": 7493,
      "Ġvojna": 7494,
      "Ġpoka": 7495,
      "Ġovlada": 7496,
      "Ġpredna": 7497,
      "Ġpodl": 7498,
      "mental": 7499,
      "Ġdesiat": 7500,
      "gla": 7501,
      "Ġohna": 7502,
      "Ġrozprav": 7503,
      "Ġuskrnul": 7504,
      "Ġvyzaduje": 7505,
      "Ġpristupil": 7506,
      "Ġcasom": 7507,
      "Ġblizkosti": 7508,
      "Ġosobitne": 7509,
      "Ġchceme": 7510,
      "Ġuder": 7511,
      "Ġnemozu": 7512,
      "Ġpriatela": 7513,
      "skach": 7514,
      "Ġprechadzal": 7515,
      "Ġoblast": 7516,
      "Ġdnoch": 7517,
      "Ġpokro": 7518,
      "Ġzamyslene": 7519,
      "Ġodtla": 7520,
      "Ġjaku": 7521,
      "Ġsneh": 7522,
      "Ġchemi": 7523,
      "rozumiem": 7524,
      "zenu": 7525,
      "Ġpode": 7526,
      "Ġsusta": 7527,
      "Ġspotre": 7528,
      "Ġsledovat": 7529,
      "Ġvlastnym": 7530,
      "Ġotvorit": 7531,
      "Ġlom": 7532,
      "vedel": 7533,
      "Ġvysvetlenie": 7534,
      "drzat": 7535,
      "Ġcentime": 7536,
      "Ġobyvatelov": 7537,
      "Ġdale": 7538,
      "ÑĢÐº": 7539,
      "Ġdlane": 7540,
      "nÑĥ": 7541,
      "stvy": 7542,
      "Ġziadny": 7543,
      "]**": 7544,
      "cla": 7545,
      "Ġzma": 7546,
      "nstvo": 7547,
      "Ġtmy": 7548,
      "Ġutok": 7549,
      "ÑīÐ¸": 7550,
      "zau": 7551,
      "rgi": 7552,
      "Ġdod": 7553,
      "Ġvety": 7554,
      "Ġskrom": 7555,
      "Ġbylo": 7556,
      "Ġgri": 7557,
      "Ġniecim": 7558,
      "Ġrieke": 7559,
      "Ġnohavice": 7560,
      "Ġzodpoveda": 7561,
      "penia": 7562,
      "Ġspravania": 7563,
      "tos": 7564,
      "ratit": 7565,
      "Ġvonkaj": 7566,
      "Ġpritomnosti": 7567,
      "Ġkt": 7568,
      "hnem": 7569,
      "doval": 7570,
      "ngre": 7571,
      "Ġmezi": 7572,
      "Ġplamen": 7573,
      "rav": 7574,
      "Ġzapra": 7575,
      "Ġzovre": 7576,
      "Ġskra": 7577,
      "Ġzazne": 7578,
      "Ġabsolutne": 7579,
      "Ġdoda": 7580,
      "Ġkazdemu": 7581,
      "Ġsan": 7582,
      "nslu": 7583,
      "meli": 7584,
      "Ġnedot": 7585,
      "Ġrychlejsie": 7586,
      "Ġpolitickych": 7587,
      "Ġsucasnosti": 7588,
      "Ġuch": 7589,
      "Ġdospel": 7590,
      "pocka": 7591,
      "Ġpravej": 7592,
      "Ġistotu": 7593,
      "Ġvychodi": 7594,
      "Ġslobodu": 7595,
      "Ġprakticky": 7596,
      "Ġpolicajt": 7597,
      "pty": 7598,
      "Ġceny": 7599,
      "Ġbody": 7600,
      "Ġpriemer": 7601,
      "Ġporozpravat": 7602,
      "rius": 7603,
      "zenej": 7604,
      "Ġneprijemne": 7605,
      "Ġodraz": 7606,
      "Ġjamie": 7607,
      "Ġzauji": 7608,
      "Ġradosti": 7609,
      "Ġsvaly": 7610,
      "Ġpolicie": 7611,
      "Ġhoruca": 7612,
      "nÐ±": 7613,
      "neme": 7614,
      "Ġnere": 7615,
      "Ġreme": 7616,
      "Ġponuka": 7617,
      ".):": 7618,
      "rovol": 7619,
      "Ġuko": 7620,
      "Ġidentifi": 7621,
      "Ġostre": 7622,
      "Ġzastavit": 7623,
      "Ġtonom": 7624,
      "Ġtretie": 7625,
      "Ġpodot": 7626,
      "nnom": 7627,
      "cela": 7628,
      "Ġdalsia": 7629,
      "rzal": 7630,
      "Ġtovaru": 7631,
      "ÐµÐ½Ð½ÑĭÐ¸": 7632,
      "Ġmona": 7633,
      "Ġlahke": 7634,
      "Ġslovach": 7635,
      "drzal": 7636,
      "ktorom": 7637,
      "65": 7638,
      "Ġzobral": 7639,
      "Ġhrudi": 7640,
      "tinu": 7641,
      "Ġnapa": 7642,
      "Ġhori": 7643,
      "Ġledva": 7644,
      "Ġnazoru": 7645,
      "ckovi": 7646,
      "Ġbela": 7647,
      "Ġmuzovi": 7648,
      "Ġuprim": 7649,
      "Ġhoj": 7650,
      "Ġvstupil": 7651,
      "Ġuply": 7652,
      "Ġpistol": 7653,
      "Ġposchodi": 7654,
      "Ġodovzd": 7655,
      "Ġporad": 7656,
      "Ġviedli": 7657,
      "bier": 7658,
      "nostami": 7659,
      "nnapo": 7660,
      "din": 7661,
      "Ġmani": 7662,
      "Ġpodozrenie": 7663,
      "bak": 7664,
      "Ġodstra": 7665,
      "lenu": 7666,
      "Ġpovazuje": 7667,
      "Ġneisto": 7668,
      "Ġnemusel": 7669,
      "atkom": 7670,
      "naro": 7671,
      "Ġprijal": 7672,
      "Ġzastav": 7673,
      "Ġpadol": 7674,
      "kladala": 7675,
      "Ġabstra": 7676,
      "Ġtopanky": 7677,
      "75": 7678,
      "Ġnedove": 7679,
      "Ġ_~_": 7680,
      "Ġvykrikol": 7681,
      "Ġvelkou": 7682,
      "Ġ2008": 7683,
      "Ġschu": 7684,
      "'s": 7685,
      "tl": 7686,
      "Ð³Ð¸": 7687,
      "Ġ2006": 7688,
      "nlivo": 7689,
      "Ġpivo": 7690,
      "ĠÐ²Ñĭ": 7691,
      "tovo": 7692,
      "Ġvchod": 7693,
      "Ġdiplom": 7694,
      "Ġnervozne": 7695,
      "Ġvlasmi": 7696,
      "atol": 7697,
      "rac": 7698,
      "herine": 7699,
      "Ġucho": 7700,
      "Ġodovzda": 7701,
      "rame": 7702,
      "Ġpriznal": 7703,
      "tujem": 7704,
      "Ġkupil": 7705,
      "sin": 7706,
      "nÐ´": 7707,
      "kem": 7708,
      "Ġvyjadruje": 7709,
      "Ġvytla": 7710,
      "deneho": 7711,
      "pieral": 7712,
      "Ġsum": 7713,
      "Ġakych": 7714,
      "Ġprach": 7715,
      "Ġmladych": 7716,
      "nthe": 7717,
      "Ġdovolen": 7718,
      "Ġelega": 7719,
      "hoj": 7720,
      "tanie": 7721,
      "Ġmobil": 7722,
      "Ġweasley": 7723,
      "Ġodvie": 7724,
      "Ġhlupa": 7725,
      "Ġcm": 7726,
      "Ġham": 7727,
      "Ġbreh": 7728,
      "Ġheb": 7729,
      "ĠÐºÐ¾Ð¼": 7730,
      "ney": 7731,
      "Ġpoklada": 7732,
      "nven": 7733,
      "Ġkombina": 7734,
      "Ġpracovnej": 7735,
      "Ġvu": 7736,
      "Ġrichard": 7737,
      "Ġuspokoji": 7738,
      "Ġustav": 7739,
      "ntny": 7740,
      "Ġznak": 7741,
      "Ġfinan": 7742,
      "wel": 7743,
      "Ġzima": 7744,
      "Ġvyzerali": 7745,
      "Ġjazde": 7746,
      "Ġnerobi": 7747,
      "smie": 7748,
      "win": 7749,
      "Î¹": 7750,
      "Ġbystri": 7751,
      "Ġvyrazom": 7752,
      "zovane": 7753,
      "tiny": 7754,
      "Ġproro": 7755,
      "ssen": 7756,
      "renu": 7757,
      "Ġnepomo": 7758,
      "rtov": 7759,
      "Ġnajdolezite": 7760,
      "puje": 7761,
      "Ġstatnej": 7762,
      "Ġstolicky": 7763,
      "Ġzvierat": 7764,
      "Ġeuropy": 7765,
      "Ġvybrala": 7766,
      "zeneho": 7767,
      "Ġodda": 7768,
      "Ġpresa": 7769,
      "Ġktery": 7770,
      "Ġzostava": 7771,
      "Ġkonce": 7772,
      "Ġautomati": 7773,
      "Ġchvilou": 7774,
      "Ġchysta": 7775,
      "Ġotazok": 7776,
      "Ġkomplex": 7777,
      "/\\": 7778,
      "dove": 7779,
      "nÐ½Ð°": 7780,
      "Ġidu": 7781,
      "Ġnepochybne": 7782,
      "ricky": 7783,
      "Ġpoly": 7784,
      "43": 7785,
      "Ġwel": 7786,
      "Ġdotkol": 7787,
      "gni": 7788,
      "Ġzakru": 7789,
      "Ġslobody": 7790,
      "cite": 7791,
      "Ġuse": 7792,
      "Ġvyru": 7793,
      "vari": 7794,
      "dpoved": 7795,
      "Ġvycvi": 7796,
      "ÑĴÐ»": 7797,
      "ÑģÑĤÐ°": 7798,
      "bam": 7799,
      "Ġskvr": 7800,
      "urcite": 7801,
      "atelov": 7802,
      "Ġmysleli": 7803,
      "Ġcity": 7804,
      "Ð»ÑĴ": 7805,
      "Ġspytat": 7806,
      "Ġnepla": 7807,
      "Ġpredi": 7808,
      "90": 7809,
      "mno": 7810,
      "Ġzasiel": 7811,
      "nfu": 7812,
      "Ġpopla": 7813,
      "rieb": 7814,
      "Ġvnim": 7815,
      "Ġvin": 7816,
      "Ġpomer": 7817,
      "slava": 7818,
      "bot": 7819,
      "mame": 7820,
      "Ġsoli": 7821,
      "Ġtvaril": 7822,
      "Ġponukol": 7823,
      "Ġ1945": 7824,
      "nac": 7825,
      "Ġdostava": 7826,
      "Ġvzdal": 7827,
      "Ġnapatie": 7828,
      "Ġprokura": 7829,
      "chytil": 7830,
      "Ġhrube": 7831,
      "riti": 7832,
      "Ġpota": 7833,
      "Ġakesi": 7834,
      "Ġspociatku": 7835,
      "Ġneraz": 7836,
      "Ġvyuzit": 7837,
      "Ġhrdlo": 7838,
      "Ġnormalne": 7839,
      "Ġkarie": 7840,
      "Ð·Ñĭ": 7841,
      "Ġludske": 7842,
      "xxx": 7843,
      "?@?": 7844,
      "Ġizo": 7845,
      "Ġkrc": 7846,
      "Ġpopula": 7847,
      "lovala": 7848,
      "Ġgil": 7849,
      "ulf": 7850,
      "Ġsiat": 7851,
      "sep": 7852,
      "hf": 7853,
      "Ġprvky": 7854,
      "Ġdufal": 7855,
      "Ġnetrpezlivo": 7856,
      "Ġmoni": 7857,
      "Ġciastocne": 7858,
      "Ġstanov": 7859,
      "Ġmalych": 7860,
      "ndral": 7861,
      "Ġupla": 7862,
      "Ġdemokra": 7863,
      "Ġ2007": 7864,
      "Ġsrdci": 7865,
      "Ġsocialnej": 7866,
      "Ġsmere": 7867,
      "Ġopravne": 7868,
      "Ġada": 7869,
      "Ġakom": 7870,
      "Ġzalezitosti": 7871,
      "Ġgombi": 7872,
      "kosti": 7873,
      "Ġtabora": 7874,
      "cime": 7875,
      "Ġpekna": 7876,
      "Ġpochybnosti": 7877,
      "Ġnemie": 7878,
      "Ġverejnej": 7879,
      "Ġcivili": 7880,
      "Ġakademi": 7881,
      "Ġpovedane": 7882,
      "kum": 7883,
      "Ġmarne": 7884,
      "Ġgor": 7885,
      "Ġkabi": 7886,
      "Ġvetra": 7887,
      "nsloven": 7888,
      "Ġtlak": 7889,
      "cza": 7890,
      "nchla": 7891,
      "stink": 7892,
      "Ġvzali": 7893,
      "Ġcharakte": 7894,
      "Ġpodne": 7895,
      "ĠÑģÐµ": 7896,
      "ies": 7897,
      "Ġdruhov": 7898,
      "Ġporiadok": 7899,
      "Ġziari": 7900,
      "Â¬": 7901,
      "dobe": 7902,
      "Ð½ÑĴ": 7903,
      "ÑĢÑĭ": 7904,
      "Ġmozgu": 7905,
      "Ġfigu": 7906,
      "Ġzadi": 7907,
      "ryho": 7908,
      "menty": 7909,
      "Ġpolitickej": 7910,
      "Ġcasoch": 7911,
      "Ġvsech": 7912,
      "Ġzml": 7913,
      "Ġparku": 7914,
      "Ġrozlicnych": 7915,
      "Ġcisa": 7916,
      "Ġrameno": 7917,
      "Ð½ÑĻ": 7918,
      "Ġwilliam": 7919,
      "ovcov": 7920,
      "niba": 7921,
      "Ġnevedeli": 7922,
      "Ġzdvorilo": 7923,
      "Ġstratila": 7924,
      "caju": 7925,
      "Ġokraji": 7926,
      "gom": 7927,
      "edu": 7928,
      "Ġtajne": 7929,
      "Ġtitul": 7930,
      "ÂĢÂľ\\": 7931,
      "Ġorient": 7932,
      "Ġtor": 7933,
      "faj": 7934,
      "Ġzavrcal": 7935,
      "Ġustre": 7936,
      "zoch": 7937,
      "Ġmiere": 7938,
      "ght": 7939,
      "Ġveselo": 7940,
      "Ġtrval": 7941,
      "Ġprekvapenie": 7942,
      "Ġujst": 7943,
      "hyb": 7944,
      "punk": 7945,
      "Ġnicoho": 7946,
      "Ġlang": 7947,
      "Ġ48": 7948,
      "sr": 7949,
      "Ġtien": 7950,
      "tickych": 7951,
      "Ġchris": 7952,
      "ncy": 7953,
      "ori": 7954,
      "Ġhou": 7955,
      "Ġobjavili": 7956,
      "Ġchlieb": 7957,
      "strel": 7958,
      "Ġneby": 7959,
      "nnetou": 7960,
      "âĢľ.\\": 7961,
      "Ġspoznal": 7962,
      "Ġkupit": 7963,
      "Ġcol": 7964,
      "Ġrobila": 7965,
      "calo": 7966,
      "Ġodvr": 7967,
      "Ġlese": 7968,
      "Ġspla": 7969,
      "cani": 7970,
      "Ġvrazdy": 7971,
      "Ġshe": 7972,
      "Ð¿Ðµ": 7973,
      "ĠÐ¿ÑĢÐµ": 7974,
      "Ġphoebe": 7975,
      "Ġhlasy": 7976,
      "Ġtrestu": 7977,
      "Ġzbier": 7978,
      "nbi": 7979,
      "mysli": 7980,
      "Ġdvana": 7981,
      "Ġdvora": 7982,
      "Ġstarec": 7983,
      "vcov": 7984,
      "67": 7985,
      "Ġpreve": 7986,
      "Ġzaver": 7987,
      "Ġvydala": 7988,
      "Ġniekym": 7989,
      "Ġbezne": 7990,
      "Ġque": 7991,
      "Ġspalne": 7992,
      "Ġtrhu": 7993,
      "Ġsuper": 7994,
      "Ġhory": 7995,
      "Ġbibli": 7996,
      "Ġnapadlo": 7997,
      "Ġsancu": 7998,
      "Ġzoh": 7999,
      "Ġul": 8000,
      "Ġjednotky": 8001,
      "Ġchladne": 8002,
      "Ġurob": 8003,
      "mot": 8004,
      "Ġstihol": 8005,
      "Ġzlate": 8006,
      "Ġodhodla": 8007,
      "Ġdvore": 8008,
      "Ġvacsinu": 8009,
      "Ġfunkciu": 8010,
      "Ġotocila": 8011,
      "zneho": 8012,
      "Ġskoda": 8013,
      "Ġslovesa": 8014,
      "dku": 8015,
      "lem": 8016,
      "Ġplany": 8017,
      "Ġafri": 8018,
      "Ġxi": 8019,
      "ĨĴ": 8020,
      "Ġnepom": 8021,
      "Ġprepo": 8022,
      "pev": 8023,
      "Ġlee": 8024,
      "wal": 8025,
      "lak": 8026,
      "Ġsmrtou": 8027,
      "Ġnemate": 8028,
      "Ġstrat": 8029,
      "pravo": 8030,
      "Ġhladeli": 8031,
      "Ġtelom": 8032,
      "61": 8033,
      "Ġvanku": 8034,
      "Ġplanu": 8035,
      "vor": 8036,
      "Ġdaju": 8037,
      "#####": 8038,
      "Ġspor": 8039,
      "Ġuvedene": 8040,
      "ab": 8041,
      "Ġzavisi": 8042,
      "Ġdobrod": 8043,
      "Ġrise": 8044,
      "budem": 8045,
      "bky": 8046,
      "Ġdavat": 8047,
      "Ġkur": 8048,
      "Ġwill": 8049,
      "bka": 8050,
      "Ġzastala": 8051,
      "ktori": 8052,
      "trva": 8053,
      "fekt": 8054,
      "Ġchlapa": 8055,
      "nrov": 8056,
      "Ġvysa": 8057,
      "Ġstast": 8058,
      "Ġpracovny": 8059,
      "daka": 8060,
      "zmy": 8061,
      "Ġuroven": 8062,
      "Ġjana": 8063,
      "siach": 8064,
      "jdem": 8065,
      "Ġteoria": 8066,
      "Ġspustil": 8067,
      "Ġatmosfe": 8068,
      "Ġsc": 8069,
      "Ġpoe": 8070,
      "Ġmichal": 8071,
      "zujem": 8072,
      "danie": 8073,
      "Ġrekla": 8074,
      "Ġzmenu": 8075,
      "Ġkonferen": 8076,
      "Ġnevz": 8077,
      "wor": 8078,
      "Ġprs": 8079,
      "nzd": 8080,
      "Ġparla": 8081,
      "Ġzvuky": 8082,
      "kratko": 8083,
      "Ġkdyz": 8084,
      "nkde": 8085,
      "Ġzisku": 8086,
      "Ġpoliticke": 8087,
      "Ġmilionov": 8088,
      "Ġpraxi": 8089,
      "Ġposcho": 8090,
      "nprave": 8091,
      "Ġmajet": 8092,
      "Ġmotiv": 8093,
      "Ġfal": 8094,
      "rovanie": 8095,
      "lovych": 8096,
      "Ġturi": 8097,
      "Ġnepritom": 8098,
      "Ġanglicky": 8099,
      "Ġmaleho": 8100,
      "kovany": 8101,
      "Ġkrokom": 8102,
      "Ġvyskumu": 8103,
      "Ġzalezi": 8104,
      "Ġrozpravali": 8105,
      "Ġdokladne": 8106,
      "Ġnasim": 8107,
      "denej": 8108,
      "zin": 8109,
      "Ġaut": 8110,
      "Ġobz": 8111,
      "Ġdaco": 8112,
      "Ġhand": 8113,
      "Ġcisar": 8114,
      "pravu": 8115,
      "Ð¼Ñĺ": 8116,
      "Ġnovem": 8117,
      "nokedy": 8118,
      "Ġrozhodnutia": 8119,
      "rni": 8120,
      "Ġdodnes": 8121,
      "Ġchl": 8122,
      "Ġodmietol": 8123,
      "Ġrozhodli": 8124,
      "Ġstrednej": 8125,
      "Ġizbu": 8126,
      "nvelmi": 8127,
      "Ġbokom": 8128,
      "tyka": 8129,
      "Ġposlali": 8130,
      "toho": 8131,
      "Ġpriestore": 8132,
      "Ġoddelenia": 8133,
      "ĠÑį": 8134,
      "Ġoca": 8135,
      "Ġsrde": 8136,
      "nan": 8137,
      "Ġzmizla": 8138,
      "Ġbezpecne": 8139,
      "Ġpoznamky": 8140,
      "Ġnazyva": 8141,
      "Ġdocerta": 8142,
      "Ġanne": 8143,
      "Ġstretne": 8144,
      "Ġbohov": 8145,
      "Ġbyla": 8146,
      "Ġveda": 8147,
      "ana": 8148,
      "Ġ~_\\": 8149,
      "Ġlatok": 8150,
      "Ġsco": 8151,
      "zoru": 8152,
      "Ġcigaretu": 8153,
      "Ġac": 8154,
      "lali": 8155,
      "ves": 8156,
      "Ð¾Ð²Ðµ": 8157,
      "Ġkuchyni": 8158,
      "Ġjezi": 8159,
      "Ġvrah": 8160,
      "Ð¶Ð¸": 8161,
      "Ġnijaka": 8162,
      "Ġzaznam": 8163,
      "Ġzal": 8164,
      "Ġziad": 8165,
      "Ġie": 8166,
      "Ġdem": 8167,
      "ÑŁ": 8168,
      "Ġmason": 8169,
      "tona": 8170,
      "Ġvyznamne": 8171,
      "Ġpoc": 8172,
      "cinou": 8173,
      "aaa": 8174,
      "Ġucha": 8175,
      "Ġsestru": 8176,
      "Ġiv": 8177,
      "Ġmojou": 8178,
      "dite": 8179,
      "Ġgramati": 8180,
      "stupili": 8181,
      "Ġkrasa": 8182,
      "nneu": 8183,
      "Ġtretej": 8184,
      "Ġnar": 8185,
      "bas": 8186,
      "Ġvzadu": 8187,
      "Ġchodil": 8188,
      "Ġneuveritelne": 8189,
      "dek": 8190,
      "Ġkot": 8191,
      "Ġstredo": 8192,
      "Ġuvolne": 8193,
      "Ġrozt": 8194,
      "Ð²ÐµÑĢ": 8195,
      "Ġstudia": 8196,
      "Ġzavolat": 8197,
      "Ġ2004": 8198,
      "Ġodvahu": 8199,
      "Ġzamracil": 8200,
      "Ġtrav": 8201,
      "Ġsnazila": 8202,
      "Ġgardi": 8203,
      "Ġtymito": 8204,
      "cenych": 8205,
      "Ġdrevo": 8206,
      "ing": 8207,
      "zvy": 8208,
      "Ġdcery": 8209,
      "sana": 8210,
      "jila": 8211,
      "ard": 8212,
      "Ġwith": 8213,
      "Ġmyslia": 8214,
      "Ġosobnost": 8215,
      "dsiat": 8216,
      "liny": 8217,
      "tola": 8218,
      "@@@@@@": 8219,
      "Ġkuf": 8220,
      "Ġchlapcov": 8221,
      "Ġcelou": 8222,
      "Ġfakul": 8223,
      "Ġbuducnost": 8224,
      "Ġopti": 8225,
      "atele": 8226,
      "Ġstromu": 8227,
      "Ġverejne": 8228,
      "Ġmatke": 8229,
      "Ġmlcal": 8230,
      "Ġsluzbu": 8231,
      "Ġnaucil": 8232,
      "Ġvytvara": 8233,
      "ivo": 8234,
      "snym": 8235,
      "Ġigno": 8236,
      "novania": 8237,
      "Ġzapar": 8238,
      "jsieho": 8239,
      "Ġzahrad": 8240,
      "Ġuspech": 8241,
      "Ġpak": 8242,
      "Ġ2009": 8243,
      "Ġpostavili": 8244,
      "Ïĥ": 8245,
      "Ġnarodov": 8246,
      "jou": 8247,
      "Ġral": 8248,
      "Ð½Ð¸Ð¸": 8249,
      "Ġ2002": 8250,
      "Ġprst": 8251,
      "Ġvyborne": 8252,
      "Ġukazalo": 8253,
      "nopat": 8254,
      "Ġmilo": 8255,
      "Ġmuselo": 8256,
      "Ġraku": 8257,
      "Ġpohlady": 8258,
      "Ġhat": 8259,
      "Ġprekro": 8260,
      "kni": 8261,
      "tickej": 8262,
      "Ġpami": 8263,
      "Ġpoznali": 8264,
      "Ġ32": 8265,
      "chces": 8266,
      "Ġochotny": 8267,
      "Ġpodozrie": 8268,
      "nav": 8269,
      "Ġpoznania": 8270,
      "Ġnov": 8271,
      "hladu": 8272,
      "rodzene": 8273,
      "Ġjazykom": 8274,
      "Ġzazvo": 8275,
      "Ġlar": 8276,
      "Ġdavid": 8277,
      "Ġpredmety": 8278,
      "lor": 8279,
      "Ġtakou": 8280,
      "vied": 8281,
      "Ġdohovo": 8282,
      "Ġnoh": 8283,
      "rian": 8284,
      "Ġspadol": 8285,
      "Ġzabili": 8286,
      "Ġdeli": 8287,
      "Ġtvoju": 8288,
      "Ġtvojej": 8289,
      "Ġzmenila": 8290,
      "Ġpodporu": 8291,
      "Ġposlat": 8292,
      "Ġpobral": 8293,
      "vacie": 8294,
      "Ġslubil": 8295,
      "Ġnahrad": 8296,
      "nutim": 8297,
      "Ġ49": 8298,
      "Ġsoviet": 8299,
      "rast": 8300,
      "Ġdlhu": 8301,
      "Ġdrobne": 8302,
      "Ġuha": 8303,
      "Ġtemu": 8304,
      "Ġostatnym": 8305,
      "Ġnecakane": 8306,
      "Ġprispo": 8307,
      ".),": 8308,
      "Ġveri": 8309,
      "Ġgale": 8310,
      "povedali": 8311,
      "Ġtrh": 8312,
      "Ġprehovoril": 8313,
      "Ġthom": 8314,
      "ÐµÐ²": 8315,
      "Ð¼Ð¾": 8316,
      "Ġfur": 8317,
      "Ġsposobu": 8318,
      "Ġmul": 8319,
      "Ġudrzat": 8320,
      "onu": 8321,
      "Ġkoncom": 8322,
      "prepacte": 8323,
      "myslis": 8324,
      "Ġskocil": 8325,
      "Ġzvys": 8326,
      "Ġpostavy": 8327,
      "ĠÑĩÐµÐ¼": 8328,
      "zbe": 8329,
      "Ġpridal": 8330,
      "Ġsklama": 8331,
      "Ġnaladu": 8332,
      "Ġchram": 8333,
      "riedok": 8334,
      "Ġspomienky": 8335,
      "Ġznel": 8336,
      "Ġ2005": 8337,
      "Ġzachova": 8338,
      "Ġozbroj": 8339,
      "Ġdediny": 8340,
      "Ġobvy": 8341,
      "tnym": 8342,
      "jasne": 8343,
      "Ġodha": 8344,
      "Ġzachranit": 8345,
      "Î½": 8346,
      "Ġpravdepodob": 8347,
      "stoch": 8348,
      "Ġrastliny": 8349,
      "Ġvybor": 8350,
      "ÑĤÑĥ": 8351,
      "Ġzao": 8352,
      "Ġ55": 8353,
      "Ġzachra": 8354,
      "Ġdetai": 8355,
      "tenie": 8356,
      "chnut": 8357,
      "Ġvyma": 8358,
      "paga": 8359,
      "Ġkontak": 8360,
      "Ġchlapov": 8361,
      "Ġtyzdnov": 8362,
      "Ġspravat": 8363,
      "Ġrychlost": 8364,
      "Ġyork": 8365,
      "Ġvenovat": 8366,
      "Ġsulade": 8367,
      "Ġzakony": 8368,
      "Ġuzemie": 8369,
      "tvoril": 8370,
      "Ġnavo": 8371,
      "stim": 8372,
      "Ġakou": 8373,
      "Ġkriz": 8374,
      "menili": 8375,
      "Ġnamo": 8376,
      "Ġlau": 8377,
      "dobry": 8378,
      "Ġslovenskych": 8379,
      "Ġrobotnikov": 8380,
      "npovedal": 8381,
      "Ġpobe": 8382,
      "Ġjanu": 8383,
      "Ġreda": 8384,
      "Ġdame": 8385,
      "Ġuloha": 8386,
      "das": 8387,
      "Ġtieni": 8388,
      "Ġcudzie": 8389,
      "Ġmedved": 8390,
      "Ġlepsi": 8391,
      "Ġzvrtol": 8392,
      "Ġveran": 8393,
      "Ġpodoba": 8394,
      "Ġulicu": 8395,
      "sity": 8396,
      "boru": 8397,
      "nr": 8398,
      "Ġsamu": 8399,
      "Ġuti": 8400,
      "Ġzama": 8401,
      "Ġbozka": 8402,
      "stian": 8403,
      "Ġkonfli": 8404,
      "rome": 8405,
      "Ġmladeho": 8406,
      "zanie": 8407,
      "bim": 8408,
      "zorne": 8409,
      "Ġzlocin": 8410,
      "Ġprocese": 8411,
      "Ġbronz": 8412,
      "Ġpritla": 8413,
      "Ġpriznat": 8414,
      "Ġdamy": 8415,
      "dzovat": 8416,
      "69": 8417,
      "kuju": 8418,
      "Ġvojvod": 8419,
      "Ġdrogy": 8420,
      "Ġrytier": 8421,
      "Ġkame": 8422,
      "Ġtusim": 8423,
      "npreto": 8424,
      "Ġneoby": 8425,
      "Ġmanzelku": 8426,
      "Ġzhromazd": 8427,
      "Ġnesti": 8428,
      "Ġvyk": 8429,
      "Ġmoto": 8430,
      "aleka": 8431,
      "Ġslowa": 8432,
      "Ġzazit": 8433,
      "Ġvybrat": 8434,
      "Ġlezia": 8435,
      "Ġburger": 8436,
      "Ġvcas": 8437,
      "Ġpristro": 8438,
      "Ġprsten": 8439,
      "riny": 8440,
      "Ġnetreba": 8441,
      "mysliet": 8442,
      "Ġzufal": 8443,
      "Ġzhr": 8444,
      "Ġdoslova": 8445,
      "Ġkontakt": 8446,
      "dufam": 8447,
      "censtvo": 8448,
      "Ġhlavneho": 8449,
      "Ġokuliare": 8450,
      "Ġpostre": 8451,
      "Ġzlozil": 8452,
      "Ġpress": 8453,
      "Ġchlapce": 8454,
      "Ġkrajin": 8455,
      "nkeby": 8456,
      "bridge": 8457,
      "lenych": 8458,
      "vre": 8459,
      "Ġleto": 8460,
      "ckemu": 8461,
      "Ġsocialnych": 8462,
      "Ġblazni": 8463,
      "Ġstreet": 8464,
      "Ġuvidime": 8465,
      "rice": 8466,
      "Ġhradu": 8467,
      "ntr": 8468,
      "68": 8469,
      "Ġmojzis": 8470,
      "Ġopatrenia": 8471,
      "Ġvidite": 8472,
      "Ġskoncila": 8473,
      "joch": 8474,
      "Ġnemalo": 8475,
      "Ġgla": 8476,
      "diac": 8477,
      "knute": 8478,
      "wer": 8479,
      "Ġhaly": 8480,
      "Ġnatiahol": 8481,
      "Ġpokrutila": 8482,
      "pas": 8483,
      "Ġspokojne": 8484,
      "Ġmien": 8485,
      "ami": 8486,
      "krati": 8487,
      "Ġpiatich": 8488,
      "Ġnezvycajne": 8489,
      "formu": 8490,
      "Ġmensi": 8491,
      "Ġsymbo": 8492,
      "Ġzvacsa": 8493,
      "cionali": 8494,
      "nstre": 8495,
      "Ġonedlho": 8496,
      "Ġvysledkom": 8497,
      "Ġdrie": 8498,
      "Ġui": 8499,
      "Ġzhromaz": 8500,
      "nstu": 8501,
      "Ġjazera": 8502,
      "Ġpouzivat": 8503,
      "Ġnapis": 8504,
      "Ġdietata": 8505,
      "vovali": 8506,
      "ĠÑĨ": 8507,
      "Ġuta": 8508,
      "Ġbohy": 8509,
      "Ġcra": 8510,
      "Ġjsme": 8511,
      "Ġzivotom": 8512,
      "neza": 8513,
      "Ġrozbi": 8514,
      "Ġnadherne": 8515,
      "chcete": 8516,
      "phi": 8517,
      "raku": 8518,
      "zkou": 8519,
      "Ġgala": 8520,
      "Ġbau": 8521,
      "Ġnaroda": 8522,
      "Ġskrikol": 8523,
      "Ġdispozicii": 8524,
      "Ġhit": 8525,
      "Ġstudie": 8526,
      "Ġzaludok": 8527,
      "Ġneni": 8528,
      "rovom": 8529,
      "Ġrozmyslal": 8530,
      "Ġprehliad": 8531,
      "pytal": 8532,
      "ÑģÑĤÐ¾": 8533,
      "Ġmrtvych": 8534,
      "cc": 8535,
      "rung": 8536,
      "viazal": 8537,
      "Ġorienta": 8538,
      "Ġznici": 8539,
      "dine": 8540,
      "lovu": 8541,
      "Ġudrel": 8542,
      "hnuty": 8543,
      "Ġpochopila": 8544,
      "Ġinspektor": 8545,
      "Ġpisat": 8546,
      "Ġdokazy": 8547,
      "Ġkandi": 8548,
      "Ġniekam": 8549,
      "puta": 8550,
      "voda": 8551,
      "Ġmarx": 8552,
      "Ġdrzi": 8553,
      "Ġ1944": 8554,
      "Ġprazdne": 8555,
      "bna": 8556,
      "nex": 8557,
      "Ġoddych": 8558,
      "Ġrytie": 8559,
      "Ġvenoval": 8560,
      "Ġhza": 8561,
      "Ġdroga": 8562,
      "Ġfirmy": 8563,
      "hroma": 8564,
      "ye": 8565,
      "Ġhil": 8566,
      "Ġmocne": 8567,
      "Ġposledna": 8568,
      "pkal": 8569,
      "prisa": 8570,
      "Ġrozlicne": 8571,
      "Ġskala": 8572,
      "###": 8573,
      "Ġjor": 8574,
      "Ġkonkretne": 8575,
      "Ġzobraz": 8576,
      "Ġstiahol": 8577,
      "Ġzelene": 8578,
      "Ġpovrchu": 8579,
      "ratu": 8580,
      "skra": 8581,
      "Ġdusu": 8582,
      "Ġposil": 8583,
      "Ġpolovici": 8584,
      "Ġvysu": 8585,
      "Ġrusi": 8586,
      "Ġusporiada": 8587,
      "Ġpreziden": 8588,
      "Ġnehybne": 8589,
      "Ġslovom": 8590,
      "Î»": 8591,
      "Ġpravidel": 8592,
      "Ġnestre": 8593,
      "Ġsamov": 8594,
      "nvsetko": 8595,
      "Ġhagrid": 8596,
      "ses": 8597,
      "Ġrozpre": 8598,
      "Ġdvesto": 8599,
      "Ġzaciatok": 8600,
      "Ġlei": 8601,
      "Ġpest": 8602,
      "Ġposobia": 8603,
      "tez": 8604,
      "Ġkontra": 8605,
      "Ġligo": 8606,
      "Ġgen": 8607,
      "Ġnapoly": 8608,
      "Ġskupin": 8609,
      "Ġciernej": 8610,
      "Ġporus": 8611,
      "Ġdoktora": 8612,
      "Ġpros": 8613,
      "Ġmedia": 8614,
      "Ġdosial": 8615,
      "Ġprachu": 8616,
      "Ġpredstavil": 8617,
      "sticku": 8618,
      "Ġdomom": 8619,
      "Ġsluchadlo": 8620,
      "cier": 8621,
      "nhoci": 8622,
      "dovu": 8623,
      "Ġrozlo": 8624,
      "Ġdomi": 8625,
      "Ġprostriedok": 8626,
      "Ġodmieta": 8627,
      "Ġprvo": 8628,
      "myslite": 8629,
      "Ġ.,": 8630,
      "Ġbratia": 8631,
      "Ġwolfe": 8632,
      "Ġpreukaz": 8633,
      "Ġinteligen": 8634,
      "Ġprida": 8635,
      "ïĢ": 8636,
      "tivo": 8637,
      "Ġmach": 8638,
      "bytok": 8639,
      "Ġstastia": 8640,
      "Ġdomy": 8641,
      "Ġzavo": 8642,
      "Ġsucho": 8643,
      "Ð¿Ð¸": 8644,
      "Ġinokedy": 8645,
      "stine": 8646,
      "Ġodpla": 8647,
      "Ġempiri": 8648,
      "Ġzvrt": 8649,
      "Ġkardi": 8650,
      "Ġdedic": 8651,
      "nohospodar": 8652,
      "58": 8653,
      "Ġdlani": 8654,
      "Ġpevnosti": 8655,
      "Ġnecu": 8656,
      "Ġprestav": 8657,
      "Ġmajitel": 8658,
      "Ġmilost": 8659,
      "Ġpohrda": 8660,
      "Ġrozprava": 8661,
      "kacie": 8662,
      "Ġradio": 8663,
      "Ġnesuhla": 8664,
      "jati": 8665,
      "Ġpozhova": 8666,
      "Ġskaly": 8667,
      "igret": 8668,
      "maj": 8669,
      "mum": 8670,
      "Ġpohov": 8671,
      "Ġnajlepsi": 8672,
      "Ġbed": 8673,
      "Ġskatu": 8674,
      "Ġocitol": 8675,
      "Ġform": 8676,
      "Ġ2010": 8677,
      "Ġsnehu": 8678,
      "deho": 8679,
      "dis": 8680,
      "vica": 8681,
      "Ġurobim": 8682,
      "Ġnadeje": 8683,
      "port": 8684,
      "novym": 8685,
      "Ġtvojho": 8686,
      "71": 8687,
      "yse": 8688,
      "**âĢ¢": 8689,
      "Ġodhal": 8690,
      "Ġobehu": 8691,
      "Ġisbn": 8692,
      "Ġlistov": 8693,
      "Ġpocitila": 8694,
      "Ġpopi": 8695,
      "Ġprichod": 8696,
      "Ġsekre": 8697,
      "Ġstrel": 8698,
      "Ġspokojny": 8699,
      "vzdy": 8700,
      "alit": 8701,
      "Ġobce": 8702,
      "Ġrozhodu": 8703,
      "Ġnemas": 8704,
      "Ġvlny": 8705,
      "Ġstarom": 8706,
      "Ġvykrikla": 8707,
      "Ġuradu": 8708,
      ":_\\": 8709,
      "rinu": 8710,
      "Ġkab": 8711,
      "Ġrovnaky": 8712,
      "Ġvybud": 8713,
      "Ġ-,": 8714,
      "Ġvacsiu": 8715,
      "Ġznalo": 8716,
      "Ġkade": 8717,
      "Ġjapo": 8718,
      "Ġzodpovednosti": 8719,
      "Ġuverit": 8720,
      "Ġmnozstva": 8721,
      "Ġnerv": 8722,
      "Ġporaz": 8723,
      "Ġuzat": 8724,
      "Ġkomor": 8725,
      "Ġnevideli": 8726,
      "64": 8727,
      "Ġosta": 8728,
      "Ġdaval": 8729,
      "Ġpyrami": 8730,
      "Ġprofesional": 8731,
      "Ġmnohy": 8732,
      "ae": 8733,
      "Ġmami": 8734,
      "Ġmozog": 8735,
      "Ġdecem": 8736,
      "Ġkruh": 8737,
      "kop": 8738,
      "Ġske": 8739,
      "ovne": 8740,
      "Ġstolicke": 8741,
      "Ġvykonu": 8742,
      "Âĸ": 8743,
      "Ġdraz": 8744,
      "Ġrozbehol": 8745,
      "Ġdan": 8746,
      "Ġdokazat": 8747,
      "hni": 8748,
      "Ġhotela": 8749,
      "Ġstupa": 8750,
      "Ġvasni": 8751,
      "ÑĩÐ½ÑĭÐ¸": 8752,
      "](": 8753,
      "Ġpohl": 8754,
      "Ġalkoho": 8755,
      "Ġsuvisia": 8756,
      "olog": 8757,
      "Ġpohol": 8758,
      "Ġpetra": 8759,
      "Ġstopa": 8760,
      "Ġkompe": 8761,
      "Î²": 8762,
      "Ġpodiel": 8763,
      "Ġnizsie": 8764,
      "Ġpravu": 8765,
      "ĠÑģÐ¾": 8766,
      "Ġcln": 8767,
      "uc": 8768,
      "Ġzmene": 8769,
      "Ġpredsed": 8770,
      "tte": 8771,
      "mela": 8772,
      "stor": 8773,
      "Ġpatril": 8774,
      "Ġcierna": 8775,
      "hodila": 8776,
      "preva": 8777,
      "ÑĥÐ´": 8778,
      "Ġtuzba": 8779,
      "Ġdaniel": 8780,
      "Ġhviezdy": 8781,
      "wen": 8782,
      "Ġzala": 8783,
      "Ġlezali": 8784,
      "Ġpaul": 8785,
      "Ġstrede": 8786,
      "Ġsestdesiat": 8787,
      "Ġvystri": 8788,
      "Ġbozie": 8789,
      "Ġnervy": 8790,
      "lymi": 8791,
      "Ġrezer": 8792,
      "Ġvnutorne": 8793,
      "Ġprazdna": 8794,
      "Ġmajst": 8795,
      "Ġnedokazal": 8796,
      "Ġplna": 8797,
      "pocul": 8798,
      "Ġmeg": 8799,
      "Ġzlodej": 8800,
      "Ġhrozi": 8801,
      "nologie": 8802,
      "Ġvyla": 8803,
      "clen": 8804,
      "Ġmaja": 8805,
      "Ġreag": 8806,
      "Ġanglicku": 8807,
      "Ġpripomin": 8808,
      "Ġnepovedala": 8809,
      "kovym": 8810,
      "Ġlietadla": 8811,
      "cno": 8812,
      "Ġvysokej": 8813,
      "Ġclenovia": 8814,
      "Ġwulf": 8815,
      "Ġstastny": 8816,
      "Ġznamenie": 8817,
      "ake": 8818,
      "tni": 8819,
      "Ġstaru": 8820,
      "lieha": 8821,
      "Ġbrane": 8822,
      "Ġkrajinach": 8823,
      "Ġvychova": 8824,
      "stiky": 8825,
      "Ġpustit": 8826,
      "Ġznamenat": 8827,
      "Ġpustili": 8828,
      "Ġnazory": 8829,
      "Ġnastastie": 8830,
      "99": 8831,
      "wick": 8832,
      "Ġnac": 8833,
      "Ġbosch": 8834,
      "Ġskodu": 8835,
      "Ġpotravi": 8836,
      "Ġbrad": 8837,
      "mozem": 8838,
      "ngli": 8839,
      "Ġvzdialenosti": 8840,
      "kovanie": 8841,
      "Ġnece": 8842,
      "Ġbyte": 8843,
      "Ġmelo": 8844,
      "Ġclanok": 8845,
      "Ġjoe": 8846,
      "vite": 8847,
      "Ġdzu": 8848,
      "Ġpapu": 8849,
      "Ġkrical": 8850,
      "Ġ2013": 8851,
      "ntaz": 8852,
      "Ġskutocny": 8853,
      "livost": 8854,
      "ÐµÑĤÐµÐ»ÑĮ": 8855,
      ".).": 8856,
      "63": 8857,
      "ÂŃ_\\": 8858,
      "Ġnit": 8859,
      "Ġpustila": 8860,
      "ei": 8861,
      "Ġchoroby": 8862,
      "Ġcam": 8863,
      "Ġpohnut": 8864,
      "gmati": 8865,
      "Ġvysi": 8866,
      "Ġstredu": 8867,
      "Ġpapiera": 8868,
      "Â½": 8869,
      "Ġnai": 8870,
      "not": 8871,
      "nktora": 8872,
      "wn": 8873,
      "Ġbohom": 8874,
      "Ġozvalo": 8875,
      "Ġneznamena": 8876,
      "nraz": 8877,
      "Ġnacelnik": 8878,
      "Ġgabriel": 8879,
      "Ġvedomia": 8880,
      "Ġoblohe": 8881,
      "57": 8882,
      "renim": 8883,
      "Ġlegen": 8884,
      "Ġpremyslal": 8885,
      "Ð»Ñĥ": 8886,
      "ĠÐ¿Ð°": 8887,
      "Ġreprezen": 8888,
      "Ġnastup": 8889,
      "Ġsymboli": 8890,
      "Ġpalube": 8891,
      "Ġcro": 8892,
      "Ġludu": 8893,
      "Ġobidvoch": 8894,
      "Ġnezalezi": 8895,
      "stina": 8896,
      "Ġzamku": 8897,
      "Ġbytost": 8898,
      "Ġmanzelstvo": 8899,
      "Ġpytal": 8900,
      "Ġjednoznacne": 8901,
      "cnejsie": 8902,
      "Îµ": 8903,
      "nahla": 8904,
      "Ġsocialne": 8905,
      "Ġpozdlz": 8906,
      "lla": 8907,
      "yy": 8908,
      "Ġnazad": 8909,
      "jdeme": 8910,
      "chcela": 8911,
      "Ġant": 8912,
      "live": 8913,
      "gne": 8914,
      "mrt": 8915,
      "Ġpravy": 8916,
      "menta": 8917,
      "Ġspol": 8918,
      "Ġnasledne": 8919,
      "Ġpocuvat": 8920,
      "Ð¶Ð´": 8921,
      "Ġwinnetou": 8922,
      "Ġzazi": 8923,
      "Ġhrom": 8924,
      "Ġou": 8925,
      "Ġobru": 8926,
      "atene": 8927,
      "Ġclovekom": 8928,
      "Ġprincip": 8929,
      "Ġvytiahla": 8930,
      "Ġvodo": 8931,
      "Ġray": 8932,
      "ket": 8933,
      "myslu": 8934,
      "Ġnaruci": 8935,
      "Ġoprav": 8936,
      "Ġpriesku": 8937,
      "Ġvyst": 8938,
      "ÑĢÐ°Ð½": 8939,
      "Ġfotografie": 8940,
      "Ġpul": 8941,
      "dajte": 8942,
      "Ġohroz": 8943,
      "Ġlahsie": 8944,
      "Ġlondyne": 8945,
      "merane": 8946,
      "Ġnadvo": 8947,
      "Ġznepokoj": 8948,
      "niet": 8949,
      "Ġostra": 8950,
      "Ġkresle": 8951,
      "Ġzalezitost": 8952,
      "nhodno": 8953,
      "nsvoj": 8954,
      "edago": 8955,
      "gos": 8956,
      "Ġstaty": 8957,
      "Ġvic": 8958,
      "jny": 8959,
      "same": 8960,
      "gr": 8961,
      "ÑĴÐ±": 8962,
      "Ġzovrel": 8963,
      "Ġzdroj": 8964,
      "Ġvlie": 8965,
      "Ġprinasa": 8966,
      "::": 8967,
      "Ġdosa": 8968,
      "ÂļÂĿ": 8969,
      "Ġstisol": 8970,
      "Ġpodie": 8971,
      "Ġnosom": 8972,
      "Ġred": 8973,
      "heho": 8974,
      "Ġnezba": 8975,
      "Ġzbrani": 8976,
      "Ġposobil": 8977,
      "Ġpoctu": 8978,
      "Ġnalieha": 8979,
      "Ġ{": 8980,
      "Ġmilova": 8981,
      "Ġgeni": 8982,
      "Ġulohou": 8983,
      "kciu": 8984,
      "vnym": 8985,
      "Ġbate": 8986,
      "vach": 8987,
      "Ġdobrovol": 8988,
      "ntym": 8989,
      "Ġdeut": 8990,
      "Ġslovensky": 8991,
      "Ġnacu": 8992,
      "Ġmay": 8993,
      "ndre": 8994,
      "Ġziadna": 8995,
      "ire": 8996,
      "Ġpyta": 8997,
      "Ġnamaha": 8998,
      "ht": 8999,
      "Ġnaproti": 9000,
      "noprav": 9001,
      "Ġklam": 9002,
      "Ġnedostatok": 9003,
      "Ġharrymu": 9004,
      "Ġlem": 9005,
      "Ġzabrad": 9006,
      "Ġzje": 9007,
      "Ġchodie": 9008,
      "Ġkras": 9009,
      "Ġpoznala": 9010,
      "Ġzachranil": 9011,
      "Ġistym": 9012,
      "Ġvycit": 9013,
      "bohu": 9014,
      "Ġlevi": 9015,
      "Ġlokali": 9016,
      "Ġsamos": 9017,
      "Ġhlbsie": 9018,
      "Ġobjal": 9019,
      "Ġtenden": 9020,
      "Ġkrajina": 9021,
      "Ġobycajny": 9022,
      "Ġpop": 9023,
      "kan": 9024,
      "Ġchybu": 9025,
      "tento": 9026,
      "Ġsich": 9027,
      "Ġtanie": 9028,
      "Ġbankov": 9029,
      "Ġsilno": 9030,
      "Ġprilezitosti": 9031,
      "Ġzasob": 9032,
      "Ġrozru": 9033,
      "Ġcierneho": 9034,
      "Ġstudentov": 9035,
      "npu": 9036,
      "Ġslachti": 9037,
      "Ġdietat": 9038,
      "Ġpleci": 9039,
      "Ġorgany": 9040,
      "Ġabsol": 9041,
      "Ġtajomstva": 9042,
      "Ġoriginal": 9043,
      "Ġrozsahu": 9044,
      "Ġpust": 9045,
      "Ġfunkcii": 9046,
      "Ġbok": 9047,
      "Ġkralovi": 9048,
      "Ġideme": 9049,
      "Ġskonci": 9050,
      "silovala": 9051,
      "Ð¾Ð»ÑĮ": 9052,
      "Ġolej": 9053,
      "Ġnetra": 9054,
      "Ġpravdy": 9055,
      "Ġstranach": 9056,
      "Ġprekvapilo": 9057,
      "melo": 9058,
      "Ġclanku": 9059,
      "Ġnadychol": 9060,
      "Ġpiv": 9061,
      "Ġmarcus": 9062,
      "Ġvyrazil": 9063,
      "ting": 9064,
      "Ġposlednu": 9065,
      "Ġkrajinu": 9066,
      "'.": 9067,
      "pos": 9068,
      "hovorila": 9069,
      "berta": 9070,
      "Ġhomo": 9071,
      "lowe": 9072,
      "pochy": 9073,
      "ÑĪÐµ": 9074,
      "npan": 9075,
      "Ġprac": 9076,
      "ndon": 9077,
      "ntoto": 9078,
      "euro": 9079,
      "Ġzabudla": 9080,
      "Ġvnutro": 9081,
      "senim": 9082,
      "Ġsvede": 9083,
      "Ġneveria": 9084,
      "Ġkatastro": 9085,
      "Ġnemocnice": 9086,
      "Ġtho": 9087,
      "ther": 9088,
      "\".\\": 9089,
      "Ġuvod": 9090,
      "nvlast": 9091,
      "Ġintenzi": 9092,
      "cervene": 9093,
      "Ġvreckov": 9094,
      "Ġvosli": 9095,
      "Ġstranky": 9096,
      "pira": 9097,
      "nkova": 9098,
      "Ġzahrady": 9099,
      "arne": 9100,
      "Ġ33": 9101,
      "Ġskola": 9102,
      "Ġore": 9103,
      "Ġkul": 9104,
      "Ġwin": 9105,
      "Ġdlha": 9106,
      "Ġpovzbu": 9107,
      "scha": 9108,
      "jas": 9109,
      "ovod": 9110,
      "Ġdur": 9111,
      "Ġsignal": 9112,
      "59": 9113,
      "Ġnevieme": 9114,
      "Ġspeciali": 9115,
      "62": 9116,
      "73": 9117,
      "Ġsvetovej": 9118,
      "Ġslabe": 9119,
      "Ġtermin": 9120,
      "Ġdynami": 9121,
      "Ġsuvisi": 9122,
      "Ġprvkov": 9123,
      "Ġnasto": 9124,
      "Ġpomoze": 9125,
      "Ġpozrite": 9126,
      "Ġzadr": 9127,
      "Ġvydr": 9128,
      "Ġana": 9129,
      "selo": 9130,
      "Ġstarove": 9131,
      "Ġkrasny": 9132,
      "Ġnebudeme": 9133,
      "Ġvypi": 9134,
      "Ġjou": 9135,
      "Ġrozme": 9136,
      "Ġverejnosti": 9137,
      "Ġmana": 9138,
      "nspe": 9139,
      "79": 9140,
      "Ġnave": 9141,
      "cika": 9142,
      "rup": 9143,
      "Ġpanu": 9144,
      "Ġpada": 9145,
      "spolo": 9146,
      "sii": 9147,
      "kovom": 9148,
      "Ġsmeru": 9149,
      "lenim": 9150,
      "Ġstlp": 9151,
      "oba": 9152,
      "Ġstopu": 9153,
      "vlastne": 9154,
      "Ġdlazke": 9155,
      "nzia": 9156,
      "znali": 9157,
      "atim": 9158,
      "stovala": 9159,
      "Ġdopo": 9160,
      "stone": 9161,
      "Ġstor": 9162,
      "Ġznacne": 9163,
      "Ġprekra": 9164,
      "rnej": 9165,
      "Ġzamo": 9166,
      "skove": 9167,
      "Ġchose": 9168,
      "nvoj": 9169,
      "rocny": 9170,
      "Ġprilo": 9171,
      "Ġkoza": 9172,
      "Ġnovina": 9173,
      "nmy": 9174,
      "Ġia": 9175,
      "Ġinstink": 9176,
      "Ġnovin": 9177,
      "Ġfrom": 9178,
      "Ġnajkra": 9179,
      "Ġustami": 9180,
      "Ġpredstavy": 9181,
      "tivny": 9182,
      "Ð½Ñı": 9183,
      "Ġzlostne": 9184,
      "Ġpouzivaju": 9185,
      "Ġprezrad": 9186,
      "Ġzariadenie": 9187,
      "dze": 9188,
      "hned": 9189,
      "Ġjesen": 9190,
      "Ġrozvoj": 9191,
      "Ġ190": 9192,
      "ĠÂĬ": 9193,
      "Ġzachmu": 9194,
      "Ġono": 9195,
      "Ġprichy": 9196,
      "Ġperi": 9197,
      "ganiz": 9198,
      "Ġnavrat": 9199,
      "Ġmaterialu": 9200,
      "poviem": 9201,
      "Ġnut": 9202,
      "Ġobjekt": 9203,
      "Ġrozsia": 9204,
      "Ġfin": 9205,
      "Ġthi": 9206,
      "89": 9207,
      "Ġnavstivit": 9208,
      "Ġoznam": 9209,
      "edia": 9210,
      "boch": 9211,
      "Ġ2011": 9212,
      "chlo": 9213,
      "Ġpredmetom": 9214,
      "Ġbranit": 9215,
      "Ġinici": 9216,
      "Ġpoznanie": 9217,
      "Ġprisvedcil": 9218,
      "Ġnek": 9219,
      "Ġkaro": 9220,
      "Ġtiche": 9221,
      "Ġskupinu": 9222,
      "ÑģÐºÐ¾": 9223,
      "Ġsana": 9224,
      "staro": 9225,
      "Ġnevlad": 9226,
      "Ġanglicka": 9227,
      "nasi": 9228,
      "vedome": 9229,
      "Ġfarbu": 9230,
      "/-": 9231,
      "tickeho": 9232,
      "Ġroy": 9233,
      "Ġ90": 9234,
      "Ġmly": 9235,
      "Ġboju": 9236,
      "Ġrevol": 9237,
      "Ġminuty": 9238,
      "51": 9239,
      "lieta": 9240,
      "Ġmalom": 9241,
      "Ġucinky": 9242,
      "ai": 9243,
      "Ġkopu": 9244,
      "Ġpisto": 9245,
      "povedat": 9246,
      "Ġvyrobu": 9247,
      "diu": 9248,
      "Ġstastna": 9249,
      "Ġplav": 9250,
      "Ġbiskup": 9251,
      "nclanok": 9252,
      "hrani": 9253,
      "nora": 9254,
      "Ġodchod": 9255,
      "Ġpovraz": 9256,
      "Ġdychu": 9257,
      "Ġveria": 9258,
      "Ġtaktiez": 9259,
      "kladal": 9260,
      "Ġnacia": 9261,
      "zinu": 9262,
      "Ġobyc": 9263,
      "Ġritu": 9264,
      "Ġpripady": 9265,
      "Ġryba": 9266,
      "Ġnevra": 9267,
      "Ġdivi": 9268,
      "Ġskody": 9269,
      "Ġvidis": 9270,
      "Ġkriminal": 9271,
      "Ġneschop": 9272,
      "Ġroh": 9273,
      "Ġjuna": 9274,
      "Ġstrcil": 9275,
      "zieb": 9276,
      "Ġtony": 9277,
      "Ð²Ð»": 9278,
      "Ġpovodu": 9279,
      "nvsetci": 9280,
      "Ġvasich": 9281,
      "tovali": 9282,
      "Ġcervena": 9283,
      "Ġpodobu": 9284,
      "Ġchuti": 9285,
      "Ġpodrobnosti": 9286,
      "Ġ2001": 9287,
      "Ġpacient": 9288,
      "ministrati": 9289,
      "Ġadvo": 9290,
      "Ġlondyna": 9291,
      "uci": 9292,
      "paci": 9293,
      "Ġverim": 9294,
      "tiahne": 9295,
      "Ġora": 9296,
      "Ġkostola": 9297,
      "zdo": 9298,
      "Ġurcit": 9299,
      "Ġmost": 9300,
      "Ġset": 9301,
      "kane": 9302,
      "Ġpomy": 9303,
      "Ġvojak": 9304,
      "nchvilu": 9305,
      "Ġefektiv": 9306,
      "Î¿": 9307,
      "fen": 9308,
      "sledne": 9309,
      "Ġbieleho": 9310,
      "Ġsklada": 9311,
      "nsvet": 9312,
      "Ġrastie": 9313,
      "Ġspomenut": 9314,
      "Ġkazdoden": 9315,
      "rneho": 9316,
      "Ġdub": 9317,
      "Ġsprevadz": 9318,
      "Ġexistuju": 9319,
      "Ġabra": 9320,
      "Ġatla": 9321,
      "rez": 9322,
      "kanie": 9323,
      "Ġpozreli": 9324,
      "Ġhistoria": 9325,
      "Ġsmiechu": 9326,
      "Ġarab": 9327,
      "Ġpristroj": 9328,
      "Ġredu": 9329,
      "renych": 9330,
      "Ġarte": 9331,
      "Ġmetoda": 9332,
      "Ġpiesku": 9333,
      "Ġprecital": 9334,
      "iny": 9335,
      "kia": 9336,
      "Ġprehlad": 9337,
      "pade": 9338,
      "nnedo": 9339,
      "Ġpozn": 9340,
      "Ġperspe": 9341,
      "Ġnamietol": 9342,
      "Ġmodre": 9343,
      "dve": 9344,
      "pin": 9345,
      "Ġfon": 9346,
      "Ġziar": 9347,
      "Ġnaplne": 9348,
      "Ġjezis": 9349,
      "Ġziju": 9350,
      "Ġpostavu": 9351,
      "ÑĩÐµÑģÐºÐ¸Ð¸": 9352,
      "77": 9353,
      "renymi": 9354,
      "nnez": 9355,
      "Ġrobis": 9356,
      "Ġobrazy": 9357,
      "Ġzmizli": 9358,
      "Ġopustil": 9359,
      "kaju": 9360,
      "Ġzurivo": 9361,
      "num": 9362,
      "Ġoddie": 9363,
      "Ġgol": 9364,
      "Ġnajca": 9365,
      "nvzdy": 9366,
      "Ġotazkou": 9367,
      "Ġnevrati": 9368,
      "Ġzdravie": 9369,
      "Ġzadnej": 9370,
      "Ġkoren": 9371,
      "Ġsucast": 9372,
      "Ġmichael": 9373,
      "Ġkara": 9374,
      "menom": 9375,
      "nnepri": 9376,
      "Ġzacula": 9377,
      "strcil": 9378,
      "Ġstratili": 9379,
      "Ġkonzer": 9380,
      "Ġprotiv": 9381,
      "Ġchodniku": 9382,
      "ÑīÐ¸Ð¸": 9383,
      "Ġdokument": 9384,
      "priet": 9385,
      "Ġbeau": 9386,
      "ncel": 9387,
      "Ġangeli": 9388,
      "Ġzabranit": 9389,
      "beny": 9390,
      "hn": 9391,
      "Ġzbor": 9392,
      "toria": 9393,
      "Ġhora": 9394,
      "covalo": 9395,
      "nvac": 9396,
      "Ġted": 9397,
      "Ġuspokoj": 9398,
      "Ġzachytil": 9399,
      "nemam": 9400,
      "ricka": 9401,
      "Ġprestala": 9402,
      "Ġkana": 9403,
      "Ġziadosti": 9404,
      "sest": 9405,
      "Ġzaujme": 9406,
      "Ġpozerala": 9407,
      "Ġnastroj": 9408,
      "Ġdosah": 9409,
      "stredne": 9410,
      "Ġveza": 9411,
      "Ġbrucho": 9412,
      "tovala": 9413,
      "ktorka": 9414,
      "Ġpilo": 9415,
      "nnevy": 9416,
      "Ġnazvom": 9417,
      "Ġpodala": 9418,
      "Ġprete": 9419,
      "Ġbiologi": 9420,
      "Ġakasi": 9421,
      "dovi": 9422,
      "Ġpreven": 9423,
      "Ġskupine": 9424,
      "Ġplukovnik": 9425,
      "rica": 9426,
      "Ġvle": 9427,
      "Ġtan": 9428,
      "Ġstrhol": 9429,
      "Ġuniverzity": 9430,
      "Ġdoo": 9431,
      "Ġleta": 9432,
      "Ġbezpeci": 9433,
      "Ġcasy": 9434,
      "Ġexperi": 9435,
      "Ġzakonom": 9436,
      "ssa": 9437,
      "nmuz": 9438,
      "stika": 9439,
      "pretoze": 9440,
      "Ġzdravi": 9441,
      "Ġpozehna": 9442,
      "ÐµÑģ": 9443,
      "novho": 9444,
      "Ġzro": 9445,
[...]
