{
  "version": "1.0",
  "truncation": null,
  "padding": null,
  "added_tokens": [
    {
      "id": 0,
      "content": "<unk>",
      "single_word": false,
      "lstrip": false,
      "rstrip": false,
      "normalized": false,
      "special": true
    }
  ],
  "normalizer": {
    "type": "NFKC"
  },
  "pre_tokenizer": {
    "type": "Metaspace",
    "replacement": "▁",
    "prepend_scheme": "always",
    "split": true
  },
  "post_processor": null,
  "decoder": {
    "type": "Metaspace",
    "replacement": "▁",
    "prepend_scheme": "always",
    "split": true
  },
  "model": {
    "type": "BPE",
    "dropout": null,
    "unk_token": "<unk>",
    "continuing_subword_prefix": null,
    "end_of_word_suffix": null,
    "fuse_unk": false,
    "byte_fallback": false,
    "ignore_merges": false,
    "vocab": {
      "<unk>": 0,
      "\u0001": 1,
      "\u0002": 2,
      "\u0003": 3,
      "\u0004": 4,
      "\t": 5,
      "\u001a": 6,
      "\u001f": 7,
      "!": 8,
      "\"": 9,
      "#": 10,
      "$": 11,
      "%": 12,
      "&": 13,
      "'": 14,
      "(": 15,
      ")": 16,
      "*": 17,
      "+": 18,
      ",": 19,
      "-": 20,
      ".": 21,
      "/": 22,
      "0": 23,
      "1": 24,
      "2": 25,
      "3": 26,
      "4": 27,
      "5": 28,
      "6": 29,
      "7": 30,
      "8": 31,
      "9": 32,
      ":": 33,
      ";": 34,
      "<": 35,
      "=": 36,
      ">": 37,
      "?": 38,
      "@": 39,
      "A": 40,
      "B": 41,
      "C": 42,
      "D": 43,
      "E": 44,
      "F": 45,
      "G": 46,
      "H": 47,
      "I": 48,
      "J": 49,
      "K": 50,
      "L": 51,
      "M": 52,
      "N": 53,
      "O": 54,
      "P": 55,
      "Q": 56,
      "R": 57,
      "S": 58,
      "T": 59,
      "U": 60,
      "V": 61,
      "W": 62,
      "X": 63,
      "Y": 64,
      "Z": 65,
      "[": 66,
      "\\": 67,
      "]": 68,
      "^": 69,
      "_": 70,
      "`": 71,
      "a": 72,
      "b": 73,
      "c": 74,
      "d": 75,
      "e": 76,
      "f": 77,
      "g": 78,
      "h": 79,
      "i": 80,
      "j": 81,
      "k": 82,
      "l": 83,
      "m": 84,
      "n": 85,
      "o": 86,
      "p": 87,
      "q": 88,
      "r": 89,
      "s": 90,
      "t": 91,
      "u": 92,
      "v": 93,
      "w": 94,
      "x": 95,
      "y": 96,
      "z": 97,
      "{": 98,
      "|": 99,
      "}": 100,
      "~": 101,
      "": 102,
      "": 103,
      "": 104,
      "": 105,
      "": 106,
      "": 107,
      "": 108,
      "": 109,
      "": 110,
      "": 111,
      "": 112,
      "": 113,
      "": 114,
      "": 115,
      "": 116,
      "": 117,
      "": 118,
      "": 119,
      "": 120,
      "": 121,
      "": 122,
      "": 123,
      "¡": 124,
      "¢": 125,
      "£": 126,
      "¤": 127,
      "¥": 128,
      "¦": 129,
      "§": 130,
      "©": 131,
      "«": 132,
      "¬": 133,
      "­": 134,
      "®": 135,
      "°": 136,
      "±": 137,
      "¶": 138,
      "·": 139,
      "»": 140,
      "À": 141,
      "Á": 142,
      "Â": 143,
      "Ã": 144,
      "Ä": 145,
      "Å": 146,
      "Æ": 147,
      "Ç": 148,
      "È": 149,
      "É": 150,
      "Ê": 151,
      "Ë": 152,
      "Í": 153,
      "Î": 154,
      "Ï": 155,
      "Ñ": 156,
      "Ò": 157,
      "Ó": 158,
      "Ô": 159,
      "Õ": 160,
      "Ö": 161,
      "×": 162,
      "Ø": 163,
      "Ú": 164,
      "Û": 165,
      "Ü": 166,
      "Ý": 167,
      "ß": 168,
      "à": 169,
      "á": 170,
      "â": 171,
      "ã": 172,
      "ä": 173,
      "å": 174,
      "æ": 175,
      "ç": 176,
      "è": 177,
      "é": 178,
      "ê": 179,
      "ë": 180,
      "ì": 181,
      "í": 182,
      "î": 183,
      "ï": 184,
      "ð": 185,
      "ñ": 186,
      "ò": 187,
      "ó": 188,
      "ô": 189,
      "õ": 190,
      "ö": 191,
      "÷": 192,
      "ø": 193,
      "ù": 194,
      "ú": 195,
      "û": 196,
      "ü": 197,
      "ý": 198,
      "ÿ": 199,
      "ā": 200,
      "Ă": 201,
      "ă": 202,
      "Ą": 203,
      "ą": 204,
      "Ć": 205,
      "ć": 206,
      "ĉ": 207,
      "Č": 208,
      "č": 209,
      "Ď": 210,
      "ď": 211,
      "Đ": 212,
      "đ": 213,
      "Ę": 214,
      "ę": 215,
      "Ě": 216,
      "ě": 217,
      "ğ": 218,
      "ħ": 219,
      "ı": 220,
      "Ĺ": 221,
      "ĺ": 222,
      "Ľ": 223,
      "ľ": 224,
      "Ł": 225,
      "ł": 226,
      "Ń": 227,
      "ń": 228,
      "Ņ": 229,
      "ņ": 230,
      "Ň": 231,
      "ň": 232,
      "Ő": 233,
      "ő": 234,
      "Ŕ": 235,
      "ŕ": 236,
      "Ř": 237,
      "ř": 238,
      "Ś": 239,
      "ś": 240,
      "Ŝ": 241,
      "Ş": 242,
      "ş": 243,
      "Š": 244,
      "š": 245,
      "Ţ": 246,
      "ţ": 247,
      "Ť": 248,
      "ť": 249,
      "Ů": 250,
      "ů": 251,
      "Ű": 252,
      "ű": 253,
      "Ź": 254,
      "ź": 255,
      "Ż": 256,
      "ż": 257,
      "Ž": 258,
      "ž": 259,
      "ǫ": 260,
      "ˆ": 261,
      "ˇ": 262,
      "́": 263,
      "̃": 264,
      "̄": 265,
      "̆": 266,
      "̇": 267,
      "̈": 268,
      "̊": 269,
      "̋": 270,
      "̧": 271,
      "̨": 272,
      "̸": 273,
      "Γ": 274,
      "Δ": 275,
      "Θ": 276,
      "Λ": 277,
      "Σ": 278,
      "Φ": 279,
      "Ω": 280,
      "ά": 281,
      "έ": 282,
      "ή": 283,
      "ί": 284,
      "α": 285,
      "β": 286,
      "γ": 287,
      "δ": 288,
      "ε": 289,
      "ζ": 290,
      "η": 291,
      "θ": 292,
      "ι": 293,
      "κ": 294,
      "λ": 295,
      "μ": 296,
      "ν": 297,
      "ξ": 298,
      "ο": 299,
      "π": 300,
      "ρ": 301,
      "ς": 302,
      "σ": 303,
      "τ": 304,
      "υ": 305,
      "φ": 306,
      "χ": 307,
      "ψ": 308,
      "ω": 309,
      "ϊ": 310,
      "ό": 311,
      "ύ": 312,
      "І": 313,
      "А": 314,
      "Б": 315,
      "В": 316,
      "Г": 317,
      "Д": 318,
      "Е": 319,
      "Ж": 320,
      "З": 321,
      "И": 322,
      "Й": 323,
      "К": 324,
      "Л": 325,
      "М": 326,
      "Н": 327,
      "О": 328,
      "П": 329,
      "Р": 330,
      "С": 331,
      "Т": 332,
      "У": 333,
      "Ф": 334,
      "Х": 335,
      "Ц": 336,
      "Ч": 337,
      "Ш": 338,
      "Э": 339,
      "Ю": 340,
      "Я": 341,
      "а": 342,
      "б": 343,
      "в": 344,
      "г": 345,
      "д": 346,
      "е": 347,
      "ж": 348,
      "з": 349,
      "и": 350,
      "й": 351,
      "к": 352,
      "л": 353,
      "м": 354,
      "н": 355,
      "о": 356,
      "п": 357,
      "р": 358,
      "с": 359,
      "т": 360,
      "у": 361,
      "ф": 362,
      "х": 363,
      "ц": 364,
      "ч": 365,
      "ш": 366,
      "щ": 367,
      "ъ": 368,
      "ы": 369,
      "ь": 370,
      "э": 371,
      "ю": 372,
      "я": 373,
      "ѐ": 374,
      "ё": 375,
      "ђ": 376,
      "є": 377,
      "і": 378,
      "ї": 379,
      "ј": 380,
      "љ": 381,
      "њ": 382,
      "ћ": 383,
      "ќ": 384,
      "ў": 385,
      "џ": 386,
      "٭": 387,
      "ἀ": 388,
      "ἐ": 389,
      "ὐ": 390,
      "ὰ": 391,
      "ὶ": 392,
      "ὸ": 393,
      "ῖ": 394,
      "ῶ": 395,
      "‐": 396,
      "–": 397,
      "—": 398,
      "―": 399,
      "‘": 400,
      "’": 401,
      "‚": 402,
      "“": 403,
      "”": 404,
      "„": 405,
      "†": 406,
      "‡": 407,
      "•": 408,
      " ": 409,
      "‰": 410,
      "′": 411,
      "‹": 412,
      "›": 413,
      "⁄": 414,
      "€": 415,
      "↑": 416,
      "→": 417,
      "⇒": 418,
      "⇔": 419,
      "∀": 420,
      "∂": 421,
      "∅": 422,
      "∆": 423,
      "∈": 424,
      "∑": 425,
      "−": 426,
      "∗": 427,
      "√": 428,
      "∞": 429,
      "∢": 430,
      "∥": 431,
      "∧": 432,
      "∩": 433,
      "∪": 434,
      "∫": 435,
      "∼": 436,
      "≈": 437,
      "≠": 438,
      "≡": 439,
      "≤": 440,
      "≥": 441,
      "⊆": 442,
      "⊕": 443,
      "⊗": 444,
      "⊥": 445,
      "⋅": 446,
      "─": 447,
      "▁": 448,
      "▪": 449,
      "◊": 450,
      "●": 451,
      "◦": 452,
      "♥": 453,
      "♦": 454,
      "⟨": 455,
      "⟩": 456,
      "": 457,
      "": 458,
      "": 459,
      "": 460,
      "": 461,
      "": 462,
      "": 463,
      "": 464,
      "": 465,
      "": 466,
      "": 467,
      "": 468,
      "": 469,
      "": 470,
      "": 471,
      "": 472,
      "": 473,
      "": 474,
      "": 475,
      "": 476,
      "": 477,
      "": 478,
      "": 479,
      "": 480,
      "": 481,
      "": 482,
      "": 483,
      "": 484,
      "": 485,
      "": 486,
      "": 487,
      "": 488,
      "": 489,
      "": 490,
      "": 491,
      "": 492,
      "": 493,
      "": 494,
      "": 495,
      "": 496,
      "": 497,
      "": 498,
      "﻿": 499,
      "�": 500,
      "▁s": 501,
      "\\n": 502,
      "▁p": 503,
      "▁n": 504,
      "▁v": 505,
      "▁a": 506,
      "ov": 507,
      "al": 508,
      "ch": 509,
      "to": 510,
      "ie": 511,
      "▁z": 512,
      "▁m": 513,
      "en": 514,
      "st": 515,
      "▁k": 516,
      "▁pr": 517,
      "▁o": 518,
      "▁d": 519,
      "om": 520,
      "la": 521,
      "▁t": 522,
      "▁sa": 523,
      "ra": 524,
      "ho": 525,
      "▁po": 526,
      "ed": 527,
      "▁na": 528,
      "ne": 529,
      "\\n\\n": 530,
      "ko": 531,
      "ia": 532,
      "▁b": 533,
      "▁j": 534,
      "ro": 535,
      "li": 536,
      "▁ne": 537,
      "le": 538,
      "re": 539,
      "te": 540,
      "an": 541,
      "lo": 542,
      "in": 543,
      "vo": 544,
      "že": 545,
      "▁za": 546,
      "▁do": 547,
      "▁to": 548,
      "il": 549,
      "@@": 550,
      "ak": 551,
      "▁je": 552,
      "▁u": 553,
      "no": 554,
      "er": 555,
      "▁č": 556,
      "mi": 557,
      "..": 558,
      "de": 559,
      "ri": 560,
      "rá": 561,
      "sk": 562,
      "▁vy": 563,
      "po": 564,
      "ce": 565,
      ".\\n": 566,
      "me": 567,
      "ti": 568,
      "ci": 569,
      "▁h": 570,
      "ni": 571,
      "ka": 572,
      "va": 573,
      "▁že": 574,
      "na": 575,
      "▁si": 576,
      "ých": 577,
      "▁st": 578,
      "▁P": 579,
      "ej": 580,
      "bo": 581,
      "▁i": 582,
      "ku": 583,
      "▁pre": 584,
      "ala": 585,
      "▁„": 586,
      "et": 587,
      "ali": 588,
      "▁ro": 589,
      "▁A": 590,
      "ru": 591,
      "▁od": 592,
      "▁bo": 593,
      "▁som": 594,
      "ať": 595,
      "tor": 596,
      "ky": 597,
      "né": 598,
      "**": 599,
      "by": 600,
      "je": 601,
      "ar": 602,
      "av": 603,
      "▁N": 604,
      "▁ako": 605,
      "▁pri": 606,
      "▁S": 607,
      "▁ho": 608,
      "ad": 609,
      "▁V": 610,
      "sť": 611,
      "▁ch": 612,
      "ým": 613,
      "aj": 614,
      "or": 615,
      "▁M": 616,
      "sti": 617,
      "@@@@": 618,
      "ob": 619,
      ".\\n\\n": 620,
      "▁ob": 621,
      "ná": 622,
      "at": 623,
      "▁š": 624,
      "u,": 625,
      "ím": 626,
      "▁by": 627,
      "▁ktor": 628,
      "lá": 629,
      "od": 630,
      ".“": 631,
      "▁T": 632,
      "ud": 633,
      "on": 634,
      "▁-": 635,
      "▁mu": 636,
      "▁tak": 637,
      "▁ve": 638,
      "▁nie": 639,
      "ži": 640,
      "ve": 641,
      "▁ná": 642,
      "as": 643,
      "ck": 644,
      "ol": 645,
      "▁B": 646,
      "▁ale": 647,
      "▁K": 648,
      "am": 649,
      "##": 650,
      "▁sp": 651,
      "ný": 652,
      "▁1": 653,
      "ní": 654,
      "▁roz": 655,
      "ou": 656,
      "▁(": 657,
      "▁čo": 658,
      "▁pod": 659,
      "či": 660,
      "▁mo": 661,
      "lov": 662,
      "vi": 663,
      "eď": 664,
      "nej": 665,
      "len": 666,
      "nu": 667,
      "--": 668,
      "kov": 669,
      "ého": 670,
      "mu": 671,
      "▁ú": 672,
      "a,": 673,
      "rov": 674,
      "raz": 675,
      "▁pred": 676,
      "ny": 677,
      "▁e": 678,
      "▁vš": 679,
      "▁ni": 680,
      "▁J": 681,
      "▁f": 682,
      "uje": 683,
      "▁aj": 684,
      "lad": 685,
      "▁zá": 686,
      "oved": 687,
      "▁te": 688,
      "šie": 689,
      "▁D": 690,
      "jú": 691,
      "voj": 692,
      "▁_": 693,
      "si": 694,
      "el": 695,
      "tom": 696,
      "▁H": 697,
      "ba": 698,
      "tá": 699,
      "sl": 700,
      "ľa": 701,
      "y,": 702,
      "alo": 703,
      "pi": 704,
      "be": 705,
      "di": 706,
      "▁prí": 707,
      "▁C": 708,
      "▁Z": 709,
      "▁ce": 710,
      "▁jed": 711,
      "u.": 712,
      "▁jej": 713,
      "\\n„": 714,
      "ká": 715,
      "▁vo": 716,
      "rie": 717,
      "▁in": 718,
      "mo": 719,
      "▁se": 720,
      "nú": 721,
      "▁vý": 722,
      "▁mi": 723,
      "▁R": 724,
      "vá": 725,
      "▁O": 726,
      "men": 727,
      "▁aby": 728,
      "▁sú": 729,
      "vy": 730,
      "ta": 731,
      "\\r": 732,
      "pe": 733,
      "dy": 734,
      "▁poz": 735,
      "lu": 736,
      "▁le": 737,
      "▁L": 738,
      "▁ko": 739,
      "pr": 740,
      "ám": 741,
      "ca": 742,
      "ťa": 743,
      "tu": 744,
      "@@@@@@@@": 745,
      "▁keď": 746,
      "zi": 747,
      "▁2": 748,
      "sa": 749,
      "?“": 750,
      "sto": 751,
      "▁ž": 752,
      "▁c": 753,
      "▁už": 754,
      "▁vz": 755,
      "se": 756,
      "ry": 757,
      "▁svoj": 758,
      "....": 759,
      "▁no": 760,
      "▁pro": 761,
      "oval": 762,
      "▁–": 763,
      "kom": 764,
      "▁spo": 765,
      "\\r\\n": 766,
      "▁jeho": 767,
      "ovan": 768,
      "▁poved": 769,
      "▁ich": 770,
      "▁ju": 771,
      "rad": 772,
      "▁ka": 773,
      "▁ma": 774,
      "▁de": 775,
      "ty": 776,
      "▁zo": 777,
      "▁Po": 778,
      "kon": 779,
      "...": 780,
      "ved": 781,
      "mie": 782,
      "▁re": 783,
      "ude": 784,
      "dz": 785,
      "▁ak": 786,
      "sta": 787,
      "ál": 788,
      "▁všet": 789,
      "enie": 790,
      "hol": 791,
      "teľ": 792,
      "▁len": 793,
      "čo": 794,
      "▁I": 795,
      "▁bol": 796,
      "▁r": 797,
      "my": 798,
      "ovať": 799,
      "m,": 800,
      "ných": 801,
      "_\\n": 802,
      "hod": 803,
      "▁Ne": 804,
      "ť,": 805,
      "ovi": 806,
      "bi": 807,
      "šte": 808,
      "nosti": 809,
      "▁sme": 810,
      "klad": 811,
      "▁hla": 812,
      "tí": 813,
      "▁naj": 814,
      "▁prá": 815,
      "val": 816,
      "iad": 817,
      "ke": 818,
      "▁ru": 819,
      "vet": 820,
      "ok": 821,
      "cho": 822,
      "▁veľ": 823,
      "vie": 824,
      ",“": 825,
      "▁sk": 826,
      "cie": 827,
      "lie": 828,
      "▁so": 829,
      "du": 830,
      "ví": 831,
      "ného": 832,
      "▁op": 833,
      "▁kon": 834,
      "▁be": 835,
      "nov": 836,
      "stav": 837,
      "▁kto": 838,
      "ajú": 839,
      "▁má": 840,
      "nosť": 841,
      ".\\n„": 842,
      "▁E": 843,
      "ma": 844,
      "▁g": 845,
      "ený": 846,
      "ší": 847,
      "####": 848,
      "▁ja": 849,
      "oz": 850,
      "hla": 851,
      "▁ktoré": 852,
      "ujú": 853,
      "▁ani": 854,
      "ši": 855,
      "da": 856,
      "tov": 857,
      "čí": 858,
      "▁G": 859,
      "▁ste": 860,
      "cov": 861,
      "ly": 862,
      "▁ktorý": 863,
      "nom": 864,
      ".\"": 865,
      ".“\\n": 866,
      "us": 867,
      "▁tu": 868,
      "▁alebo": 869,
      "▁nej": 870,
      "lí": 871,
      "ňa": 872,
      "za": 873,
      "la,": 874,
      "up": 875,
      "ran": 876,
      "ver": 877,
      "▁pom": 878,
      "chá": 879,
      "ené": 880,
      "ze": 881,
      "▁ved": 882,
      "sob": 883,
      "▁Na": 884,
      "▁mal": 885,
      "▁F": 886,
      "▁mie": 887,
      "pra": 888,
      "▁pá": 889,
      "ôže": 890,
      "red": 891,
      "▁ľ": 892,
      "ste": 893,
      "▁my": 894,
      "anie": 895,
      "tia": 896,
      "▁ži": 897,
      "cia": 898,
      "▁bude": 899,
      "vr": 900,
      "hov": 901,
      "sia": 902,
      "ani": 903,
      ",\\n": 904,
      "enia": 905,
      "▁vi": 906,
      "ená": 907,
      "▁ešte": 908,
      "▁či": 909,
      "ul": 910,
      "ek": 911,
      "▁cel": 912,
      "til": 913,
      "▁vá": 914,
      "hu": 915,
      "hy": 916,
      "ene": 917,
      "-\\n\\n": 918,
      "tvo": 919,
      "vý": 920,
      "ja": 921,
      ".“\\n„": 922,
      "žd": 923,
      "▁bez": 924,
      "mer": 925,
      "rej": 926,
      "sko": 927,
      "▁zd": 928,
      "­\\n": 929,
      "ľad": 930,
      "▁ti": 931,
      "▁stra": 932,
      "▁U": 933,
      "▁nem": 934,
      "rob": 935,
      "pad": 936,
      "he": 937,
      "▁bolo": 938,
      "▁vla": 939,
      "▁ten": 940,
      "▁sto": 941,
      "ur": 942,
      "zna": 943,
      "▁ned": 944,
      "ne,": 945,
      "▁bola": 946,
      "rom": 947,
      "▁me": 948,
      "▁nad": 949,
      "ďal": 950,
      "al,": 951,
      "▁dob": 952,
      "í,": 953,
      "▁čas": 954,
      "sled": 955,
      "▁19": 956,
      "pa": 957,
      "ter": 958,
      "ть": 959,
      "▁dom": 960,
      "pre": 961,
      "nie": 962,
      "šiel": 963,
      "sky": 964,
      "▁však": 965,
      "▁pov": 966,
      "ch,": 967,
      "▁tom": 968,
      "**\\n": 969,
      "ha": 970,
      "▁dru": 971,
      "@@@@@@@@@@@@@@@@": 972,
      "▁•": 973,
      "tre": 974,
      "še": 975,
      "ier": 976,
      "▁slov": 977,
      "čia": 978,
      "nd": 979,
      "ným": 980,
      "sí": 981,
      "▁ň": 982,
      "zd": 983,
      "ist": 984,
      "00": 985,
      "chu": 986,
      "tr": 987,
      "toč": 988,
      "▁chce": 989,
      "▁3": 990,
      "Ne": 991,
      "\\n\\n**": 992,
      "▁pra": 993,
      "........": 994,
      "▁med": 995,
      "ová": 996,
      "edy": 997,
      "chod": 998,
      "ými": 999,
      "▁vys": 1000,
      "té": 1001,
      "chádz": 1002,
      "▁Č": 1003,
      "▁Ale": 1004,
      "nou": 1005,
      "ensk": 1006,
      "▁Bo": 1007,
      "ráv": 1008,
      "▁pok": 1009,
      "rí": 1010,
      "roz": 1011,
      "ť.": 1012,
      "is": 1013,
      "del": 1014,
      "▁poh": 1015,
      "▁krá": 1016,
      "pu": 1017,
      "▁tam": 1018,
      "▁prav": 1019,
      "▁povedal": 1020,
      "iac": 1021,
      "ča": 1022,
      "▁potom": 1023,
      "kol": 1024,
      "▁ďal": 1025,
      "áv": 1026,
      "▁iba": 1027,
      "k,": 1028,
      "▁boli": 1029,
      "▁nebo": 1030,
      "▁hod": 1031,
      "▁W": 1032,
      "ng": 1033,
      "▁dô": 1034,
      "-\\n": 1035,
      "áva": 1036,
      "▁Je": 1037,
      "▁toho": 1038,
      "raj": 1039,
      "om,": 1040,
      "spo": 1041,
      "it": 1042,
      "il,": 1043,
      "ýt": 1044,
      "▁tie": 1045,
      "▁až": 1046,
      "\\n\\n\\n": 1047,
      "▁~": 1048,
      "----": 1049,
      "rel": 1050,
      "▁sa,": 1051,
      "do": 1052,
      "li,": 1053,
      "ky,": 1054,
      "rú": 1055,
      "sp": 1056,
      "zy": 1057,
      "▁vie": 1058,
      "▁poč": 1059,
      "▁**": 1060,
      "kou": 1061,
      "bu": 1062,
      "▁die": 1063,
      "mi,": 1064,
      "▁nič": 1065,
      "ár": 1066,
      "žno": 1067,
      "▁ra": 1068,
      "sle": 1069,
      "ova": 1070,
      "▁nepo": 1071,
      "iny": 1072,
      "la.": 1073,
      "gi": 1074,
      "ku,": 1075,
      "tick": 1076,
      "▁ťa": 1077,
      "\\n\\n„": 1078,
      "zá": 1079,
      "ží": 1080,
      "ne.": 1081,
      "lú": 1082,
      "tú": 1083,
      "te,": 1084,
      "▁zač": 1085,
      "ení": 1086,
      "tie": 1087,
      "▁ľud": 1088,
      "poved": 1089,
      "▁druh": 1090,
      "um": 1091,
      "ina": 1092,
      "▁pa": 1093,
      "ovali": 1094,
      "▁Pre": 1095,
      "**\\n**": 1096,
      "▁kde": 1097,
      "ovala": 1098,
      "stup": 1099,
      "ís": 1100,
      "▁živo": 1101,
      "ria": 1102,
      "pri": 1103,
      "ich": 1104,
      "▁.": 1105,
      "▁preto": 1106,
      "▁to,": 1107,
      "▁veľmi": 1108,
      "kto": 1109,
      "em": 1110,
      "▁rá": 1111,
      "!“": 1112,
      "▁vlast": 1113,
      "?\"": 1114,
      "▁tým": 1115,
      "l.": 1116,
      "-----\\n\\n": 1117,
      "▁nech": 1118,
      "es": 1119,
      "loč": 1120,
      "▁jedno": 1121,
      "sy": 1122,
      "ania": 1123,
      "vä": 1124,
      "▁li": 1125,
      "t,": 1126,
      "ktor": 1127,
      "vu": 1128,
      "rd": 1129,
      "_\\n_": 1130,
      "chy": 1131,
      "vod": 1132,
      "▁sta": 1133,
      "▁ost": 1134,
      "čil": 1135,
      "pl": 1136,
      "▁sy": 1137,
      "▁hov": 1138,
      "uj": 1139,
      "▁niečo": 1140,
      "ka,": 1141,
      "stvo": 1142,
      "hli": 1143,
      "fi": 1144,
      "▁byť": 1145,
      "tra": 1146,
      ".\"\\n": 1147,
      "▁tvá": 1148,
      "im": 1149,
      "######": 1150,
      "k.": 1151,
      "▁os": 1152,
      "ách": 1153,
      "št": 1154,
      "ín": 1155,
      "lia": 1156,
      "▁sku": 1157,
      "koľ": 1158,
      "▁ok": 1159,
      "sil": 1160,
      "▁chví": 1161,
      "tý": 1162,
      "eda": 1163,
      "▁medzi": 1164,
      "rod": 1165,
      "▁môže": 1166,
      "ub": 1167,
      "▁lebo": 1168,
      "▁kom": 1169,
      "▁ktorá": 1170,
      "iť": 1171,
      "▁To": 1172,
      "ent": 1173,
      "koj": 1174,
      "▁nez": 1175,
      "▁au": 1176,
      "▁п": 1177,
      "),": 1178,
      "Po": 1179,
      "▁dl": 1180,
      "ký": 1181,
      "ôsob": 1182,
      "▁tre": 1183,
      "ena": 1184,
      "▁Keď": 1185,
      "eby": 1186,
      "mi.": 1187,
      "al.": 1188,
      "ie,": 1189,
      "ov,": 1190,
      "▁ku": 1191,
      "rž": 1192,
      "▁svet": 1193,
      "▁\"": 1194,
      "▁pla": 1195,
      "šet": 1196,
      "▁lo": 1197,
      "ст": 1198,
      "▁teraz": 1199,
      "▁stá": 1200,
      "zer": 1201,
      "▁nov": 1202,
      "▁tej": 1203,
      "má": 1204,
      "▁tr": 1205,
      "kaz": 1206,
      "▁pe": 1207,
      "äť": 1208,
      "▁Ch": 1209,
      "▁„A": 1210,
      "cí": 1211,
      "ili": 1212,
      "om.": 1213,
      "nes": 1214,
      "▁vám": 1215,
      "▁rov": 1216,
      "ím,": 1217,
      "▁—": 1218,
      "▁dve": 1219,
      "inu": 1220,
      "pá": 1221,
      "ku.": 1222,
      "eno": 1223,
      "▁vás": 1224,
      "▁im": 1225,
      "ať,": 1226,
      "tív": 1227,
      "▁pria": 1228,
      "die": 1229,
      "▁všetko": 1230,
      "nych": 1231,
      "▁muž": 1232,
      "▁ist": 1233,
      "cu": 1234,
      "▁ci": 1235,
      "ky.": 1236,
      "skej": 1237,
      "é,": 1238,
      "▁4": 1239,
      "▁každ": 1240,
      "tvor": 1241,
      "▁tro": 1242,
      "sla": 1243,
      "▁ex": 1244,
      "Na": 1245,
      "če": 1246,
      "▁prie": 1247,
      "van": 1248,
      "káz": 1249,
      "_\\n\\n": 1250,
      "for": 1251,
      "▁[": 1252,
      "kdy": 1253,
      "ôj": 1254,
      "pla": 1255,
      "y.": 1256,
      "t.": 1257,
      "ôr": 1258,
      "To": 1259,
      "▁tú": 1260,
      "žil": 1261,
      "riad": 1262,
      "▁spoloč": 1263,
      "rav": 1264,
      "eni": 1265,
      "sku": 1266,
      "▁viac": 1267,
      ").": 1268,
      "ska": 1269,
      "ch.": 1270,
      "▁zb": 1271,
      "tila": 1272,
      "led": 1273,
      "prí": 1274,
      "▁Vy": 1275,
      "▁di": 1276,
      "ľu": 1277,
      "▁Mo": 1278,
      "▁pres": 1279,
      "▁star": 1280,
      "▁Za": 1281,
      "sel": 1282,
      "lo,": 1283,
      "so": 1284,
      "ala,": 1285,
      "čer": 1286,
      "▁ur": 1287,
      "ila": 1288,
      "?“\\n„": 1289,
      "mr": 1290,
      "▁va": 1291,
      "á,": 1292,
      "▁la": 1293,
      "▁vrá": 1294,
      "▁člov": 1295,
      "kla": 1296,
      "m.": 1297,
      "vom": 1298,
      "▁ča": 1299,
      "stí": 1300,
      "\\na": 1301,
      "ber": 1302,
      "núť": 1303,
      "vať": 1304,
      "▁voj": 1305,
      "dob": 1306,
      "ia,": 1307,
      "▁dva": 1308,
      "ník": 1309,
      "me,": 1310,
      "▁dost": 1311,
      "▁rad": 1312,
      "▁ty": 1313,
      "▁vä": 1314,
      "treb": 1315,
      "ždy": 1316,
      "▁oči": 1317,
      "cky": 1318,
      "s,": 1319,
      "\\nv": 1320,
      "▁vod": 1321,
      "▁kr": 1322,
      "ale": 1323,
      "l,": 1324,
      "ing": 1325,
      "án": 1326,
      "hnu": 1327,
      "▁du": 1328,
      "rg": 1329,
      "▁pou": 1330,
      "**\\n\\n": 1331,
      "▁ze": 1332,
      "ovej": 1333,
      "▁]": 1334,
      "rý": 1335,
      "\\n\\n\\n-----\\n\\n": 1336,
      "ké": 1337,
      "▁nich": 1338,
      "zn": 1339,
      "▁5": 1340,
      "e": 1341,
      "čne": 1342,
      "▁bud": 1343,
      "su": 1344,
      "▁Š": 1345,
      "▁spýt": 1346,
      "kých": 1347,
      "▁sed": 1348,
      "r.": 1349,
      "vali": 1350,
      "lé": 1351,
      "šli": 1352,
      "vol": 1353,
      "cha": 1354,
      "▁с": 1355,
      "stú": 1356,
      "zo": 1357,
      "pro": 1358,
      "šej": 1359,
      "▁mno": 1360,
      "né,": 1361,
      "id": 1362,
      "▁Pri": 1363,
      "zná": 1364,
      "lád": 1365,
      "▁ov": 1366,
      "▁chla": 1367,
      "▁Ma": 1368,
      "tne": 1369,
      "▁oko": 1370,
      "ý,": 1371,
      "▁kým": 1372,
      "▁vô": 1373,
      "▁vyh": 1374,
      "prá": 1375,
      "Pre": 1376,
      "▁poli": 1377,
      "▁on": 1378,
      "▁nejak": 1379,
      "\\npo": 1380,
      "▁hovor": 1381,
      "▁nás": 1382,
      "▁nemo": 1383,
      "voje": 1384,
      "\\ns": 1385,
      "pom": 1386,
      "▁Ak": 1387,
      "▁proti": 1388,
      "▁teda": 1389,
      "un": 1390,
      "vé": 1391,
      "?“\\n": 1392,
      "rač": 1393,
      "čas": 1394,
      "\\r\\n„": 1395,
      "stred": 1396,
      "▁nám": 1397,
      "\\n_": 1398,
      "ten": 1399,
      "▁raz": 1400,
      "▁nevy": 1401,
      "▁в": 1402,
      "bud": 1403,
      "ov.": 1404,
      "▁akoby": 1405,
      "lom": 1406,
      "ské": 1407,
      "▁rozhod": 1408,
      "ré": 1409,
      "pred": 1410,
      "▁kapi": 1411,
      "▁tá": 1412,
      "cké": 1413,
      "▁Tak": 1414,
      "uš": 1415,
      "▁Har": 1416,
      "bec": 1417,
      "neho": 1418,
      "kami": 1419,
      "▁min": 1420,
      "▁dobre": 1421,
      "ský": 1422,
      "s.": 1423,
      "sad": 1424,
      "▁ním": 1425,
      "▁Do": 1426,
      "ón": 1427,
      "ust": 1428,
      "ša": 1429,
      "prav": 1430,
      "▁keby": 1431,
      "▁nes": 1432,
      "šla": 1433,
      "▁tri": 1434,
      "▁si,": 1435,
      ".\\n\\n-": 1436,
      "tro": 1437,
      "ни": 1438,
      "▁rých": 1439,
      "▁možno": 1440,
      "ka.": 1441,
      "▁oh": 1442,
      "@@@@@@@@@@@@@@@@@@@@@@@@@@@@@@@@": 1443,
      "▁než": 1444,
      "ge": 1445,
      "▁man": 1446,
      ".\\n\\n„": 1447,
      "▁ide": 1448,
      "iaľ": 1449,
      "▁nikdy": 1450,
      "▁Ja": 1451,
      "nil": 1452,
      "на": 1453,
      "▁cez": 1454,
      "▁w": 1455,
      "▁nap": 1456,
      "jav": 1457,
      "▁tých": 1458,
      "š,": 1459,
      "▁mala": 1460,
      "no,": 1461,
      "▁mňa": 1462,
      "▁stre": 1463,
      "▁práve": 1464,
      "úd": 1465,
      "man": 1466,
      "sol": 1467,
      "▁No": 1468,
      "robi": 1469,
      "gra": 1470,
      "▁p.": 1471,
      "kú": 1472,
      "▁„V": 1473,
      "vid": 1474,
      "lo.": 1475,
      "stva": 1476,
      "ovanie": 1477,
      "och": 1478,
      "ven": 1479,
      "▁znov": 1480,
      "ori": 1481,
      "rát": 1482,
      "vedom": 1483,
      "leži": 1484,
      "ec": 1485,
      "▁Mar": 1486,
      "cii": 1487,
      "▁vra": 1488,
      "op": 1489,
      "................": 1490,
      "smi": 1491,
      "▁sil": 1492,
      "namen": 1493,
      "bou": 1494,
      "▁„M": 1495,
      "lič": 1496,
      "ciu": 1497,
      "▁mali": 1498,
      "||": 1499,
      "ozaj": 1500,
      "▁podľa": 1501,
      "chop": 1502,
      "bor": 1503,
      "zor": 1504,
      "ané": 1505,
      "rať": 1506,
      "li.": 1507,
      "čin": 1508,
      "ral": 1509,
      "▁lá": 1510,
      "0,": 1511,
      "and": 1512,
      "Tak": 1513,
      "▁chod": 1514,
      "▁6": 1515,
      "ovo": 1516,
      "▁št": 1517,
      "▁celkom": 1518,
      "▁musí": 1519,
      "▁seba": 1520,
      "ga": 1521,
      "▁kú": 1522,
      "▁ta": 1523,
      "▁pohľad": 1524,
      "táz": 1525,
      "▁zah": 1526,
      "▁strá": 1527,
      "jem": 1528,
      "sať": 1529,
      "peč": 1530,
      "ost": 1531,
      "▁vyd": 1532,
      "ové": 1533,
      "ala.": 1534,
      "▁osob": 1535,
      "neď": 1536,
      "jak": 1537,
      "bez": 1538,
      "ci,": 1539,
      "roj": 1540,
      "▁svoje": 1541,
      "▁moj": 1542,
      "▁vždy": 1543,
      "com": 1544,
      "Čo": 1545,
      "rat": 1546,
      "í.": 1547,
      "tok": 1548,
      "vajú": 1549,
      "pis": 1550,
      "enej": 1551,
      "ра": 1552,
      "▁Nie": 1553,
      ".:": 1554,
      "rch": 1555,
      "ených": 1556,
      "▁pán": 1557,
      "nými": 1558,
      "▁väč": 1559,
      "tým": 1560,
      "tej": 1561,
      "ňho": 1562,
      "▁nev": 1563,
      "▁cest": 1564,
      "▁žen": 1565,
      "▁ver": 1566,
      "▁Ni": 1567,
      "▁správ": 1568,
      "▁kam": 1569,
      "ského": 1570,
      "ujem": 1571,
      "▁s.": 1572,
      "ut": 1573,
      "▁zi": 1574,
      "но": 1575,
      "▁predstav": 1576,
      "▁ple": 1577,
      "▁e": 1578,
      "a.": 1579,
      "▁for": 1580,
      "c,": 1581,
      "ske": 1582,
      "▁chy": 1583,
      "▁plá": 1584,
      "▁neho": 1585,
      "▁kri": 1586,
      ".\\nV": 1587,
      "cký": 1588,
      "úš": 1589,
      "▁niekoľ": 1590,
      "▁ot": 1591,
      "iná": 1592,
      "▁asi": 1593,
      "▁pozor": 1594,
      "ien": 1595,
      "▁spôsob": 1596,
      "▁Od": 1597,
      "▁neb": 1598,
      "▁skutoč": 1599,
      "▁ba": 1600,
      "spe": 1601,
      "▁Ako": 1602,
      "lej": 1603,
      "mä": 1604,
      "▁jeden": 1605,
      "▁per": 1606,
      "stra": 1607,
      "19": 1608,
      "eli": 1609,
      "▁tele": 1610,
      "den": 1611,
      "▁kraj": 1612,
      "▁prv": 1613,
      "šia": 1614,
      "▁tejto": 1615,
      "\\nz": 1616,
      "ľah": 1617,
      "▁dlh": 1618,
      ".\\r\\n": 1619,
      "čka": 1620,
      "▁mysl": 1621,
      "▁slu": 1622,
      "kým": 1623,
      "níkov": 1624,
      "vou": 1625,
      "▁čer": 1626,
      "pov": 1627,
      "dol": 1628,
      "lep": 1629,
      "▁Le": 1630,
      "▁okolo": 1631,
      "▁mohol": 1632,
      "▁l": 1633,
      "▁prek": 1634,
      "ieť": 1635,
      "nik": 1636,
      "nost": 1637,
      "livo": 1638,
      "▁ktorí": 1639,
      "ilo": 1640,
      "oh": 1641,
      "▁ud": 1642,
      "sť,": 1643,
      "tiť": 1644,
      "tla": 1645,
      "▁tento": 1646,
      "už": 1647,
      "▁hlav": 1648,
      "▁mlad": 1649,
      "▁spom": 1650,
      "▁potreb": 1651,
      "nak": 1652,
      "ried": 1653,
      "nal": 1654,
      "▁mož": 1655,
      "▁také": 1656,
      "▁štá": 1657,
      "sah": 1658,
      "▁Te": 1659,
      "▁deň": 1660,
      "▁„P": 1661,
      "ril": 1662,
      "ckej": 1663,
      "ali,": 1664,
      "▁Slov": 1665,
      "vala": 1666,
      "▁spolu": 1667,
      "ln": 1668,
      "ot": 1669,
      "▁oz": 1670,
      "čiť": 1671,
      "▁nemu": 1672,
      "na,": 1673,
      "\\nna": 1674,
      "py": 1675,
      "▁čak": 1676,
      "▁všetky": 1677,
      "▁zmen": 1678,
      "ťast": 1679,
      "kt": 1680,
      "▁Čo": 1681,
      "▁otáz": 1682,
      "▁podob": 1683,
      "▁Potom": 1684,
      "▁chlap": 1685,
      "▁miest": 1686,
      "▁ktorú": 1687,
      "ны": 1688,
      "▁hlas": 1689,
      "ce,": 1690,
      "▁posled": 1691,
      "▁roku": 1692,
      "▁org": 1693,
      "▁rokov": 1694,
      "znam": 1695,
      "▁„N": 1696,
      "zí": 1697,
      "▁Ka": 1698,
      "▁kni": 1699,
      "os": 1700,
      "iel": 1701,
      "▁pracov": 1702,
      "▁zvy": 1703,
      "▁к": 1704,
      "cich": 1705,
      "▁Pod": 1706,
      "re,": 1707,
      "há": 1708,
      "▁smr": 1709,
      "bli": 1710,
      "stal": 1711,
      "▁of": 1712,
      "via": 1713,
      "ine": 1714,
      "▁zlo": 1715,
      "▁jazy": 1716,
      "▁stav": 1717,
      "rne": 1718,
      "▁tomu": 1719,
      "nejšie": 1720,
      "▁cí": 1721,
      "ľú": 1722,
      "▁20": 1723,
      "rem": 1724,
      "stre": 1725,
      "▁Ž": 1726,
      "▁vôbec": 1727,
      "▁môj": 1728,
      "ou,": 1729,
      "tli": 1730,
      "dej": 1731,
      "▁boj": 1732,
      "zu": 1733,
      "▁pos": 1734,
      "▁hoci": 1735,
      "ов": 1736,
      "mý": 1737,
      ".“\\n\\n„": 1738,
      "rak": 1739,
      "út": 1740,
      "▁stále": 1741,
      "▁svoju": 1742,
      "▁mat": 1743,
      "oc": 1744,
      "mest": 1745,
      "čila": 1746,
      "▁neu": 1747,
      "▁von": 1748,
      "Je": 1749,
      "”\\n\\n": 1750,
      "ir": 1751,
      "bí": 1752,
      "ských": 1753,
      "▁pô": 1754,
      "ciál": 1755,
      "▁rod": 1756,
      "jed": 1757,
      "▁tý": 1758,
      "ra,": 1759,
      "▁budú": 1760,
      "ších": 1761,
      "▁mať": 1762,
      "▁sám": 1763,
      "▁postav": 1764,
      "▁1.": 1765,
      "▁7": 1766,
      "▁In": 1767,
      "niť": 1768,
      "▁svojej": 1769,
      "▁dokon": 1770,
      "▁prob": 1771,
      "▁manže": 1772,
      "▁ostat": 1773,
      "▁prečo": 1774,
      "aní": 1775,
      "kal": 1776,
      "▁ťaž": 1777,
      "▁200": 1778,
      "tedy": 1779,
      "▁о": 1780,
      "?\\n\\n": 1781,
      "▁diev": 1782,
      "rb": 1783,
      "▁spýtal": 1784,
      "▁pl": 1785,
      "rou": 1786,
      "▁som,": 1787,
      "i,": 1788,
      "Ă­": 1789,
      "▁su": 1790,
      "alo,": 1791,
      "?\\n": 1792,
      "leč": 1793,
      "▁urči": 1794,
      "▁Harry": 1795,
      "ou.": 1796,
      "aný": 1797,
      "▁život": 1798,
      "ému": 1799,
      "▁zv": 1800,
      "▁ňu": 1801,
      "ný,": 1802,
      "▁hľad": 1803,
      "▁polo": 1804,
      "rela": 1805,
      ".“\\n\\n": 1806,
      "▁svojho": 1807,
      "hovor": 1808,
      "?\"\\n": 1809,
      "ový": 1810,
      "▁tom,": 1811,
      "ská": 1812,
      "▁par": 1813,
      "ľko": 1814,
      "ád": 1815,
      "▁žiad": 1816,
      ".\\nP": 1817,
      "▁sa.": 1818,
      "klo": 1819,
      "čné": 1820,
      "razu": 1821,
      "▁neza": 1822,
      "ckých": 1823,
      "Keď": 1824,
      "▁8": 1825,
      "il.": 1826,
      "▁iz": 1827,
      "▁takmer": 1828,
      "čaj": 1829,
      "žu": 1830,
      "▁jas": 1831,
      "hor": 1832,
      "▁dvo": 1833,
      "▁napo": 1834,
      "▁samo": 1835,
      "▁the": 1836,
      "2.": 1837,
      "▁ví": 1838,
      "e,": 1839,
      "ať.": 1840,
      "▁„Ne": 1841,
      "▁človek": 1842,
      "▁Ve": 1843,
      "logi": 1844,
      "!\"": 1845,
      "hl": 1846,
      ".,": 1847,
      "ре": 1848,
      "▁vysvet": 1849,
      "▁Len": 1850,
      "▁ktorej": 1851,
      "pade": 1852,
      "▁pretože": 1853,
      "n,": 1854,
      "):": 1855,
      "gu": 1856,
      "el,": 1857,
      "▁povedala": 1858,
      "ič": 1859,
      "▁=": 1860,
      "▁poci": 1861,
      "▁prin": 1862,
      "▁trochu": 1863,
      "až": 1864,
      "▁sebe": 1865,
      "▁naozaj": 1866,
      "▁urobi": 1867,
      "▁večer": 1868,
      "▁ktorých": 1869,
      "isto": 1870,
      "ct": 1871,
      "slov": 1872,
      "▁St": 1873,
      "\\nne": 1874,
      "\\n\\n\\n\\n": 1875,
      "▁toto": 1876,
      "hľad": 1877,
      "▁če": 1878,
      "ab": 1879,
      "ard": 1880,
      "▁Ob": 1881,
      "▁„S": 1882,
      "sme": 1883,
      "▁Bol": 1884,
      "▁poriad": 1885,
      "ším": 1886,
      "▁bie": 1887,
      "Ale": 1888,
      "▁všetkých": 1889,
      "▁pi": 1890,
      "tel": 1891,
      "tol": 1892,
      "▁ši": 1893,
      "▁zach": 1894,
      "▁tvr": 1895,
      "žiť": 1896,
      "te.": 1897,
      "sne": 1898,
      "tvori": 1899,
      "zmu": 1900,
      "ie.": 1901,
      "▁rýchlo": 1902,
      "ením": 1903,
      "lil": 1904,
      "▁rie": 1905,
      "tion": 1906,
      "res": 1907,
      "▁nedo": 1908,
      "▁kapitá": 1909,
      "▁pat": 1910,
      "ari": 1911,
      "ca,": 1912,
      "ových": 1913,
      "▁mil": 1914,
      "teri": 1915,
      "stane": 1916,
      "▁9": 1917,
      "▁met": 1918,
      "▁ďalej": 1919,
      "ža": 1920,
      "▁dá": 1921,
      "▁mám": 1922,
      "čky": 1923,
      "tec": 1924,
      "tal": 1925,
      "ль": 1926,
      "▁otvor": 1927,
      "1,": 1928,
      "▁predsa": 1929,
      "úf": 1930,
      "ysl": 1931,
      "▁lep": 1932,
      "▁lie": 1933,
      "▁čin": 1934,
      "▁tak,": 1935,
      "▁2.": 1936,
      "hto": 1937,
      "čal": 1938,
      "▁hodno": 1939,
      "▁nebude": 1940,
      "čný": 1941,
      "-\\r\\n": 1942,
      "r,": 1943,
      "▁ňom": 1944,
      "▁oby": 1945,
      "▁niekoľko": 1946,
      "spoň": 1947,
      "rv": 1948,
      "pil": 1949,
      "ny,": 1950,
      "Ăˇ": 1951,
      "cej": 1952,
      "íš": 1953,
      "ísť": 1954,
      "pol": 1955,
      "amä": 1956,
      "nym": 1957,
      "ruš": 1958,
      "n.": 1959,
      "▁vyb": 1960,
      "▁skú": 1961,
      "v.": 1962,
      "pria": 1963,
      "enú": 1964,
      "▁obrá": 1965,
      "▁Aj": 1966,
      "hyb": 1967,
      "1.": 1968,
      "nosti,": 1969,
      "▁tvoj": 1970,
      "va,": 1971,
      "sím": 1972,
      "▁robi": 1973,
      "les": 1974,
      "le,": 1975,
      "▁zná": 1976,
      "anov": 1977,
      "▁sí": 1978,
      "▁vr": 1979,
      "▁nevie": 1980,
      "dela": 1981,
      "▁zne": 1982,
      "▁naňho": 1983,
      "skôr": 1984,
      "por": 1985,
      "▁kráľ": 1986,
      "▁mod": 1987,
      "▁niekto": 1988,
      "hne": 1989,
      "ela": 1990,
      "▁spoj": 1991,
      "lien": 1992,
      "][": 1993,
      "▁tomto": 1994,
      "stat": 1995,
      "▁vzťa": 1996,
      "vin": 1997,
      "▁hneď": 1998,
      "šlo": 1999,
      "sti,": 2000,
      "aly": 2001,
      "žia": 2002,
      "▁čier": 2003,
      "▁majú": 2004,
      "▁nechce": 2005,
      "▁zí": 2006,
      "▁18": 2007,
      "▁chvíľu": 2008,
      "▁dod": 2009,
      "skom": 2010,
      "rani": 2011,
      "▁ktorého": 2012,
      "re.": 2013,
      "▁znamen": 2014,
      "▁dosť": 2015,
      "ag": 2016,
      "ener": 2017,
      "▁taký": 2018,
      "cú": 2019,
      "tou": 2020,
      "vap": 2021,
      "▁pot": 2022,
      "▁srd": 2023,
      "ren": 2024,
      "iec": 2025,
      "lobo": 2026,
      "žila": 2027,
      "tak": 2028,
      "ysle": 2029,
      "ant": 2030,
      "▁celý": 2031,
      "▁pani": 2032,
      "ko,": 2033,
      "▁ško": 2034,
      "▁svojich": 2035,
      "ёть": 2036,
      "▁pokrač": 2037,
      "▁dnes": 2038,
      "Ch": 2039,
      "▁sla": 2040,
      "▁zab": 2041,
      "▁men": 2042,
      "▁odpoved": 2043,
      "▁á": 2044,
      "▁Jed": 2045,
      "per": 2046,
      "zne": 2047,
      "▁miesto": 2048,
      "ia.": 2049,
      "tku": 2050,
      "pr.": 2051,
      "▁urob": 2052,
      "▁videl": 2053,
      "koho": 2054,
      "▁problé": 2055,
      "kedy": 2056,
      "lin": 2057,
      "▁An": 2058,
      "chádza": 2059,
      "ok.": 2060,
      "▁náj": 2061,
      "min": 2062,
      "ный": 2063,
      "óg": 2064,
      "▁toho,": 2065,
      "▁pokoj": 2066,
      "@?": 2067,
      "▁sa\\n": 2068,
      "íme": 2069,
      "▁chcel": 2070,
      "▁hl": 2071,
      "▁Mal": 2072,
      "tky": 2073,
      "ка": 2074,
      "▁Ten": 2075,
      "▁ňou": 2076,
      "▁][": 2077,
      "▁hr": 2078,
      "▁maj": 2079,
      "ig": 2080,
      "▁kol": 2081,
      "liš": 2082,
      "▁jedin": 2083,
      "▁nemôže": 2084,
      "ckého": 2085,
      "▁hor": 2086,
      "son": 2087,
      "▁prípad": 2088,
      "▁tohto": 2089,
      "▁skôr": 2090,
      "ce.": 2091,
      "Za": 2092,
      "práv": 2093,
      "▁člove": 2094,
      "mien": 2095,
      "__": 2096,
      "▁nijak": 2097,
      "▁al": 2098,
      "▁prej": 2099,
      "ро": 2100,
      "tiaľ": 2101,
      "bezpeč": 2102,
      "na.": 2103,
      "hal": 2104,
      "▁,": 2105,
      "šľ": 2106,
      "▁bý": 2107,
      "meň": 2108,
      "oval,": 2109,
      "▁nepre": 2110,
      "ém": 2111,
      "ply": 2112,
      "lne": 2113,
      "koch": 2114,
      "vádz": 2115,
      "▁čosi": 2116,
      "▁sko": 2117,
      "čak": 2118,
      "rejme": 2119,
      "▁pek": 2120,
      "▁dlho": 2121,
      "▁kro": 2122,
      "ty,": 2123,
      "▁priateľ": 2124,
      "▁prid": 2125,
      ".\\nA": 2126,
      "▁dy": 2127,
      "▁skon": 2128,
      "▁odvet": 2129,
      "co": 2130,
      "▁nemá": 2131,
      "▁lí": 2132,
      "th": 2133,
      "ním": 2134,
      "▁ry": 2135,
      "▁zak": 2136,
      "▁prípade": 2137,
      "ned": 2138,
      "▁Be": 2139,
      "radi": 2140,
      "▁д": 2141,
      "cé": 2142,
      "▁-a": 2143,
      "2,": 2144,
      "▁nimi": 2145,
      "tili": 2146,
      "mysle": 2147,
      "▁pol": 2148,
      "▁vid": 2149,
      "vne": 2150,
      "▁mô": 2151,
      "dsať": 2152,
      "▁ruky": 2153,
      "▁šty": 2154,
      "▁zad": 2155,
      "koľve": 2156,
      "▁vyj": 2157,
      "▁neved": 2158,
      "duch": 2159,
      "sch": 2160,
      "▁nebol": 2161,
      "rati": 2162,
      "▁smer": 2163,
      "▁auto": 2164,
      "▁pozrel": 2165,
      ".\\nS": 2166,
      "odpoved": 2167,
      "ci.": 2168,
      "au": 2169,
      "▁taj": 2170,
      "kázal": 2171,
      "sem": 2172,
      "slo": 2173,
      "10": 2174,
      "▁mohli": 2175,
      "né.": 2176,
      "▁kan": 2177,
      "šom": 2178,
      "▁hru": 2179,
      "uk": 2180,
      "▁vyzer": 2181,
      "ra.": 2182,
      "ovi,": 2183,
      "▁treba": 2184,
      "▁sem": 2185,
      "▁dal": 2186,
      "▁kedy": 2187,
      "▁začal": 2188,
      "▁infor": 2189,
      "▁list": 2190,
      "cká": 2191,
      "▁tvo": 2192,
      "go": 2193,
      "▁organi": 2194,
      "poklad": 2195,
      "▁úpl": 2196,
      "jek": 2197,
      "▁zamest": 2198,
      "▁skup": 2199,
      "gen": 2200,
      "▁niektor": 2201,
      ",\"": 2202,
      "▁tiež": 2203,
      "▁zla": 2204,
      "▁по": 2205,
      "žne": 2206,
      "čom": 2207,
      "nia": 2208,
      "sli": 2209,
      "за": 2210,
      "▁blí": 2211,
      "ráž": 2212,
      "▁manžel": 2213,
      "▁prvý": 2214,
      "Áno,": 2215,
      "ujím": 2216,
      "▁obla": 2217,
      "šk": 2218,
      "unk": 2219,
      "úr": 2220,
      "▁na\\n": 2221,
      "nika": 2222,
      "▁chrb": 2223,
      "kej": 2224,
      "▁aspoň": 2225,
      "▁uvedom": 2226,
      "▁Už": 2227,
      "her": 2228,
      "▁še": 2229,
      "ovať,": 2230,
      "▁cen": 2231,
      ".\\n\"": 2232,
      "nan": 2233,
      "▁zav": 2234,
      ".\\n\\n\\n": 2235,
      "uz": 2236,
      "▁všetci": 2237,
      "▁Roz": 2238,
      "med": 2239,
      "sťou": 2240,
      "▁presved": 2241,
      "ína": 2242,
      "▁iné": 2243,
      "de,": 2244,
      "▁„D": 2245,
      "▁Ho": 2246,
      "▁zm": 2247,
      "▁al.": 2248,
      "не": 2249,
      "▁pravd": 2250,
      "tiahol": 2251,
      "kam": 2252,
      ".\\n\\n–": 2253,
      "▁sprá": 2254,
      "by,": 2255,
      "stúpi": 2256,
      "ceho": 2257,
      "▁vyk": 2258,
      "▁mŕ": 2259,
      "enie,": 2260,
      "▁dver": 2261,
      "▁Ra": 2262,
      "▁stred": 2263,
      "▁„T": 2264,
      "▁De": 2265,
      "▁och": 2266,
      "álne": 2267,
      "stá": 2268,
      "▁Pred": 2269,
      "pä": 2270,
      "ic": 2271,
      "▁nebolo": 2272,
      "▁poste": 2273,
      "▁staro": 2274,
      "▁10": 2275,
      "▁Pe": 2276,
      "\\nd": 2277,
      "▁znova": 2278,
      "20": 2279,
      "deli": 2280,
      "3,": 2281,
      "Bo": 2282,
      "те": 2283,
      "pat": 2284,
      "▁zdvi": 2285,
      "3.": 2286,
      "▁fak": 2287,
      "zem": 2288,
      "mysl": 2289,
      "▁obo": 2290,
      "▁myš": 2291,
      "znač": 2292,
      "nosť,": 2293,
      "stoj": 2294,
      "chyb": 2295,
      "ťaž": 2296,
      "▁nav": 2297,
      "chol": 2298,
      "▁Ro": 2299,
      "riek": 2300,
      "mysel": 2301,
      "▁obchod": 2302,
      "rove": 2303,
      "▁Re": 2304,
      "▁př": 2305,
      "▁každý": 2306,
      "ся": 2307,
      ".\\nM": 2308,
      "čili": 2309,
      "▁Vo": 2310,
      "ované": 2311,
      "▁sna": 2312,
      "sť.": 2313,
      "ali.": 2314,
      "▁vnú": 2315,
      "▁doz": 2316,
      "▁“": 2317,
      "poč": 2318,
      "▁pozná": 2319,
      "▁veľa": 2320,
      "▁Fran": 2321,
      "OV": 2322,
      "▁naz": 2323,
      "▁ľah": 2324,
      "ри": 2325,
      "▁ona": 2326,
      "▁výraz": 2327,
      "tu,": 2328,
      "▁drž": 2329,
      "tin": 2330,
      "▁zost": 2331,
      "▁Všet": 2332,
      ",\\n\\n": 2333,
      "nako": 2334,
      "ta,": 2335,
      "▁schop": 2336,
      "▁kone": 2337,
      "ovania": 2338,
      "18": 2339,
      "▁dáv": 2340,
      "stu": 2341,
      "hat": 2342,
      "▁rád": 2343,
      "ďak": 2344,
      "zni": 2345,
      "▁situ": 2346,
      "fe": 2347,
      "gy": 2348,
      "▁spra": 2349,
      "▁pís": 2350,
      "▁Me": 2351,
      "skú": 2352,
      "▁": 2353,
      "▁sve": 2354,
      "eného": 2355,
      "zol": 2356,
      "▁hovori": 2357,
      "ruk": 2358,
      "ami": 2359,
      "Nie": 2360,
      "II": 2361,
      "väč": 2362,
      "▁mysle": 2363,
      "žiad": 2364,
      "▁sch": 2365,
      "▁dvere": 2366,
      "▁bole": 2367,
      "▁ruku": 2368,
      "▁mne": 2369,
      "c.": 2370,
      "áš": 2371,
      "\\no": 2372,
      "rodz": 2373,
      "|\\n": 2374,
      "▁väčš": 2375,
      "ва": 2376,
      "fa": 2377,
      "▁vidie": 2378,
      "▁Chce": 2379,
      "šiu": 2380,
      "**\\n\\n**": 2381,
      "ск": 2382,
      "tali": 2383,
      "▁vre": 2384,
      "▁sled": 2385,
      "”\\n\\n“": 2386,
      "то": 2387,
      "▁šťast": 2388,
      "mýšľ": 2389,
      "▁199": 2390,
      "▁zem": 2391,
      "▁člen": 2392,
      "uď": 2393,
      "15": 2394,
      "▁zh": 2395,
      "Ja": 2396,
      "chádzajú": 2397,
      "▁dej": 2398,
      "nok": 2399,
      "▁posl": 2400,
      "▁на": 2401,
      "▁bi": 2402,
      "iem": 2403,
      "▁použí": 2404,
      "▁tvár": 2405,
      "@@@@@@@@@@@@@@@@@@@@@@@@@@@@@@@@@@@@@@@@@@@@@@@@@@@@@@@@@@@@@@@@": 2406,
      "▁dov": 2407,
      "ýb": 2408,
      "hlo": 2409,
      "tri": 2410,
      "le.": 2411,
      "▁Ko": 2412,
      "\\nsa": 2413,
      "uje,": 2414,
      "▁Slovensk": 2415,
      "▁týchto": 2416,
      "▁brá": 2417,
      "Ä›": 2418,
      "\\nk": 2419,
      "ako": 2420,
      "nos": 2421,
      "4,": 2422,
      "▁pu": 2423,
      "▁základ": 2424,
      ".\\n\\nV": 2425,
      "lož": 2426,
      "desia": 2427,
      "▁cie": 2428,
      "▁prij": 2429,
      "ná,": 2430,
      "stom": 2431,
      "▁najmä": 2432,
      "▁hlad": 2433,
      "pie": 2434,
      "▁м": 2435,
      "cen": 2436,
      "▁sebou": 2437,
      "▁postup": 2438,
      "▁nikto": 2439,
      "▁prišiel": 2440,
      "▁penia": 2441,
      "▁opäť": 2442,
      "▁15": 2443,
      "podob": 2444,
      "ně": 2445,
      "ti,": 2446,
      "lovi": 2447,
      "▁tým,": 2448,
      "ove": 2449,
      "ron": 2450,
      "važ": 2451,
      ":\\n\\n": 2452,
      "nosti.": 2453,
      "▁služ": 2454,
      "bil": 2455,
      "nutie": 2456,
      "poj": 2457,
      "▁nevi": 2458,
      "fer": 2459,
      "tých": 2460,
      "‡ть": 2461,
      "stia": 2462,
      "▁vyu": 2463,
      ":\\n": 2464,
      "▁an": 2465,
      ".\\n–": 2466,
      "▁proce": 2467,
      "▁objav": 2468,
      "níka": 2469,
      "▁prac": 2470,
      "...“": 2471,
      "▁„To": 2472,
      "mov": 2473,
      "bie": 2474,
      "▁str": 2475,
      "▁pomoc": 2476,
      "▁odvetil": 2477,
      "▁otec": 2478,
      "▁vet": 2479,
      "▁lepšie": 2480,
      "▁vše": 2481,
      "▁cha": 2482,
      "príklad": 2483,
      "pod": 2484,
      "ujúci": 2485,
      "níci": 2486,
      "▁odi": 2487,
      "ke,": 2488,
      "rajú": 2489,
      "▁vých": 2490,
      "žili": 2491,
      "tvá": 2492,
      "▁dra": 2493,
      "4.": 2494,
      "qu": 2495,
      "koľvek": 2496,
      "ovaný": 2497,
      "hrad": 2498,
      "Od": 2499,
      "sti.": 2500,
      "bá": 2501,
      "▁tieto": 2502,
      "čnej": 2503,
      "▁usmi": 2504,
      "▁Nech": 2505,
      "vej": 2506,
      "aná": 2507,
      "dla": 2508,
      "zda": 2509,
      "▁muse": 2510,
      "pokoj": 2511,
      "▁moc": 2512,
      "▁šk": 2513,
      "▁det": 2514,
      "ster": 2515,
      "ležito": 2516,
      "▁druhej": 2517,
      "▁obraz": 2518,
      "▁hlavu": 2519,
      "че": 2520,
      "▁mesia": 2521,
      "▁и": 2522,
      "▁tra": 2523,
      "▁ktorom": 2524,
      "dem": 2525,
      "▁bá": 2526,
      "ana": 2527,
      "pust": 2528,
      "▁úlo": 2529,
      "rila": 2530,
      "vých": 2531,
      "▁da": 2532,
      "▁far": 2533,
      "▁exist": 2534,
      "▁obe": 2535,
      "▁tvrd": 2536,
      "▁ísť": 2537,
      "17": 2538,
      "▁predtým": 2539,
      "▁ad": 2540,
      "▁and": 2541,
      "▁aké": 2542,
      "▁vede": 2543,
      "▁krí": 2544,
      "oná": 2545,
      "i.": 2546,
      "▁aký": 2547,
      "telia": 2548,
      "▁Jeho": 2549,
      "▁rok": 2550,
      "▁nepri": 2551,
      "▁vysok": 2552,
      "▁nasled": 2553,
      "nila": 2554,
      "\\nvy": 2555,
      "▁kla": 2556,
      "_\\n\\n_": 2557,
      "ba,": 2558,
      "▁uz": 2559,
      "▁preto,": 2560,
      "íte": 2561,
      "▁plo": 2562,
      "tná": 2563,
      "▁prez": 2564,
      "6,": 2565,
      "▁získ": 2566,
      "pal": 2567,
      "▁meno": 2568,
      "▁mohla": 2569,
      "▁zvie": 2570,
      "▁Bolo": 2571,
      "kého": 2572,
      "▁takže": 2573,
      "▁Možno": 2574,
      "▁ab": 2575,
      "▁syst": 2576,
      "lč": 2577,
      "▁dievč": 2578,
      "kom,": 2579,
      "ró": 2580,
      "▁musel": 2581,
      "udz": 2582,
      "▁päť": 2583,
      "▁Bola": 2584,
      "rab": 2585,
      "▁zob": 2586,
      "▁ľudia": 2587,
      "▁vyhlá": 2588,
      "prv": 2589,
      "č.": 2590,
      "ty.": 2591,
      "bra": 2592,
      "▁kre": 2593,
      "obec": 2594,
      "stried": 2595,
      "▁Pro": 2596,
      "liť": 2597,
      "me.": 2598,
      "▁žia": 2599,
      "cie,": 2600,
      "ние": 2601,
      "▁význam": 2602,
      "▁ticho": 2603,
      "11": 2604,
      "▁žena": 2605,
      "▁ar": 2606,
      "ovú": 2607,
      "der": 2608,
      "▁takto": 2609,
      "ovalo": 2610,
      "hu,": 2611,
      "nému": 2612,
      "▁znovu": 2613,
      "ený,": 2614,
      "▁situá": 2615,
      "▁zam": 2616,
      "во": 2617,
      "pli": 2618,
      "cou": 2619,
      "sty": 2620,
      "▁us": 2621,
      "e.": 2622,
      "ru,": 2623,
      "▁čí": 2624,
      "kov,": 2625,
      "▁ľudí": 2626,
      "o,": 2627,
      "▁často": 2628,
      "▁vlastne": 2629,
      "knu": 2630,
      "caj": 2631,
      "dá": 2632,
      "▁Naj": 2633,
      "▁funk": 2634,
      "▁myšlien": 2635,
      "▁Vie": 2636,
      "▁strom": 2637,
      "▁Teraz": 2638,
      "ple": 2639,
      "teľa": 2640,
      "▁Sam": 2641,
      "▁dokonca": 2642,
      "stie": 2643,
      "▁der": 2644,
      "volal": 2645,
      "▁ded": 2646,
      "\\n######": 2647,
      "▁pôsob": 2648,
      "▁dvoch": 2649,
      "▁hľa": 2650,
      "ľmi": 2651,
      "▁rú": 2652,
      "čku": 2653,
      "▁ri": 2654,
      "xi": 2655,
      "▁pár": 2656,
      "▁pal": 2657,
      "▁pä": 2658,
      "rin": 2659,
      "▁mnoh": 2660,
      "▁0": 2661,
      "▁17": 2662,
      "▁Preto": 2663,
      "▁namie": 2664,
      "že,": 2665,
      "ta.": 2666,
      "skoro": 2667,
      "▁Al": 2668,
      "depodob": 2669,
      "▁úsme": 2670,
      "▁/": 2671,
      "▁inter": 2672,
      "\\n\\ns": 2673,
      "▁čia": 2674,
      "▁„K": 2675,
      "no.": 2676,
      "▁oča": 2677,
      "roveň": 2678,
      "uró": 2679,
      "▁Ú": 2680,
      "TM": 2681,
      ".\\n\\nP": 2682,
      "▁priký": 2683,
      "▁vl": 2684,
      "...\"": 2685,
      "\t„": 2686,
      "chov": 2687,
      "?“\\n\\n„": 2688,
      "▁komu": 2689,
      "▁Se": 2690,
      "▁množ": 2691,
      "wa": 2692,
      "ло": 2693,
      "iteľ": 2694,
      "▁slú": 2695,
      "valo": 2696,
      "▁Jo": 2697,
      "ca.": 2698,
      "▁tvári": 2699,
      "▁Mus": 2700,
      "▁telef": 2701,
      "de.": 2702,
      "nať": 2703,
      "diť": 2704,
      "▁_~": 2705,
      "▁Nem": 2706,
      "▁priprav": 2707,
      "▁veci": 2708,
      "kár": 2709,
      "kala": 2710,
      "▁bra": 2711,
      "hou": 2712,
      "hr": 2713,
      "▁pohyb": 2714,
      "vateľ": 2715,
      "▁strane": 2716,
      "▁Lu": 2717,
      "ratisla": 2718,
      "▁den": 2719,
      "▁počas": 2720,
      "had": 2721,
      "▁pob": 2722,
      "zko": 2723,
      "▁lež": 2724,
      "ji": 2725,
      "▁storo": 2726,
      "á.": 2727,
      "vot": 2728,
      "rov.": 2729,
      "\\n**": 2730,
      "lou": 2731,
      "▁vyš": 2732,
      "ment": 2733,
      "▁dcé": 2734,
      "▁mŕt": 2735,
      "▁б": 2736,
      "▁Ang": 2737,
      "▁túto": 2738,
      ".\\nZ": 2739,
      "mí": 2740,
      "Vy": 2741,
      "diel": 2742,
      "ýva": 2743,
      "mav": 2744,
      "▁chvíli": 2745,
      "ore": 2746,
      "▁Vi": 2747,
      "▁obdob": 2748,
      "▁napokon": 2749,
      "▁vtedy": 2750,
      "▁robo": 2751,
      "▁pad": 2752,
      "▁čís": 2753,
      "!“\\n": 2754,
      "▁dre": 2755,
      ".\\n\\n\\n-----\\n\\n": 2756,
      "▁schod": 2757,
      "▁mi,": 2758,
      "enými": 2759,
      "\\n\\n_": 2760,
      "ovaní": 2761,
      "rili": 2762,
      "mati": 2763,
      "▁súd": 2764,
      ".\\nK": 2765,
      "ňuje": 2766,
      ".\"\\n\"": 2767,
      "▁chlad": 2768,
      "žad": 2769,
      "\\nm": 2770,
      "................................": 2771,
      "▁práv": 2772,
      "ted": 2773,
      "Ĺľ": 2774,
      "▁úplne": 2775,
      "▁Y": 2776,
      "5,": 2777,
      "▁voľ": 2778,
      "▁opat": 2779,
      "▁Ani": 2780,
      "▁zdra": 2781,
      "rieť": 2782,
      "▁tla": 2783,
      "▁peniaze": 2784,
      "▁kul": 2785,
      "▁cho": 2786,
      "enu": 2787,
      "▁fa": 2788,
      "ли": 2789,
      "▁prostred": 2790,
      "cť": 2791,
      "▁jednej": 2792,
      "▁neod": 2793,
      "eným": 2794,
      "▁nemal": 2795,
      "▁hore": 2796,
      "Ako": 2797,
      "▁nepria": 2798,
      "\\n\\nv": 2799,
      "▁Tu": 2800,
      "▁náš": 2801,
      "12": 2802,
      "h,": 2803,
      "▁Zá": 2804,
      "ny.": 2805,
      "hom": 2806,
      "úto": 2807,
      "tívne": 2808,
      "am,": 2809,
      "vanie": 2810,
      "šieho": 2811,
      "▁vyjad": 2812,
      "lek": 2813,
      "ian": 2814,
      "▁strie": 2815,
      "▁neskôr": 2816,
      "▁národ": 2817,
      "iny,": 2818,
      "p.": 2819,
      "čných": 2820,
      "▁poču": 2821,
      "▁Mat": 2822,
      "▁nená": 2823,
      "▁náv": 2824,
      "▁stalo": 2825,
      "▁trest": 2826,
      "▁druhý": 2827,
      "síc": 2828,
      "▁povedal,": 2829,
      "▁rô": 2830,
      "\\r\\n\\r\\n": 2831,
      "cií": 2832,
      "pí": 2833,
      "▁uli": 2834,
      "▁vyz": 2835,
      "▁obrov": 2836,
      "▁najlep": 2837,
      "▁v": 2838,
      "lan": 2839,
      "▁prekvap": 2840,
      "ry,": 2841,
      "ond": 2842,
      "▁dôleži": 2843,
      "▁šat": 2844,
      "▁dr": 2845,
      "▁súvi": 2846,
      ".\\nD": 2847,
      "▁:": 2848,
      "!\\n\\n": 2849,
      "▁rodi": 2850,
      "16": 2851,
      "▁Her": 2852,
      "▁budem": 2853,
      "▁okrem": 2854,
      "▁-y": 2855,
      "ávajú": 2856,
      "▁nor": 2857,
      "tické": 2858,
      "▁zaujím": 2859,
      "šti": 2860,
      "las": 2861,
      "▁mä": 2862,
      "▁hrd": 2863,
      "▁stál": 2864,
      "▁jednotli": 2865,
      "dli": 2866,
      "▁rovnako": 2867,
      "cka": 2868,
      "▁verej": 2869,
      "▁určite": 2870,
      "▁zjav": 2871,
      "▁jedného": 2872,
      "▁nena": 2873,
      "▁povin": 2874,
      "eri": 2875,
      "▁psy": 2876,
      "by.": 2877,
      "hlas": 2878,
      "avi": 2879,
      "▁zmi": 2880,
      "ен": 2881,
      "▁vzá": 2882,
      "ke.": 2883,
      "▁mieste": 2884,
      "13": 2885,
      "▁celé": 2886,
      "čie": 2887,
      "▁zastav": 2888,
      "tný": 2889,
      "▁váš": 2890,
      "naj": 2891,
      "dov": 2892,
      "šu": 2893,
      "eko": 2894,
      "bož": 2895,
      "▁zop": 2896,
      "▁časť": 2897,
      "8,": 2898,
      "▁zvlá": 2899,
      "▁mnou": 2900,
      "▁slobo": 2901,
      "▁zaj": 2902,
      "▁vyko": 2903,
      "▁zast": 2904,
      "▁pripom": 2905,
      "poveď": 2906,
      "▁Pra": 2907,
      "istori": 2908,
      "▁dostal": 2909,
      "zrel": 2910,
      "▁Ar": 2911,
      "hi": 2912,
      "▁La": 2913,
      "ového": 2914,
      "▁за": 2915,
      "pís": 2916,
      "aním": 2917,
      "vaj": 2918,
      "väz": 2919,
      "▁štyri": 2920,
      "▁prejav": 2921,
      "stve": 2922,
      "ností": 2923,
      "▁hlbo": 2924,
      "moc": 2925,
      "ex": 2926,
      "bú": 2927,
      "kať": 2928,
      "cúz": 2929,
      "14": 2930,
      "ger": 2931,
      "slen": 2932,
      "ujem,": 2933,
      "tať": 2934,
      "▁zú": 2935,
      "bol": 2936,
      "▁neprí": 2937,
      "7,": 2938,
      "9,": 2939,
      "▁trá": 2940,
      "tého": 2941,
      "▁vrátil": 2942,
      "▁pev": 2943,
      "▁rozprá": 2944,
      "▁chrá": 2945,
      "|\\n|": 2946,
      "šie,": 2947,
      "\\n\\npo": 2948,
      "▁pomaly": 2949,
      "▁194": 2950,
      "▁ove": 2951,
      "Ob": 2952,
      "inou": 2953,
      "atí": 2954,
      "skeho": 2955,
      "▁ť": 2956,
      "ónov": 2957,
      "riť": 2958,
      "▁Mi": 2959,
      "▁čase": 2960,
      "``": 2961,
      "ley": 2962,
      "stv": 2963,
      "▁vedie": 2964,
      "▁práce": 2965,
      "ni,": 2966,
      "▁ktorým": 2967,
      "ujeme": 2968,
      "▁a\\n": 2969,
      "▁neo": 2970,
      "tek": 2971,
      "last": 2972,
      "▁predpoklad": 2973,
      "▁nesp": 2974,
      "Len": 2975,
      "▁Ru": 2976,
      "▁bre": 2977,
      "stro": 2978,
      ".\\nT": 2979,
      "▁uk": 2980,
      "tva": 2981,
      "kách": 2982,
      "▁dvoj": 2983,
      "▁noh": 2984,
      "▁informá": 2985,
      "cep": 2986,
      "kde": 2987,
      "tiž": 2988,
      "▁Pa": 2989,
      "▁у": 2990,
      "ologi": 2991,
      ".\\n-": 2992,
      "▁nebola": 2993,
      "▁charak": 2994,
      "viť": 2995,
      "Prečo": 2996,
      "▁zodpoved": 2997,
      "chopi": 2998,
      "▁16": 2999,
      "ňa,": 3000,
      "mu,": 3001,
      "▁zu": 3002,
      "aja": 3003,
      "ovať.": 3004,
      "▁výrob": 3005,
      "▁presne": 3006,
      "▁zbad": 3007,
      "edzi": 3008,
      "▁očí": 3009,
      "▁tex": 3010,
      "_\\n\\n**": 3011,
      "▁Bratisla": 3012,
      "klade": 3013,
      "▁neroz": 3014,
      "ovi.": 3015,
      "▁-u": 3016,
      "stúpil": 3017,
      "▁časti": 3018,
      "▁tva": 3019,
      "delen": 3020,
      "sen": 3021,
      "▁teba": 3022,
      "prostred": 3023,
      "@@?": 3024,
      "▁Keby": 3025,
      "šť": 3026,
      "▁hlavou": 3027,
      "▁slovensk": 3028,
      "rka": 3029,
      "▁mas": 3030,
      "tu.": 3031,
      "▁ţ": 3032,
      "tím": 3033,
      "▁zabi": 3034,
      "fes": 3035,
      "▁nebezpeč": 3036,
      "nili": 3037,
      "▁jednu": 3038,
      "ung": 3039,
      "vola": 3040,
      "aliz": 3041,
      "ла": 3042,
      "▁sociál": 3043,
      "▁nep": 3044,
      "čná": 3045,
      "▁moje": 3046,
      "▁�": 3047,
      "láv": 3048,
      "▁čím": 3049,
      "oto": 3050,
      "čast": 3051,
      "\\np": 3052,
      "lý": 3053,
      "fin": 3054,
      "▁taká": 3055,
      "▁Ba": 3056,
      "▁moja": 3057,
      "▁iných": 3058,
      "▁kor": 3059,
      "kro": 3060,
      "▁ge": 3061,
      "▁zom": 3062,
      "▁dosia": 3063,
      "▁pan": 3064,
      "▁hroz": 3065,
      "d.": 3066,
      "ruh": 3067,
      "▁nielen": 3068,
      "fé": 3069,
      "No": 3070,
      "ducho": 3071,
      "▁vlá": 3072,
      "mom": 3073,
      "▁ban": 3074,
      "krát": 3075,
      "▁noci": 3076,
      "kovi": 3077,
      "ER": 3078,
      "▁He": 3079,
      "cami": 3080,
      "ciou": 3081,
      "▁krás": 3082,
      "го": 3083,
      "▁prázd": 3084,
      "▁táto": 3085,
      "▁predme": 3086,
      "рё": 3087,
      "cke": 3088,
      "mor": 3089,
      "kli": 3090,
      "▁Prečo": 3091,
      "roch": 3092,
      "ĹTM": 3093,
      "▁zbra": 3094,
      "▁12": 3095,
      "▁kráľov": 3096,
      "▁zelen": 3097,
      "ha,": 3098,
      "▁spýtala": 3099,
      "▁začia": 3100,
      "▁rovnak": 3101,
      "▁poklad": 3102,
      "▁vol": 3103,
      "▁povedať": 3104,
      "---": 3105,
      "komu": 3106,
      "zal": 3107,
      "▁zrejme": 3108,
      "▁vedom": 3109,
      "nu.": 3110,
      "yslel": 3111,
      "ris": 3112,
      "▁prostried": 3113,
      "eny": 3114,
      "the": 3115,
      "▁opýt": 3116,
      "skych": 3117,
      "▁dôvod": 3118,
      "sok": 3119,
      "voľ": 3120,
      "▁súčas": 3121,
      "▁chá": 3122,
      "vô": 3123,
      "▁uni": 3124,
      "▁ven": 3125,
      "▁inak": 3126,
      "▁syn": 3127,
      "anú": 3128,
      "ton": 3129,
      "\\n\\nne": 3130,
      "rast": 3131,
      "!\\n": 3132,
      "tál": 3133,
      "▁slovo": 3134,
      "▁stret": 3135,
      "mil": 3136,
      "▁sub": 3137,
      "sluš": 3138,
      "teli": 3139,
      "sie": 3140,
      "va.": 3141,
      "▁sti": 3142,
      "umie": 3143,
      "nejší": 3144,
      "▁povedať,": 3145,
      "ávať": 3146,
      "▁odpo": 3147,
      "▁zabud": 3148,
      "čel": 3149,
      "▁at": 3150,
      "dial": 3151,
      "ang": 3152,
      "tné": 3153,
      "▁tech": 3154,
      "▁sie": 3155,
      "ložil": 3156,
      "▁čud": 3157,
      "blí": 3158,
      "▁domov": 3159,
      "Už": 3160,
      "▁Má": 3161,
      "tiv": 3162,
      "šťast": 3163,
      "▁policaj": 3164,
      "káže": 3165,
      "▁zvu": 3166,
      "kými": 3167,
      "▁otvori": 3168,
      "▁urč": 3169,
      "...“\\n„": 3170,
      "ajte": 3171,
      "vad": 3172,
      "▁sln": 3173,
      "▁čom": 3174,
      "šiť": 3175,
      "▁smie": 3176,
      "▁et": 3177,
      "▁vlád": 3178,
      "beh": 3179,
      "che": 3180,
      "▁pritom": 3181,
      "ával": 3182,
      "­\\n\\n": 3183,
      "▁": 3184,
      "rali": 3185,
      "dych": 3186,
      "kra": 3187,
      "▁Li": 3188,
      "▁svojom": 3189,
      "čov": 3190,
      "č,": 3191,
      "tka": 3192,
      "▁robí": 3193,
      ",": 3194,
      "▁obsah": 3195,
      "▁požiad": 3196,
      "ÄŤ": 3197,
      "▁X": 3198,
      "▁desať": 3199,
      "ff": 3200,
      "▁т": 3201,
      "celá": 3202,
      "▁zákon": 3203,
      "▁Si": 3204,
      "▁tmav": 3205,
      "▁Zd": 3206,
      "по": 3207,
      "▁ter": 3208,
      "▁zist": 3209,
      "AN": 3210,
      "▁ráno": 3211,
      "ruje": 3212,
      "cy": 3213,
      "boj": 3214,
      "||||": 3215,
      "oko": 3216,
      "▁tep": 3217,
      "vyš": 3218,
      "▁podmien": 3219,
      "medz": 3220,
      "ujúce": 3221,
      "ama": 3222,
      "Chce": 3223,
      "kou,": 3224,
      "▁totiž": 3225,
      "Mo": 3226,
      "\\n(": 3227,
      "▁nemohol": 3228,
      "▁„Čo": 3229,
      "nul": 3230,
      "óri": 3231,
      "▁zna": 3232,
      "▁sved": 3233,
      "art": 3234,
      "nymi": 3235,
      "oval.": 3236,
      "▁dla": 3237,
      "\\ndo": 3238,
      ")\\n\\n": 3239,
      "▁poznamen": 3240,
      "▁úst": 3241,
      "stiť": 3242,
      "spod": 3243,
      "▁hlavo": 3244,
      "erá": 3245,
      "ám,": 3246,
      "dila": 3247,
      "fek": 3248,
      "▁„Po": 3249,
      "▁vec": 3250,
      "▁vedľa": 3251,
      "mož": 3252,
      "▁nohy": 3253,
      "▁Ju": 3254,
      "▁3.": 3255,
      "níct": 3256,
      "▁sama": 3257,
      "▁198": 3258,
      "▁Ná": 3259,
      "▁odmie": 3260,
      "gan": 3261,
      "▁slová": 3262,
      "\\npre": 3263,
      "▁deti": 3264,
      "▁politi": 3265,
      "▁zatiaľ": 3266,
      "▁východ": 3267,
      "▁špe": 3268,
      "▁_(": 3269,
      "▁ozná": 3270,
      "▁poš": 3271,
      "▁účin": 3272,
      "aných": 3273,
      "▁niekedy": 3274,
      "▁Ved": 3275,
      "▁ко": 3276,
      "▁nejaký": 3277,
      "ona": 3278,
      "rál": 3279,
      "iť,": 3280,
      "enia,": 3281,
      "sov": 3282,
      "cz": 3283,
      "▁Ge": 3284,
      "ček": 3285,
      "yzi": 3286,
      "enie.": 3287,
      "▁horú": 3288,
      "Pri": 3289,
      "▁týžd": 3290,
      "▁veli": 3291,
      "▁„Ale": 3292,
      "▁oveľa": 3293,
      "rala": 3294,
      "▁priamo": 3295,
      "▁robiť": 3296,
      "▁presvedč": 3297,
      "sila": 3298,
      ".\\nNa": 3299,
      "5.": 3300,
      "▁̋": 3301,
      "▁13": 3302,
      "▁urobiť": 3303,
      "▁posky": 3304,
      ")\\n": 3305,
      "▁výro": 3306,
      "▁pomo": 3307,
      "sz": 3308,
      "▁č.": 3309,
      "ču": 3310,
      "náš": 3311,
      "▁vedel,": 3312,
      "vil": 3313,
      "▁zvo": 3314,
      "plyv": 3315,
      "▁záko": 3316,
      "▁politick": 3317,
      "▁Ľ": 3318,
      "koniec": 3319,
      "▁Ešte": 3320,
      "čú": 3321,
      "▁povie": 3322,
      "▁výsled": 3323,
      "ru.": 3324,
      "avý": 3325,
      "▁sleč": 3326,
      "covi": 3327,
      "\\n\\na": 3328,
      "▁ší": 3329,
      "ho,": 3330,
      "čného": 3331,
      "▁usil": 3332,
      ".\\nPo": 3333,
      "▁Tá": 3334,
      "zmus": 3335,
      "desiat": 3336,
      "▁zase": 3337,
      "▁gu": 3338,
      "▁jedna": 3339,
      "\\nza": 3340,
      "\\n\\nz": 3341,
      "▁pôvod": 3342,
      "▁krát": 3343,
      "▁miesta": 3344,
      "mú": 3345,
      "▁(po": 3346,
      "jí": 3347,
      "skou": 3348,
      "vôli": 3349,
      "▁Poved": 3350,
      "▁chvíľ": 3351,
      "meri": 3352,
      "kiaľ": 3353,
      "▁pamä": 3354,
      "▁veľké": 3355,
      "▁zap": 3356,
      "nice": 3357,
      "cko": 3358,
      "arí": 3359,
      "ný.": 3360,
      "jom": 3361,
      "Ĺˇ": 3362,
      "▁môžu": 3363,
      "▁ozval": 3364,
      "dy.": 3365,
      "strá": 3366,
      "▁„Tak": 3367,
      "vili": 3368,
      "▁máme": 3369,
      "▁pozn": 3370,
      "enom": 3371,
      "arilo": 3372,
      "▁ceste": 3373,
      "▁ústa": 3374,
      "▁všetko,": 3375,
      "▁J.": 3376,
      "▁Veď": 3377,
      "rých": 3378,
      "neš": 3379,
      ".\\n\\n“": 3380,
      "ah": 3381,
      "▁zvlášt": 3382,
      "hodno": 3383,
      "гђ": 3384,
      "▁dňa": 3385,
      "star": 3386,
      "▁pie": 3387,
      "nec": 3388,
      "▁prirodz": 3389,
      "▁svä": 3390,
      "▁niekoho": 3391,
      "stli": 3392,
      "diteľ": 3393,
      "▁je,": 3394,
      "ий": 3395,
      "nosťou": 3396,
      "teraz": 3397,
      "рђ": 3398,
      "▁stô": 3399,
      "▁nechá": 3400,
      "cov,": 3401,
      "číta": 3402,
      "200": 3403,
      "▁hy": 3404,
      "avo": 3405,
      "iny.": 3406,
      "▁Kra": 3407,
      "▁prud": 3408,
      "▁dolu": 3409,
      "▁jem": 3410,
      "gie": 3411,
      ".\\n\\nS": 3412,
      "▁počú": 3413,
      "��": 3414,
      "eb": 3415,
      ".\"\\n\\n": 3416,
      "ле": 3417,
      "cie.": 3418,
      "ovom": 3419,
      "t'": 3420,
      "rid": 3421,
      "čera": 3422,
      "ene,": 3423,
      "▁dia": 3424,
      "kom.": 3425,
      "-_": 3426,
      "tivi": 3427,
      "▁hrad": 3428,
      "▁tajom": 3429,
      "ďa": 3430,
      "kvi": 3431,
      "▁Ha": 3432,
      "▁nád": 3433,
      "▁štvr": 3434,
      "ským": 3435,
      "▁pokú": 3436,
      "▁brat": 3437,
      "▁riad": 3438,
      "▁nah": 3439,
      "▁Tento": 3440,
      "▁sklo": 3441,
      "▁mú": 3442,
      "▁považ": 3443,
      "▁telo": 3444,
      "land": 3445,
      "▁ukáz": 3446,
      "▁ďalšie": 3447,
      "ol,": 3448,
      "som": 3449,
      "vič": 3450,
      "▁Vý": 3451,
      "▁napríklad": 3452,
      "ťah": 3453,
      "nad": 3454,
      "▁Ver": 3455,
      "ко": 3456,
      "▁ďalší": 3457,
      "▁celú": 3458,
      "▁tomu,": 3459,
      "osť": 3460,
      "▁príliš": 3461,
      "▁obrátil": 3462,
      "▁ťažko": 3463,
      "▁14": 3464,
      "▁hne": 3465,
      "▁opak": 3466,
      "▁hu": 3467,
      "\\nS": 3468,
      "leg": 3469,
      "ň,": 3470,
      "bav": 3471,
      "hali": 3472,
      "▁začala": 3473,
      "ní,": 3474,
      "mal": 3475,
      "▁úrad": 3476,
      "▁všeobec": 3477,
      "rilo": 3478,
      "nenie": 3479,
      ".\\nO": 3480,
      "._": 3481,
      "▁bezpeč": 3482,
      "▁pravdepodob": 3483,
      "ráve": 3484,
      "EN": 3485,
      "stroj": 3486,
      "▁u": 3487,
      "▁štud": 3488,
      "▁síce": 3489,
      "▁Wil": 3490,
      "▁nesmie": 3491,
      "yslím,": 3492,
      "▁zmlu": 3493,
      "▁lu": 3494,
      "▁Ca": 3495,
      "čajne": 3496,
      "razil": 3497,
      "nosť.": 3498,
      "▁materi": 3499,
      "@@@": 3500,
      "▁cir": 3501,
      "▁ukaz": 3502,
      "▁poroz": 3503,
      "▁právo": 3504,
      "stou": 3505,
      "▁The": 3506,
      "▁pren": 3507,
      "▁strany": 3508,
      "▁rovno": 3509,
      "rovi": 3510,
      ".\\n\\nA": 3511,
      "ane": 3512,
      "▁naši": 3513,
      "vrá": 3514,
      "▁napís": 3515,
      "▁polí": 3516,
      "▁okol": 3517,
      "▁minu": 3518,
      "▁vzdial": 3519,
      "▁smrti": 3520,
      "▁veď": 3521,
      "▁pia": 3522,
      "▁zvyš": 3523,
      "kaj": 3524,
      "▁štát": 3525,
      "▁života": 3526,
      "▁toľko": 3527,
      "“,": 3528,
      "▁očia": 3529,
      "▁chu": 3530,
      "krem": 3531,
      "▁Sú": 3532,
      "mera": 3533,
      "▁vráti": 3534,
      "▁zrazu": 3535,
      "▁súhla": 3536,
      "stor": 3537,
      "▁193": 3538,
      "čilo": 3539,
      "hle": 3540,
      "dom": 3541,
      "Ă©": 3542,
      "Har": 3543,
      "▁ang": 3544,
      "\\nu": 3545,
      "▁sam": 3546,
      "▁Sa": 3547,
      "▁kancelá": 3548,
      "ená,": 3549,
      "▁zni": 3550,
      "▁ria": 3551,
      "▁„O": 3552,
      "plat": 3553,
      "▁var": 3554,
      "ôjde": 3555,
      "▁prest": 3556,
      "ml": 3557,
      "▁ho,": 3558,
      "▁všim": 3559,
      "▁kontro": 3560,
      "cien": 3561,
      "kajú": 3562,
      "▁konečne": 3563,
      "▁anal": 3564,
      "volá": 3565,
      "da,": 3566,
      "h.": 3567,
      "skutoč": 3568,
      "▁noc": 3569,
      "▁svojím": 3570,
      "▁väz": 3571,
      "▁y": 3572,
      "kamži": 3573,
      "▁stolič": 3574,
      "____": 3575,
      "▁zdvihol": 3576,
      "▁spá": 3577,
      "▁„Z": 3578,
      "úch": 3579,
      "▁oblo": 3580,
      "▁nejaké": 3581,
      "žšie": 3582,
      "▁mor": 3583,
      "▁veľký": 3584,
      "hliad": 3585,
      "rova": 3586,
      ";_": 3587,
      "Le": 3588,
      "▁dok.": 3589,
      "šne": 3590,
      "▁dis": 3591,
      "▁не": 3592,
      "behol": 3593,
      "ené,": 3594,
      "opak": 3595,
      "▁dať": 3596,
      "tár": 3597,
      "kovej": 3598,
      "▁minút": 3599,
      "▁Tie": 3600,
      "nutia": 3601,
      "▁Ron": 3602,
      "-_\\n": 3603,
      "cu,": 3604,
      "▁Kri": 3605,
      "▁zároveň": 3606,
      "▁urobil": 3607,
      "fesor": 3608,
      "▁tí": 3609,
      "I.": 3610,
      "enstvo": 3611,
      "tera": 3612,
      "▁stud": 3613,
      "▁zas": 3614,
      "zli": 3615,
      "▁váž": 3616,
      "kri": 3617,
      "▁náhod": 3618,
      "▁potre": 3619,
      "▁mar": 3620,
      "mál": 3621,
      "---|": 3622,
      "▁bli": 3623,
      "▁spis": 3624,
      "▁Podľa": 3625,
      "▁Ber": 3626,
      "▁skoro": 3627,
      "▁začí": 3628,
      "▁odve": 3629,
      "▁máš": 3630,
      "▁radšej": 3631,
      "▁bohat": 3632,
      "▁uspo": 3633,
      "zra": 3634,
      "kové": 3635,
      "▁pozd": 3636,
      "CH": 3637,
      "tom,": 3638,
      "rn": 3639,
      "▁strán": 3640,
      "▁ženy": 3641,
      "ckú": 3642,
      "▁El": 3643,
      "tala": 3644,
      "▁okami": 3645,
      "▁obj": 3646,
      "▁dostať": 3647,
      "ss": 3648,
      "kov.": 3649,
      "enou": 3650,
      "▁kniž": 3651,
      "▁a\\n\\n": 3652,
      "▁širo": 3653,
      "▁ра": 3654,
      "pas": 3655,
      "▁Dob": 3656,
      "▁vlasy": 3657,
      "▁pomer": 3658,
      "íš,": 3659,
      "ňu": 3660,
      "dili": 3661,
      "▁kultú": 3662,
      "ím.": 3663,
      "▁dozved": 3664,
      "tedy,": 3665,
      "▁rozum": 3666,
      "kali": 3667,
      "teg": 3668,
      "▁poku": 3669,
      ".\\n\\n**": 3670,
      "▁budeme": 3671,
      "b.": 3672,
      "alo.": 3673,
      "inách": 3674,
      "ata": 3675,
      "šou": 3676,
      "▁po­": 3677,
      "osti": 3678,
      "▁vst": 3679,
      "ustil": 3680,
      "▁prítom": 3681,
      "ер": 3682,
      "“.": 3683,
      "▁podpo": 3684,
      "▁histori": 3685,
      "▁smerom": 3686,
      "▁skús": 3687,
      "▁dvaja": 3688,
      "zie": 3689,
      "▁Alex": 3690,
      "▁poľ": 3691,
      "Áno": 3692,
      "lila": 3693,
      "tam": 3694,
      "spodár": 3695,
      "▁preh": 3696,
      "plá": 3697,
      "▁domu": 3698,
      "ržia": 3699,
      "▁bu": 3700,
      "▁dobrý": 3701,
      "chádzal": 3702,
      ".“\\n„A": 3703,
      "▁ener": 3704,
      "v,": 3705,
      "▁hlú": 3706,
      "\\nod": 3707,
      ".\\nN": 3708,
      "▁zisti": 3709,
      "▁cestu": 3710,
      "low": 3711,
      "▁bež": 3712,
      "▁hlave": 3713,
      "nu,": 3714,
      "rútil": 3715,
      "▁sa\\n\\n": 3716,
      "šep": 3717,
      "oru": 3718,
      "▁197": 3719,
      "▁Som": 3720,
      "6.": 3721,
      "ík": 3722,
      "▁menej": 3723,
      "▁gra": 3724,
      "daj": 3725,
      "▁fi": 3726,
      "ckom": 3727,
      "▁„Na": 3728,
      "▁foto": 3729,
      "cal": 3730,
      "íz": 3731,
      "▁som.": 3732,
      "ovia": 3733,
      "▁cieľ": 3734,
      "▁pocit,": 3735,
      "▁začali": 3736,
      "▁kuchy": 3737,
      "imi": 3738,
      "▁kru": 3739,
      "▁'": 3740,
      "rig": 3741,
      "▁udalo": 3742,
      "ticky": 3743,
      "▁príde": 3744,
      "▁mesta": 3745,
      "▁lú": 3746,
      "▁vrch": 3747,
      "▁našiel": 3748,
      "ckým": 3749,
      "vel": 3750,
      "rok": 3751,
      "▁máte": 3752,
      "▁dvadsať": 3753,
      "▁rukou": 3754,
      "▁nové": 3755,
      "núť,": 3756,
      "graf": 3757,
      "vy.": 3758,
      "viaz": 3759,
      "ciach": 3760,
      "▁-i": 3761,
      "est": 3762,
      "gyp": 3763,
      "▁dar": 3764,
      "јние": 3765,
      "▁smrť": 3766,
      "▁svie": 3767,
      "▁tem": 3768,
      "ná.": 3769,
      "▁pravda": 3770,
      "▁podoz": 3771,
      "LA": 3772,
      "▁isté": 3773,
      "▁očami": 3774,
      "tt": 3775,
      "▁očak": 3776,
      "grafi": 3777,
      "cim": 3778,
      "▁prive": 3779,
      "▁sym": 3780,
      "▁navr": 3781,
      "▁bal": 3782,
      "▁Poz": 3783,
      "▁gener": 3784,
      "Dob": 3785,
      "▁chcela": 3786,
      "▁uved": 3787,
      "chom": 3788,
      "▁sl": 3789,
      "▁vody": 3790,
      "ovaná": 3791,
      "▁kvôli": 3792,
      "kový": 3793,
      "▁žal": 3794,
      "▁zmie": 3795,
      "tich": 3796,
      "▁pí": 3797,
      "▁(na": 3798,
      "ovar": 3799,
      "▁vzal": 3800,
      "▁názor": 3801,
      "ovat": 3802,
      "▁pas": 3803,
      "▁spoločnosti": 3804,
      "ďaka": 3805,
      "▁+": 3806,
      "▁iný": 3807,
      "▁dieťa": 3808,
      "▁Joh": 3809,
      "▁počul": 3810,
      ".\\nR": 3811,
      "▁Kon": 3812,
      "avé": 3813,
      "lu,": 3814,
      "▁isto": 3815,
      "tov,": 3816,
      "▁hra": 3817,
      "át": 3818,
      "sieť": 3819,
      "íte,": 3820,
      "krom": 3821,
      "▁minú": 3822,
      "úšť": 3823,
      "▁loď": 3824,
      "▁ч": 3825,
      "▁vyšet": 3826,
      "▁(19": 3827,
      "▁Bude": 3828,
      "eniu": 3829,
      "ára": 3830,
      "enul": 3831,
      "▁hrani": 3832,
      "▁vide": 3833,
      "▁Ď": 3834,
      "omi": 3835,
      "▁und": 3836,
      "▁indi": 3837,
      "▁Jej": 3838,
      "▁vnútor": 3839,
      "▁starý": 3840,
      "▁um": 3841,
      "▁cíti": 3842,
      "▁ruka": 3843,
      "šak": 3844,
      "▁dovo": 3845,
      "ológ": 3846,
      "▁času": 3847,
      "▁Ste": 3848,
      "▁prišli": 3849,
      "▁chud": 3850,
      ".": 3851,
      "▁malo": 3852,
      "▁to.": 3853,
      "▁prod": 3854,
      "▁m.": 3855,
      "▁pomô": 3856,
      "▁So": 3857,
      "ry.": 3858,
      "cia,": 3859,
      "▁ponú": 3860,
      "stri": 3861,
      "▁vhod": 3862,
      "▁„B": 3863,
      "tan": 3864,
      "▁istý": 3865,
      "pec": 3866,
      "\\nob": 3867,
      "▁odpoveď": 3868,
      "káž": 3869,
      "▁závi": 3870,
      "org": 3871,
      "čan": 3872,
      "▁...": 3873,
      "▁ply": 3874,
      "Do": 3875,
      "▁peňa": 3876,
      "iek": 3877,
      "▁„Je": 3878,
      "end": 3879,
      "▁zasa": 3880,
      "▁dok": 3881,
      "zme": 3882,
      "tický": 3883,
      "-_\\n_": 3884,
      "0.": 3885,
      "▁via": 3886,
      "▁musím": 3887,
      "rov,": 3888,
      "▁co": 3889,
      "▁pokračoval": 3890,
      "▁dám": 3891,
      "▁voči": 3892,
      "cent": 3893,
      "mat": 3894,
      "1]": 3895,
      "▁nie,": 3896,
      "ister": 3897,
      "▁kvet": 3898,
      "cel": 3899,
      "publi": 3900,
      "▁prer": 3901,
      "▁napriek": 3902,
      "▁príjem": 3903,
      "▁záuj": 3904,
      ".\\n„A": 3905,
      "▁vidieť": 3906,
      "ST": 3907,
      "▁najväč": 3908,
      "bet": 3909,
      "▁konšt": 3910,
      "▁dievča": 3911,
      "kou.": 3912,
      "Nie,": 3913,
      "taj": 3914,
      "▁potvr": 3915,
      "kré": 3916,
      "▁môžeme": 3917,
      "oby": 3918,
      "▁dí": 3919,
      "▁oblasti": 3920,
      "?”": 3921,
      "?\\n\\n-": 3922,
      "\\npri": 3923,
      "čnú": 3924,
      "én": 3925,
      "uróp": 3926,
      "hu.": 3927,
      "ovala,": 3928,
      "▁použi": 3929,
      "▁%": 3930,
      "▁pochopi": 3931,
      "str": 3932,
      "▁Pr": 3933,
      "pätí": 3934,
      "▁1,": 3935,
      "polud": 3936,
      "ovým": 3937,
      "reb": 3938,
      "siť": 3939,
      "▁Ben": 3940,
      "anie,": 3941,
      "▁pozrela": 3942,
      "lez": 3943,
      "videl": 3944,
      "▁nedok": 3945,
      "to,": 3946,
      ".\\n\\n\t": 3947,
      "▁podarilo": 3948,
      "▁nau": 3949,
      "▁červ": 3950,
      "▁mimo": 3951,
      "sú": 3952,
      "▁rozpráv": 3953,
      "ktoré": 3954,
      "▁zaob": 3955,
      "▁nezá": 3956,
      "šim": 3957,
      "ju": 3958,
      "▁neme": 3959,
      "▁zamie": 3960,
      "zla": 3961,
      "▁dvom": 3962,
      "▁človeka": 3963,
      "[2": 3964,
      "liv": 3965,
      "▁stráž": 3966,
      "bal": 3967,
      "▁ly": 3968,
      "▁cítil": 3969,
      "▁uči": 3970,
      "▁roky": 3971,
      "znamen": 3972,
      "▁domá": 3973,
      "vihol": 3974,
      "ávali": 3975,
      "▁Zo": 3976,
      "▁t.": 3977,
      "stov": 3978,
      "▁skutočnosti": 3979,
      "▁Pom": 3980,
      "▁sne": 3981,
      "val,": 3982,
      "rami": 3983,
      "7.": 3984,
      "rejme,": 3985,
      "\",": 3986,
      "my,": 3987,
      "nech": 3988,
      "špe": 3989,
      "viedol": 3990,
      "dlo": 3991,
      "▁storočia": 3992,
      "▁neob": 3993,
      "▁les": 3994,
      "▁šesť": 3995,
      "▁možné": 3996,
      "\\n\\n######": 3997,
      "▁mu,": 3998,
      "▁tovar": 3999,
      "▁pričom": 4000,
      "▁klo": 4001,
      "inan": 4002,
      "...“\\n": 4003,
      "та": 4004,
      "čala": 4005,
      "▁zamestnan": 4006,
      "stan": 4007,
      "▁posta": 4008,
      "▁And": 4009,
      "a": 4010,
      "!“\\n„": 4011,
      "▁zalo": 4012,
      "▁jednoducho": 4013,
      "níc": 4014,
      "Te": 4015,
      "ej,": 4016,
      "▁neboli": 4017,
      "▁jednoduch": 4018,
      "▁vež": 4019,
      "▁západ": 4020,
      "feren": 4021,
      "ková": 4022,
      "▁úspe": 4023,
      "▁troch": 4024,
      "tiahnu": 4025,
      "▁označ": 4026,
      "▁Ce": 4027,
      "▁rôz": 4028,
      "▁dosta": 4029,
      "vaná": 4030,
      "▁rob": 4031,
      "▁Sta": 4032,
      "pokon": 4033,
      "zeral": 4034,
      "piť": 4035,
      "z,": 4036,
      "▁polovi": 4037,
      "šenie": 4038,
      "▁Toto": 4039,
      "▁odbor": 4040,
      "▁dostane": 4041,
      "▁ume": 4042,
      "ni.": 4043,
      "?\"\\n\"": 4044,
      "▁mili": 4045,
      "adu": 4046,
      "▁najmen": 4047,
      "▁prísluš": 4048,
      "▁dní": 4049,
      "skum": 4050,
      "▁prinie": 4051,
      "▁fyzi": 4052,
      "▁ľuď": 4053,
      "▁„H": 4054,
      "▁konci": 4055,
      "▁Ti": 4056,
      "▁mojej": 4057,
      "▁Kto": 4058,
      "?“\\n\\n": 4059,
      "bili": 4060,
      "▁zved": 4061,
      "▁196": 4062,
      "avy": 4063,
      "▁vzni": 4064,
      "▁Alebo": 4065,
      "▁Prí": 4066,
      ".\\nB": 4067,
      "▁návšte": 4068,
      "bur": 4069,
      "▁ih": 4070,
      "päť": 4071,
      "\\nje": 4072,
      "▁meste": 4073,
      "▁šp": 4074,
      "ord": 4075,
      "nav": 4076,
      "tem": 4077,
      "▁uvaž": 4078,
      "nici": 4079,
      "mu.": 4080,
      "te": 4081,
      "uje.": 4082,
      "▁kar": 4083,
      "▁dôver": 4084,
      "▁nim": 4085,
      "▁ekon": 4086,
      "stvá": 4087,
      "▁vzdu": 4088,
      "▁Ty": 4089,
      "▁vet": 4090,
      "ski": 4091,
      "han": 4092,
      "ol.": 4093,
      "▁Veľ": 4094,
      "▁ďaleko": 4095,
      "▁stro": 4096,
      "▁zviera": 4097,
      "▁papie": 4098,
      "▁mr": 4099,
      "8.": 4100,
      "▁pochop": 4101,
      "ová,": 4102,
      "ти": 4103,
      "hra": 4104,
      "▁kus": 4105,
      "ная": 4106,
      "što": 4107,
      "dal": 4108,
      "▁Bar": 4109,
      "šetkým": 4110,
      ".\\nNe": 4111,
      "▁hlavou.": 4112,
      "rez": 4113,
      "▁ky": 4114,
      "▁náro": 4115,
      "▁základe": 4116,
      "▁trie": 4117,
      "▁zapla": 4118,
      "▁jako": 4119,
      "▁nie.": 4120,
      "jedno": 4121,
      "▁(v": 4122,
      "pusti": 4123,
      "▁zasmi": 4124,
      "kamžite": 4125,
      "▁Každ": 4126,
      "▁odišiel": 4127,
      "▁poko": 4128,
      "▁Prav": 4129,
      "ру": 4130,
      "▁Boli": 4131,
      "▁spoločensk": 4132,
      "ník,": 4133,
      "ód": 4134,
      "\\n\\nna": 4135,
      "lav": 4136,
      "▁množstvo": 4137,
      "▁miestnosti": 4138,
      "▁odpovedal": 4139,
      "▁komuni": 4140,
      "reli": 4141,
      "▁živote": 4142,
      "\\nP": 4143,
      "▁poru": 4144,
      "▁jaz": 4145,
      "▁arch": 4146,
      "▁celej": 4147,
      "▁mohlo": 4148,
      "▁rám": 4149,
      "▁hovorí": 4150,
      "▁túž": 4151,
      "▁pochyb": 4152,
      "točne": 4153,
      ".“„": 4154,
      "▁robot": 4155,
      "▁г": 4156,
      "nica": 4157,
      "▁nepoved": 4158,
      "▁dot": 4159,
      "сть": 4160,
      "▁tou": 4161,
      "▁otvoril": 4162,
      "slu": 4163,
      "ivo": 4164,
      "ôžem": 4165,
      "bude": 4166,
      "chádzali": 4167,
      "▁dohod": 4168,
      "▁fran": 4169,
      "▁vojak": 4170,
      "▁preni": 4171,
      "▁Ad": 4172,
      "▁ma,": 4173,
      "▁vzťah": 4174,
      "▁vysvetľ": 4175,
      "kone": 4176,
      "▁podstat": 4177,
      "vila": 4178,
      "▁bod": 4179,
      "▁akú": 4180,
      "▁prešiel": 4181,
      "▁čoraz": 4182,
      "ume": 4183,
      "tria": 4184,
      "bolo": 4185,
      "ovaných": 4186,
      "Jed": 4187,
      "▁Car": 4188,
      "ubli": 4189,
      "▁zov": 4190,
      "omet": 4191,
      "prac": 4192,
      "ri,": 4193,
      "pen": 4194,
      "▁sever": 4195,
      "▁slab": 4196,
      "▁sedel": 4197,
      "mon": 4198,
      "pozor": 4199,
      "­la": 4200,
      "▁obra": 4201,
      "▁doktor": 4202,
      "000": 4203,
      "▁rozdiel": 4204,
      "▁drob": 4205,
      "nuté": 4206,
      "▁vedel": 4207,
      "▁kop": 4208,
      ".\\n„V": 4209,
      "▁hodín": 4210,
      "▁jak": 4211,
      "▁tváre": 4212,
      "tes": 4213,
      "▁svete": 4214,
      "▁kov": 4215,
      "enia.": 4216,
      "▁sud": 4217,
      "_\\n**": 4218,
      "▁cudz": 4219,
      "▁zlom": 4220,
      "▁ст": 4221,
      "roma": 4222,
      "skup": 4223,
      "▁najprv": 4224,
      "▁I.": 4225,
      "▁ocho": 4226,
      "gar": 4227,
      "▁vraj": 4228,
      "bliž": 4229,
      "ok,": 4230,
      "▁hád": 4231,
      "iu": 4232,
      "тель": 4233,
      "ll": 4234,
      "▁kňa": 4235,
      "asled": 4236,
      "▁Okrem": 4237,
      "▁Cel": 4238,
      "šil": 4239,
      "▁sedem": 4240,
      "nem": 4241,
      "▁nábož": 4242,
      "seli": 4243,
      "▁ká": 4244,
      "rodej": 4245,
      "slosti": 4246,
      "▁nájsť": 4247,
      "ania,": 4248,
      "▁naše": 4249,
      "▁porov": 4250,
      "▁náz": 4251,
      "ene.": 4252,
      "thew": 4253,
      "čul": 4254,
      "ци": 4255,
      "Harry": 4256,
      "iska": 4257,
      "▁dávno": 4258,
      "ick": 4259,
      "lili": 4260,
      "amie": 4261,
      "kach": 4262,
      "▁okraj": 4263,
      "hovori": 4264,
      "▁zvý": 4265,
      "▁spokoj": 4266,
      ".\\n„M": 4267,
      "▁dôsled": 4268,
      "▁systém": 4269,
      "tými": 4270,
      "▁musieť": 4271,
      "znal": 4272,
      "▁vojensk": 4273,
      "▁opatr": 4274,
      "des": 4275,
      ".\\nKeď": 4276,
      "▁stal": 4277,
      "▁územ": 4278,
      "RA": 4279,
      "▁spod": 4280,
      "▁pána": 4281,
      "▁Co": 4282,
      "níkom": 4283,
      "▁hľadel": 4284,
      "▁ke": 4285,
      "▁nerv": 4286,
      "▁ochra": 4287,
      "čite": 4288,
      "▁poch": 4289,
      "▁nevyhnu": 4290,
      "ôž": 4291,
      "▁expr.": 4292,
      "▁A.": 4293,
      "▁Mu": 4294,
      "▁azda": 4295,
      "▁rokoch": 4296,
      "▁organizá": 4297,
      "lik": 4298,
      "▁odtiaľ": 4299,
      "▁Mich": 4300,
      "hnúť": 4301,
      "mes": 4302,
      "zia": 4303,
      ".\\n\\nK": 4304,
      "čnom": 4305,
      "ujúcich": 4306,
      "▁poznám": 4307,
      "eta": 4308,
      "chý": 4309,
      "náh": 4310,
      "ilozo": 4311,
      "be,": 4312,
      "nová": 4313,
      "▁málo": 4314,
      "▁čist": 4315,
      "▁Q": 4316,
      ");": 4317,
      "met": 4318,
      "▁minulo": 4319,
      "tiahla": 4320,
      "ini": 4321,
      "▁от": 4322,
      "je,": 4323,
      "▁Ze": 4324,
      "▁na\\n\\n": 4325,
      "▁blízko": 4326,
      ".\\n\\nM": 4327,
      "▁znak": 4328,
      "▁osud": 4329,
      "ovou": 4330,
      "kan": 4331,
      "\\n\\n-": 4332,
      "rit": 4333,
      "▁napä": 4334,
      "ého,": 4335,
      "▁ukázal": 4336,
      "▁koho": 4337,
      "▁muži": 4338,
      "alie": 4339,
      "▁opa": 4340,
      "▁nevidel": 4341,
      "@@@@@@@@@@@@@@@@@@@@@@@@@@@@@@@@@@@@@@@@@@@@@@@@@@@@@@@@@@@@@@@@@@@@@@@@@@@@@@@@@@@@@@@@@@@@@@@@@@@@@@@@@@@@@@@@@@@@@@@@@@@@@@@@": 4342,
      "▁pozer": 4343,
      "▁mí": 4344,
      "▁skúseno": 4345,
      "▁Ta": 4346,
      "▁sm": 4347,
      "▁dobré": 4348,
      "▁budete": 4349,
      "▁dúf": 4350,
      "▁späť": 4351,
      "prim": 4352,
      "sved": 4353,
      ".\\n\\nZ": 4354,
      "ovšetkým": 4355,
      "ený.": 4356,
      "ph": 4357,
      "▁slova": 4358,
      "bel": 4359,
      ".“\\r\\n„": 4360,
      "▁pravi": 4361,
      "!\"\\n": 4362,
      "sp.": 4363,
      "▁kô": 4364,
      "▁dievčat": 4365,
      "▁môjho": 4366,
      "▁prú": 4367,
      "▁mest": 4368,
      "▁nezná": 4369,
      "▁hro": 4370,
      "ym": 4371,
      "▁New": 4372,
      "▁zlož": 4373,
      "▁patrí": 4374,
      "vať,": 4375,
      "▁zre": 4376,
      "▁absol": 4377,
      "ória": 4378,
      "ila,": 4379,
      "ďte": 4380,
      "IT": 4381,
      "▁vel": 4382,
      "▁„Nie": 4383,
      "ld": 4384,
      "▁príležito": 4385,
      "▁-ia": 4386,
      "▁osem": 4387,
      "▁ute": 4388,
      "▁výš": 4389,
      "▁zvolal": 4390,
      "tnej": 4391,
      "boli": 4392,
      "▁zachrá": 4393,
      "▁hlavy": 4394,
      "▁svojou": 4395,
      "▁bla": 4396,
      "ovateľ": 4397,
      "Roz": 4398,
      "▁ne­": 4399,
      "▁kapito": 4400,
      "▁Iba": 4401,
      "▁nepriateľ": 4402,
      "▁Per": 4403,
      "**\\n\\n_": 4404,
      "▁Hermi": 4405,
      "▁ovlád": 4406,
      "par": 4407,
      "▁hodin": 4408,
      "▁kľú": 4409,
      "nky": 4410,
      "vor": 4411,
      "▁kož": 4412,
      "9.": 4413,
      "▁čaj": 4414,
      "▁budeš": 4415,
      "ko.": 4416,
      "chi": 4417,
      "miest": 4418,
      "▁náklad": 4419,
      "ada": 4420,
      "▁liet": 4421,
      "▁In:": 4422,
      "Poz": 4423,
      "nova": 4424,
      "div": 4425,
      "▁zašep": 4426,
      "▁nos": 4427,
      "▁prak": 4428,
      "sou": 4429,
      "▁rukami": 4430,
      "▁pozna": 4431,
      "▁prik": 4432,
      ".\\nH": 4433,
      "▁matka": 4434,
      "▁zmysel": 4435,
      "stlivo": 4436,
      "verzi": 4437,
      "ení,": 4438,
      "▁Peter": 4439,
      "hať": 4440,
      "▁popri": 4441,
      "cu.": 4442,
      "▁obleč": 4443,
      "▁hlu": 4444,
      "▁r.": 4445,
      "▁My": 4446,
      "▁never": 4447,
      "▁hodiny": 4448,
      "▁om": 4449,
      "▁obyvateľ": 4450,
      "-2": 4451,
      "▁premen": 4452,
      "rovo": 4453,
      "znak": 4454,
      "\\nV": 4455,
      "▁odo": 4456,
      "sed": 4457,
      ".\\n\\n\\n\\n": 4458,
      "▁Ed": 4459,
      "▁súkrom": 4460,
      "▁očiach": 4461,
      "▁museli": 4462,
      "▁slečna": 4463,
      "▁stup": 4464,
      "▁armá": 4465,
      "tež": 4466,
      "ľúb": 4467,
      "▁0,": 4468,
      "ňou": 4469,
      "▁vním": 4470,
      "▁oči.": 4471,
      "▁Nikdy": 4472,
      "▁reči": 4473,
      "▁ked": 4474,
      "▁nemoc": 4475,
      "čím": 4476,
      "▁sval": 4477,
      "---|---|": 4478,
      "s": 4479,
      "▁vyšiel": 4480,
      "álny": 4481,
      "▁viem,": 4482,
      "▁sest": 4483,
      ".\\n\\n######": 4484,
      "▁skutočne": 4485,
      "▁Au": 4486,
      "▁hlá": 4487,
      "▁dni": 4488,
      "▁4.": 4489,
      "▁aká": 4490,
      "▁ran": 4491,
      "váž": 4492,
      "▁ľudí,": 4493,
      "▁ele": 4494,
      "ovali,": 4495,
      "▁napr.": 4496,
      "svet": 4497,
      "ble": 4498,
      "▁povedal:": 4499,
      "xu": 4500,
      "▁hvie": 4501,
      "s­": 4502,
      "▁duše": 4503,
      "▁doby": 4504,
      "▁Krá": 4505,
      "ajúc": 4506,
      "ви": 4507,
      "▁Krauz": 4508,
      "â": 4509,
      "▁počet": 4510,
      "cítil": 4511,
      "▁he": 4512,
      "rek": 4513,
      "vit": 4514,
      "ujete": 4515,
      "IE": 4516,
      "ober": 4517,
      "alebo": 4518,
      "žiš": 4519,
      "▁vedieť,": 4520,
      "\\npred": 4521,
      "▁fil": 4522,
      "čenie": 4523,
      "▁prišla": 4524,
      "▁vzduch": 4525,
      "▁progra": 4526,
      "▁nami": 4527,
      "▁úz": 4528,
      "sl.": 4529,
      "▁červen": 4530,
      "▁jsem": 4531,
      "ák": 4532,
      "▁strach": 4533,
      "▁spravod": 4534,
      "▁uvoľ": 4535,
      "ciu,": 4536,
      "nuť": 4537,
      "a,“": 4538,
      "▁obyčaj": 4539,
      "dsia": 4540,
      "|0,": 4541,
      "▁môžem": 4542,
      "▁násled": 4543,
      "boz": 4544,
      "▁videl,": 4545,
      "▁ostatných": 4546,
      "▁desia": 4547,
      "рј": 4548,
      "my.": 4549,
      "roti": 4550,
      "▁defin": 4551,
      "j,": 4552,
      "▁rozhovor": 4553,
      "órie": 4554,
      "róf": 4555,
      "moriad": 4556,
      "▁dôstoj": 4557,
      "jte": 4558,
      "▁dostali": 4559,
      "▁dych": 4560,
      "éf": 4561,
      "\\nM": 4562,
      "▁zbav": 4563,
      "žde": 4564,
      "▁mlč": 4565,
      "▁zopár": 4566,
      "hlá": 4567,
      "▁ruke": 4568,
      "hodil": 4569,
      "cin": 4570,
      "▁profesor": 4571,
      "▁Han": 4572,
      "▁vznik": 4573,
      "▁25": 4574,
      "▁prev": 4575,
      "▁stroj": 4576,
      "sťan": 4577,
      "▁Lond": 4578,
      "AR": 4579,
      "kovať": 4580,
      "nené": 4581,
      "▁bru": 4582,
      "▁tam,": 4583,
      "pon": 4584,
      "Ešte": 4585,
      "▁celá": 4586,
      "▁Fa": 4587,
      "▁iden": 4588,
      "▁objek": 4589,
      "▁sláv": 4590,
      "▁Pet": 4591,
      "▁tran": 4592,
      "ruž": 4593,
      "▁hud": 4594,
      "▁musíme": 4595,
      "ова": 4596,
      "vodu": 4597,
      "▁byto": 4598,
      "▁spôsobom": 4599,
      "▁zby": 4600,
      "▁des": 4601,
      "▁žensk": 4602,
      "nku": 4603,
      "čať": 4604,
      "ří": 4605,
      "ško": 4606,
      "ts": 4607,
      "▁Boh": 4608,
      "ň.": 4609,
      "iv": 4610,
      "pev": 4611,
      "\\nná": 4612,
      "▁jednom": 4613,
      "▁srdce": 4614,
      "ovor": 4615,
      "cioná": 4616,
      "▁Par": 4617,
      "▁býval": 4618,
      "▁vami": 4619,
      "ňaj": 4620,
      "▁zra": 4621,
      "▁oddelen": 4622,
      "bezpe": 4623,
      "pan": 4624,
      "▁namiesto": 4625,
      "▁nijaké": 4626,
      "▁takých": 4627,
      "kin": 4628,
      "kova": 4629,
      "ый": 4630,
      "▁rodin": 4631,
      "▁proces": 4632,
      "▁najv": 4633,
      "▁nakoniec": 4634,
      "ľak": 4635,
      "▁dieť": 4636,
      "▁slobod": 4637,
      "▁„Pre": 4638,
      "▁keďže": 4639,
      "\\nto": 4640,
      "nutý": 4641,
      "\\nK": 4642,
      "omen": 4643,
      "▁nápad": 4644,
      "čiť,": 4645,
      "tó": 4646,
      "▁znamená": 4647,
      "▁ga": 4648,
      "tvr": 4649,
      "sku,": 4650,
      "lenie": 4651,
      "▁mnoho": 4652,
      "▁Spo": 4653,
      "▁poj": 4654,
      "IN": 4655,
      "▁..": 4656,
      "▁vtá": 4657,
      "é.": 4658,
      "ťaz": 4659,
      "e?": 4660,
      "▁vypl": 4661,
      "viem,": 4662,
      "▁kameň": 4663,
      "praved": 4664,
      "Ak": 4665,
      "▁í": 4666,
      "▁zúf": 4667,
      "▁zariad": 4668,
      "vam": 4669,
      "▁nepríjem": 4670,
      "▁sklad": 4671,
      "▁týmto": 4672,
      "вать": 4673,
      "vere": 4674,
      "▁dro": 4675,
      "▁stú": 4676,
      "A,": 4677,
      "▁veľko": 4678,
      "▁dobre,": 4679,
      "nim": 4680,
      "▁vzruš": 4681,
      "čí,": 4682,
      "▁stia": 4683,
      "seľ": 4684,
      "ler": 4685,
      "▁koľko": 4686,
      "30": 4687,
      "т‡": 4688,
      "used": 4689,
      "tom.": 4690,
      "▁budúc": 4691,
      "oma": 4692,
      "▁bar": 4693,
      "▁cesty": 4694,
      "▁_d": 4695,
      "▁oci": 4696,
      "xx": 4697,
      "▁podrob": 4698,
      "staj": 4699,
      "▁nemala": 4700,
      "▁Lenže": 4701,
      "ckou": 4702,
      "▁ju,": 4703,
      "▁nato": 4704,
      "ách.": 4705,
      "▁ľahko": 4706,
      "ľub": 4707,
      "ávala": 4708,
      "ňujú": 4709,
      "▁ľa": 4710,
      "we": 4711,
      "šie.": 4712,
      "▁ml": 4713,
      "▁uj": 4714,
      "▁Vz": 4715,
      "▁Die": 4716,
      "tickej": 4717,
      "▁ho.": 4718,
      "▁chcem": 4719,
      "▁čoho": 4720,
      "▁hovoriť": 4721,
      "tuje": 4722,
      "▁Tre": 4723,
      "▁Tam": 4724,
      "▁priestor": 4725,
      "stúp": 4726,
      "udia": 4727,
      "▁vyslov": 4728,
      "▁problém": 4729,
      "ling": 4730,
      "▁oboch": 4731,
      "Col": 4732,
      "slú": 4733,
      "fo": 4734,
      "▁kedysi": 4735,
      "▁číslo": 4736,
      "▁lekár": 4737,
      "▁kamen": 4738,
      "▁uzav": 4739,
      "lho": 4740,
      "anie.": 4741,
      "lu.": 4742,
      "▁stan": 4743,
      "▁brad": 4744,
      "stej": 4745,
      "skočil": 4746,
      "dia": 4747,
      "▁*": 4748,
      "▁angli": 4749,
      "rujú": 4750,
      "▁odvetila": 4751,
      "škr": 4752,
      "ww": 4753,
      "▁takú": 4754,
      "▁koniec": 4755,
      "▁pote": 4756,
      "rátil": 4757,
      "▁vytr": 4758,
      "▁Ned": 4759,
      "▁Mám": 4760,
      "▁štú": 4761,
      "chode": 4762,
      "▁opýtal": 4763,
      "▁tisíc": 4764,
      "▁pocit": 4765,
      "▁Hoci": 4766,
      "ená.": 4767,
      "▁svetlo": 4768,
      "▁tan": 4769,
      "▁zachy": 4770,
      ".\\n„P": 4771,
      "▁mesto": 4772,
      "▁Práve": 4773,
      "ší,": 4774,
      "▁vykoná": 4775,
      "▁vtedy,": 4776,
      "▁zmä": 4777,
      "let": 4778,
      "rum": 4779,
      "tvoril": 4780,
      "▁30": 4781,
      "▁svojmu": 4782,
      "hľadom": 4783,
      "▁múd": 4784,
      "▁práva": 4785,
      "▁musela": 4786,
      "@@@?": 4787,
      "SK": 4788,
      "▁iného": 4789,
      "▁iste": 4790,
      "pier": 4791,
      "ý.": 4792,
      "šila": 4793,
      "▁jav": 4794,
      "▁osobit": 4795,
      "▁rámci": 4796,
      "▁volá": 4797,
      "▁pomá": 4798,
      "▁**1": 4799,
      "▁porad": 4800,
      "▁majet": 4801,
      "ker": 4802,
      "noho": 4803,
      "▁všetkým": 4804,
      "▁pokúš": 4805,
      "▁sveta": 4806,
      "rien": 4807,
      "nami": 4808,
      "umen": 4809,
      "▁zmysle": 4810,
      "▁počíta": 4811,
      "tifi": 4812,
      "▁kvali": 4813,
      "ní.": 4814,
      "▁telefón": 4815,
      "]\\n\\n": 4816,
      "▁Indi": 4817,
      "aniel": 4818,
      "▁pravdepodobne": 4819,
      "▁M.": 4820,
      "áme": 4821,
      "▁posla": 4822,
      "nutí": 4823,
      "priek": 4824,
      "▁pôjde": 4825,
      "sili": 4826,
      "▁mimoriad": 4827,
      "▁jú": 4828,
      "▁techni": 4829,
      "OR": 4830,
      "▁-e": 4831,
      "bu,": 4832,
      "hy,": 4833,
      "▁Eli": 4834,
      "čít": 4835,
      "▁Če": 4836,
      "▁pane": 4837,
      "cov.": 4838,
      "▁Por": 4839,
      "tických": 4840,
      "▁krvi": 4841,
      "en,": 4842,
      ".\\n„S": 4843,
      "ki": 4844,
      "▁Sch": 4845,
      "▁vytiahol": 4846,
      "▁kra": 4847,
      "atív": 4848,
      "▁republi": 4849,
      "yslela": 4850,
      "▁dvoma": 4851,
      "▁rozp": 4852,
      "▁nič,": 4853,
      "ým,": 4854,
      "▁„Ako": 4855,
      "▁krv": 4856,
      "▁budov": 4857,
      "pať": 4858,
      "strel": 4859,
      "▁každom": 4860,
      "š.": 4861,
      "▁Kat": 4862,
      "▁dovol": 4863,
      "▁py": 4864,
      "▁pohá": 4865,
      "▁čarodej": 4866,
      "tex": 4867,
      "čným": 4868,
      "```": 4869,
      "▁vedú": 4870,
      "▁vyp": 4871,
      "▁našej": 4872,
      "▁pokiaľ": 4873,
      "hajú": 4874,
      "▁oce": 4875,
      "krá": 4876,
      "▁pomyslel": 4877,
      "▁milo": 4878,
      "čali": 4879,
      "▁Matthew": 4880,
      "gá": 4881,
      "háň": 4882,
      "alizá": 4883,
      "▁našli": 4884,
      "inárod": 4885,
      "▁úsmev": 4886,
      "tier": 4887,
      "lovek": 4888,
      "▁nový": 4889,
      "▁prvé": 4890,
      "ych": 4891,
      "cem": 4892,
      "▁há": 4893,
      "▁Ph": 4894,
      "▁nedost": 4895,
      "▁položil": 4896,
      "\".": 4897,
      "▁plat": 4898,
      "▁finan": 4899,
      "myslen": 4900,
      "▁ktorými": 4901,
      "▁Mala": 4902,
      "25": 4903,
      "óz": 4904,
      "ный;": 4905,
      "IA": 4906,
      "▁uvid": 4907,
      "jekt": 4908,
      "\\nroz": 4909,
      "tujú": 4910,
      "▁poriadku": 4911,
      "\\nA": 4912,
      "\\nvý": 4913,
      "▁j.": 4914,
      "▁nešťast": 4915,
      "▁ramen": 4916,
      "▁si.": 4917,
      "ки": 4918,
      "mar": 4919,
      "▁nevedel": 4920,
      "▁potra": 4921,
      "▁bojov": 4922,
      "▁nespo": 4923,
      "umb": 4924,
      "▁tábo": 4925,
      "▁ráz": 4926,
      "▁Bur": 4927,
      "▁dôležité": 4928,
      "▁okamžite": 4929,
      "vo,": 4930,
      "ska,": 4931,
      "ľach": 4932,
      "▁dome": 4933,
      "tisíc": 4934,
      "▁rozlič": 4935,
      "▁zeme": 4936,
      "▁nemám": 4937,
      "▁charakteri": 4938,
      "▁ust": 4939,
      "▁soci": 4940,
      "ovaním": 4941,
      "▁про": 4942,
      "zlivo": 4943,
      "točil": 4944,
      "▁dôkaz": 4945,
      "▁ští": 4946,
      "ĺž": 4947,
      "▁začiatku": 4948,
      "▁samoz": 4949,
      "stvo,": 4950,
      "volala": 4951,
      ";\\n": 4952,
      "ham": 4953,
      "▁prudko": 4954,
      "ie": 4955,
      "▁з": 4956,
      "▁otca": 4957,
      "▁nechal": 4958,
      "▁chytil": 4959,
      "▁poznamenal": 4960,
      "bou,": 4961,
      "▁stála": 4962,
      "▁pova": 4963,
      "▁się": 4964,
      "▁pravdu,": 4965,
      "▁sia": 4966,
      "dí": 4967,
      "vania": 4968,
      "▁en": 4969,
      "▁šiel": 4970,
      "▁prvej": 4971,
      "▁tebou": 4972,
      "ovzd": 4973,
      "▁duchu": 4974,
      "▁By": 4975,
      "▁poho": 4976,
      "▁red": 4977,
      "­li": 4978,
      "лё": 4979,
      "▁filozo": 4980,
      "▁smu": 4981,
      "▁napl": 4982,
      "▁biely": 4983,
      "▁malé": 4984,
      "▁radi": 4985,
      "níctvom": 4986,
      "▁dých": 4987,
      "▁nájde": 4988,
      "▁plu": 4989,
      "usti": 4990,
      "▁faj": 4991,
      "hala": 4992,
      "sud": 4993,
      "▁Du": 4994,
      "kmi": 4995,
      "▁svojimi": 4996,
      "▁fung": 4997,
      "cku": 4998,
      "ino": 4999,
      "▁Bratislava": 5000,
      "▁nečak": 5001,
      "▁nedok.": 5002,
      "▁об": 5003,
      "▁vytvá": 5004,
      "об": 5005,
      "▁koše": 5006,
      "▁vlastné": 5007,
      "▁leká": 5008,
      "áte": 5009,
      "ON": 5010,
      ".\\nC": 5011,
      "\\nú": 5012,
      "▁té": 5013,
      "▁spad": 5014,
      "tán": 5015,
      "wo": 5016,
      "▁kosto": 5017,
      "\\npod": 5018,
      "▁ký": 5019,
      "▁spe": 5020,
      "▁konkré": 5021,
      "▁úto": 5022,
      "behu": 5023,
      "▁rozší": 5024,
      "▁pomocou": 5025,
      "ruktú": 5026,
      "▁diaľ": 5027,
      "▁návr": 5028,
      "kových": 5029,
      "Ã¡": 5030,
      "lam": 5031,
      "▁autor": 5032,
      "▁hrub": 5033,
      "išiel": 5034,
      "▁kle": 5035,
      "nite": 5036,
      "ené.": 5037,
      "▁Lo": 5038,
      "нђ": 5039,
      "▁škol": 5040,
      "▁Rad": 5041,
      "rčite": 5042,
      "▁ete": 5043,
      "ith": 5044,
      "▁sa:": 5045,
      "ade": 5046,
      "▁Všetci": 5047,
      "ruč": 5048,
      "▁tela": 5049,
      "22": 5050,
      "tori": 5051,
      "▁We": 5052,
      "ret": 5053,
      "zmi": 5054,
      "toch": 5055,
      "▁úva": 5056,
      "|Col": 5057,
      "▁vybral": 5058,
      "▁zdô": 5059,
      "▁otro": 5060,
      "cifi": 5061,
      "l'": 5062,
      "▁Va": 5063,
      "▁boz": 5064,
      "rovať": 5065,
      "▁vďaka": 5066,
      "\\n\\nd": 5067,
      "▁chceli": 5068,
      "▁vzd": 5069,
      ".„": 5070,
      "▁upokoj": 5071,
      "▁Da": 5072,
      "alisti": 5073,
      "▁niektoré": 5074,
      "sa,": 5075,
      "▁člá": 5076,
      "▁pokojne": 5077,
      "ľav": 5078,
      "ňov": 5079,
      "▁pozem": 5080,
      "▁prácu": 5081,
      "▁pravdu": 5082,
      "wy": 5083,
      "chen": 5084,
      "nalo": 5085,
      "ógi": 5086,
      "rag": 5087,
      "▁mnohých": 5088,
      "▁ha": 5089,
      "b,": 5090,
      "▁form": 5091,
      "▁upozor": 5092,
      "tef": 5093,
      "▁skrý": 5094,
      "▁doma": 5095,
      "▁oblie": 5096,
      "▁stojí": 5097,
      "▁er": 5098,
      "▁Cí": 5099,
      "▁nášho": 5100,
      "▁kter": 5101,
      "▁pohľadom": 5102,
      "▁resp.": 5103,
      "pila": 5104,
      "▁bled": 5105,
      "▁väčšmi": 5106,
      "▁Mc": 5107,
      "nom,": 5108,
      "▁dopred": 5109,
      "▁chcete": 5110,
      "▁jediný": 5111,
      "▁sústred": 5112,
      "▁súča": 5113,
      "▁а": 5114,
      "stva,": 5115,
      "▁uvádz": 5116,
      "▁tebe": 5117,
      "▁24": 5118,
      "▁izby": 5119,
      "▁aku": 5120,
      "▁viacer": 5121,
      "▁pul": 5122,
      "nič": 5123,
      "▁straš": 5124,
      "▁pokr": 5125,
      "ovho": 5126,
      "\\nve": 5127,
      "ánov": 5128,
      "▁sused": 5129,
      "▁prístup": 5130,
      "▁dlá": 5131,
      "▁nemali": 5132,
      "▁oni": 5133,
      "▁§": 5134,
      "skor": 5135,
      "žen": 5136,
      "▁As": 5137,
      "▁klá": 5138,
      "▁potrebné": 5139,
      "▁dokáz": 5140,
      "▁preč": 5141,
      "iar": 5142,
      "▁Tom": 5143,
      "▁hrá": 5144,
      "▁priesto": 5145,
      "▁zaz": 5146,
      "▁Napokon": 5147,
      "▁dala": 5148,
      "▁nádej": 5149,
      "▁kapitán": 5150,
      "▁nik": 5151,
      "▁dlhé": 5152,
      "▁francúz": 5153,
      "▁-а": 5154,
      "uješ": 5155,
      "▁vážne": 5156,
      "▁zajtra": 5157,
      "kev": 5158,
      "u.\"": 5159,
      "▁vrátiť": 5160,
      "▁možnosť": 5161,
      "ále": 5162,
      "stvom": 5163,
      "ina,": 5164,
      "▁malý": 5165,
      "▁uskutoč": 5166,
      ".\\n\\nT": 5167,
      "▁odrazu": 5168,
      "▁pohy": 5169,
      "▁post": 5170,
      "-л": 5171,
      "▁Pán": 5172,
      "▁Kom": 5173,
      "лј": 5174,
      "aného": 5175,
      "▁krimin": 5176,
      "...\\n": 5177,
      "d,": 5178,
      "nikajú": 5179,
      "iať": 5180,
      "▁vedieť": 5181,
      "▁em": 5182,
      "núť.": 5183,
      "▁Di": 5184,
      "23": 5185,
      "chani": 5186,
      "▁dali": 5187,
      ".\"\\r\\n„": 5188,
      "▁„Mo": 5189,
      "▁Char": 5190,
      "▁tu,": 5191,
      "▁blá": 5192,
      "▁ďalších": 5193,
      "▁obmedz": 5194,
      "▁špi": 5195,
      "▁úprim": 5196,
      "▁jasné,": 5197,
      "▁v.": 5198,
      "▁autom": 5199,
      "▁skal": 5200,
      "▁Táto": 5201,
      "víľu": 5202,
      "ách,": 5203,
      "alej": 5204,
      "▁Qu": 5205,
      "pezlivo": 5206,
      "tov.": 5207,
      "▁umož": 5208,
      "▁poriadne": 5209,
      "▁при": 5210,
      "ela,": 5211,
      "šku": 5212,
      "mej": 5213,
      "▁sily": 5214,
      "pež": 5215,
      "▁ves": 5216,
      "л‡": 5217,
      "▁Kým": 5218,
      "▁kaž": 5219,
      "▁sadol": 5220,
      "ních": 5221,
      "]\\n": 5222,
      "▁uprostred": 5223,
      "\\n\\nvy": 5224,
      "▁uh": 5225,
      "▁moju": 5226,
      "▁kore": 5227,
      "лђ": 5228,
      "▁nemohla": 5229,
      "▁tými": 5230,
      "▁hovoril": 5231,
      "vok": 5232,
      "▁niektorých": 5233,
      "ма": 5234,
      "-á": 5235,
      "▁sotva": 5236,
      "▁John": 5237,
      "▁zho": 5238,
      "▁Môže": 5239,
      "gh": 5240,
      "čení": 5241,
      "▁oči,": 5242,
      "In": 5243,
      "ře": 5244,
      "▁oku": 5245,
      "nor": 5246,
      "kál": 5247,
      "tovať": 5248,
      "stami": 5249,
      "\\nzá": 5250,
      "zinárod": 5251,
      "▁hrob": 5252,
      "▁doku": 5253,
      "z.": 5254,
      "мо": 5255,
      "▁mužov": 5256,
      "\\n\\nS": 5257,
      "dychol": 5258,
      "▁niekde": 5259,
      "oze": 5260,
      "▁zopak": 5261,
      "stne": 5262,
      "▁Egyp": 5263,
      "▁zách": 5264,
      "▁krú": 5265,
      "▁veliteľ": 5266,
      "▁formu": 5267,
      ".\\n\\nD": 5268,
      "tim": 5269,
      "▁predovšetkým": 5270,
      "tilo": 5271,
      "▁existen": 5272,
      "▁muža": 5273,
      "ве": 5274,
      "▁Kde": 5275,
      "▁vystre": 5276,
      ".\\n„Ne": 5277,
      "▁kapitali": 5278,
      "▁starostlivo": 5279,
      "koľko": 5280,
      "â€": 5281,
      "▁ška": 5282,
      "vidne": 5283,
      "▁Nie,": 5284,
      "дј": 5285,
      "▁láska": 5286,
      "▁úž": 5287,
      "▁sva": 5288,
      ")_": 5289,
      "▁tvor": 5290,
      "▁Francúz": 5291,
      "čko": 5292,
      "gre": 5293,
      "▁vyhlásil": 5294,
      ".\\n\\nPo": 5295,
      "ach": 5296,
      "tela": 5297,
      "ajúci": 5298,
      "▁pravda,": 5299,
      "\\npro": 5300,
      "▁On": 5301,
      "▁žl": 5302,
      "▁Bez": 5303,
      "ve,": 5304,
      "▁kama": 5305,
      "▁or": 5306,
      "▁nádher": 5307,
      "lady": 5308,
      "▁úč": 5309,
      "▁áno,": 5310,
      "▁Áno,": 5311,
      "▁naopak": 5312,
      "▁Sy": 5313,
      "▁hist": 5314,
      "broj": 5315,
      "ktorý": 5316,
      "dy,": 5317,
      "▁Až": 5318,
      "\\n\\n\\n-----\\n\\n######": 5319,
      "▁držal": 5320,
      "i": 5321,
      "▁analý": 5322,
      "p,": 5323,
      "vým": 5324,
      "▁prosím": 5325,
      "▁začína": 5326,
      "rec": 5327,
      "▁čoskoro": 5328,
      "▁noha": 5329,
      "▁stará": 5330,
      "▁„Ak": 5331,
      "vú": 5332,
      "\\nako": 5333,
      "▁rúk": 5334,
      ".\\n\\nNa": 5335,
      "och,": 5336,
      "▁zvr": 5337,
      "behla": 5338,
      "our": 5339,
      "▁bližšie": 5340,
      "▁fľa": 5341,
      "robil": 5342,
      "iera": 5343,
      "▁vypoč": 5344,
      "lok": 5345,
      "▁mam": 5346,
      "▁usmial": 5347,
      "▁násil": 5348,
      "val.": 5349,
      "▁pýt": 5350,
      "▁expr": 5351,
      "▁neú": 5352,
      "ám.": 5353,
      "▁chceš": 5354,
      "\\n\\nsa": 5355,
      "bola": 5356,
      "▁prst": 5357,
      "▁videla": 5358,
      "▁drá": 5359,
      "▁našich": 5360,
      "▁musia": 5361,
      "ase": 5362,
      "24": 5363,
      "▁jej,": 5364,
      "ное": 5365,
      "one": 5366,
      "žal": 5367,
      "▁hrô": 5368,
      "vého": 5369,
      "exist": 5370,
      "▁vás,": 5371,
      "▁ktorou": 5372,
      "▁vaše": 5373,
      "чи": 5374,
      "▁rozmýšľ": 5375,
      "▁stole": 5376,
      "▁priam": 5377,
      "▁záležito": 5378,
      "ola": 5379,
      "▁prikývol": 5380,
      "hý": 5381,
      "▁odva": 5382,
      "kového": 5383,
      "▁preklad": 5384,
      "▁pozri": 5385,
      "▁por": 5386,
      "▁istý,": 5387,
      "▁pomal": 5388,
      "▁Ali": 5389,
      ".\\n\\nO": 5390,
      ".\"\\n\\n„": 5391,
      "▁význa": 5392,
      "ния": 5393,
      "▁navy": 5394,
      "hová": 5395,
      "iela": 5396,
      "▁materiál": 5397,
      "▁dáva": 5398,
      "zv.": 5399,
      "sky,": 5400,
      "▁vlas": 5401,
      "▁trocha": 5402,
      "▁reak": 5403,
      "▁lietad": 5404,
      "vosť": 5405,
      "▁týžde": 5406,
      "▁postupne": 5407,
      "▁šo": 5408,
      "▁skry": 5409,
      "▁seba,": 5410,
      "▁II": 5411,
      "AA": 5412,
      "stala": 5413,
      "▁rada": 5414,
      "\\nB": 5415,
      "▁ktorému": 5416,
      "▁dopad": 5417,
      "­d": 5418,
      "buz": 5419,
      "▁logi": 5420,
      "konca": 5421,
      "▁stôl": 5422,
      "enec": 5423,
      "▁dodal": 5424,
      "▁dneš": 5425,
      "orge": 5426,
      "náhľ": 5427,
      "▁niečo,": 5428,
      "▁Stá": 5429,
      "OM": 5430,
      "Vie": 5431,
      "▁vchod": 5432,
      "▁obid": 5433,
      "▁udrž": 5434,
      "до": 5435,
      "ми": 5436,
      "▁žien": 5437,
      "cti": 5438,
      "vame": 5439,
      "▁odliš": 5440,
      "▁Kar": 5441,
      "love": 5442,
      "\\n\\nP": 5443,
      "oni": 5444,
      "▁prvom": 5445,
      "▁chýb": 5446,
      "▁vzor": 5447,
      "▁vykro": 5448,
      "▁obet": 5449,
      "klonil": 5450,
      "нё": 5451,
      "▁zásad": 5452,
      "▁občas": 5453,
      "Ni": 5454,
      "vě": 5455,
      "▁opi": 5456,
      "kot": 5457,
      "▁zavr": 5458,
      "páč": 5459,
      "!”": 5460,
      "▁kil": 5461,
      "▁23": 5462,
      "▁vybav": 5463,
      "▁as": 5464,
      "▁zamr": 5465,
      "aniu": 5466,
      "▁moz": 5467,
      "▁Všetko": 5468,
      "▁produk": 5469,
      "▁„Vy": 5470,
      "да": 5471,
      "**\\n**_": 5472,
      "iet": 5473,
      "▁dnu": 5474,
      "▁porozprá": 5475,
      ".\\n\\n_": 5476,
      "▁vošiel": 5477,
      "kre": 5478,
      "▁takej": 5479,
      "▁prísť": 5480,
      "ónu": 5481,
      "▁Hu": 5482,
      "▁vývoj": 5483,
      "timi": 5484,
      "spek": 5485,
      "▁zúri": 5486,
      "▁myslím,": 5487,
      "??": 5488,
      "▁hotov": 5489,
      "▁pozornosť": 5490,
      "rz": 5491,
      "▁„U": 5492,
      "▁obaja": 5493,
      "sa.": 5494,
      "ide": 5495,
      "▁popolud": 5496,
      "ríkol": 5497,
      "▁Gre": 5498,
      "éri": 5499,
      "▁pros": 5500,
      "pravedl": 5501,
      "▁Nič": 5502,
      "▁zapá": 5503,
      "en.": 5504,
      "pracov": 5505,
      "▁во": 5506,
      "▁druhého": 5507,
      "▁povedala,": 5508,
      "ovu": 5509,
      "stavi": 5510,
      "kne": 5511,
      "▁nen": 5512,
      "▁druhom": 5513,
      "▁chor": 5514,
      "▁Pla": 5515,
      "▁5.": 5516,
      "▁moder": 5517,
      "pel": 5518,
      "EL": 5519,
      "▁mlá": 5520,
      "50": 5521,
      "▁každú": 5522,
      "▁rast": 5523,
      "▁kresťan": 5524,
      "▁usad": 5525,
      "▁Neme": 5526,
      "▁bolesti": 5527,
      "▁spä": 5528,
      "▁nejakú": 5529,
      "▁ostatní": 5530,
      "▁povz": 5531,
      "zon": 5532,
      "▁takom": 5533,
      "viesť": 5534,
      "ander": 5535,
      "▁kres": 5536,
      "se,": 5537,
      "renie": 5538,
      "▁ameri": 5539,
      "▁Asi": 5540,
      "uží": 5541,
      "▁Mas": 5542,
      "▁zástup": 5543,
      "▁nadob": 5544,
      "ďalej": 5545,
      "▁ostrov": 5546,
      "▁páči": 5547,
      "▁stí": 5548,
      "▁San": 5549,
      "umbled": 5550,
      "▁nemusí": 5551,
      "▁blíz": 5552,
      "mohol": 5553,
      "▁narod": 5554,
      "▁povedal.": 5555,
      "26": 5556,
      "ede": 5557,
      "▁~á": 5558,
      "▁stáli": 5559,
      "▁biele": 5560,
      "▁ciga": 5561,
      "▁hlava": 5562,
      "▁ekonomi": 5563,
      "▁sal": 5564,
      "▁hospodár": 5565,
      "jde": 5566,
      "▁veľkú": 5567,
      "▁plán": 5568,
      "budú": 5569,
      "▁vstup": 5570,
      "▁Wal": 5571,
      "\\nin": 5572,
      "\\n\\nV": 5573,
      "▁seba.": 5574,
      "▁zve": 5575,
      "▁ž.": 5576,
      "ští": 5577,
      ".“\\r\\n": 5578,
      "▁klad": 5579,
      "covia": 5580,
      "?”\\n\\n“": 5581,
      "stin": 5582,
      "▁využí": 5583,
      "▁Ab": 5584,
      "▁stať": 5585,
      "kuje": 5586,
      "▁najvyš": 5587,
      "ере": 5588,
      "▁zver": 5589,
      "▁napad": 5590,
      "nený": 5591,
      "ška": 5592,
      "▁Londý": 5593,
      "ňovať": 5594,
      "▁stu": 5595,
      "▁vzťahu": 5596,
      "▁všetkého": 5597,
      "haj": 5598,
      "ozrejme,": 5599,
      "▁Cor": 5600,
      "chádzať": 5601,
      "\\n\\no": 5602,
      "▁hmo": 5603,
      "čian": 5604,
      "rac": 5605,
      "▁nikoho": 5606,
      "▁fir": 5607,
      "OL": 5608,
      "▁neve": 5609,
      "▁Mil": 5610,
      ",\\nže": 5611,
      "zn.": 5612,
      "▁kúsok": 5613,
      "oj": 5614,
      "dar": 5615,
      "▁posad": 5616,
      "stiach": 5617,
      "▁Ide": 5618,
      "-3": 5619,
      "▁cud": 5620,
      "lem": 5621,
      "▁druhú": 5622,
      "▁spomien": 5623,
      "▁pevne": 5624,
      ".“\\n\\n\t„": 5625,
      "avá": 5626,
      "▁stani": 5627,
      "nala": 5628,
      "tok,": 5629,
      "▁miesto,": 5630,
      "vla": 5631,
      "▁Angli": 5632,
      "▁uplat": 5633,
      "mokra": 5634,
      "▁rozhodne": 5635,
      "Áno.": 5636,
      "▁daj": 5637,
      "▁poschod": 5638,
      "▁kry": 5639,
      "▁reč": 5640,
      "▁2,": 5641,
      "prie": 5642,
      "▁pacien": 5643,
      "ros": 5644,
      "pustil": 5645,
      "▁zemi": 5646,
      "cích": 5647,
      "▁nú": 5648,
      "be.": 5649,
      "kazy": 5650,
      "ania.": 5651,
      "▁„C": 5652,
      "ly.": 5653,
      "▁knihy": 5654,
      "ner": 5655,
      "▁doteraz": 5656,
      "▁mysli": 5657,
      "dô": 5658,
      "\\nsi": 5659,
      "▁hned": 5660,
      "byt": 5661,
      "iach": 5662,
      "▁publi": 5663,
      "▁disk": 5664,
      "▁rokmi": 5665,
      "▁záver": 5666,
      "ranie": 5667,
      "дё": 5668,
      "▁gróf": 5669,
      "▁nechcel": 5670,
      "▁známy": 5671,
      "ôbec": 5672,
      "▁zdroj": 5673,
      "produ": 5674,
      "▁dosp": 5675,
      "▁ostatné": 5676,
      "iel": 5677,
      "▁rukách": 5678,
      "▁deň,": 5679,
      "avej": 5680,
      "▁vyso": 5681,
      "vidu": 5682,
      "▁kateg": 5683,
      "radí": 5684,
      "▁11": 5685,
      "▁vystup": 5686,
      "▁Cho": 5687,
      "▁svojim": 5688,
      "▁vych": 5689,
      "ram": 5690,
      "▁skúš": 5691,
      "▁dolá": 5692,
      "▁prezi": 5693,
      "▁šie": 5694,
      "▁úrov": 5695,
      "▁mŕtvy": 5696,
      "ban": 5697,
      "▁cesta": 5698,
      "▁níz": 5699,
      "▁naraz": 5700,
      "▁zasia": 5701,
      "▁odovzd": 5702,
      "▁nijaký": 5703,
      "▁náru": 5704,
      "teľne": 5705,
      "▁kte": 5706,
      "dil": 5707,
      "▁lam": 5708,
      "chu,": 5709,
      "sá": 5710,
      "tického": 5711,
      "ну": 5712,
      "\\nh": 5713,
      "ciu.": 5714,
      "▁dosiahnu": 5715,
      "ba.": 5716,
      "▁con": 5717,
      "▁pripad": 5718,
      "ket": 5719,
      "▁odísť": 5720,
      "▁Man": 5721,
      "koval": 5722,
      "▁inten": 5723,
      "vy,": 5724,
      "▁let": 5725,
      "▁Ich": 5726,
      "▁че": 5727,
      "▁zrka": 5728,
      "▁ťažké": 5729,
      "▁znepokoj": 5730,
      "Ďak": 5731,
      "▁hlasom": 5732,
      "kry": 5733,
      "sahu": 5734,
      "leb": 5735,
      "▁_ned": 5736,
      "▁netr": 5737,
      "▁„R": 5738,
      "▁koňa": 5739,
      "80": 5740,
      "ced": 5741,
      "mene": 5742,
      "▁celom": 5743,
      "­ho": 5744,
      "▁̆": 5745,
      "▁zloč": 5746,
      "hé": 5747,
      "▁podal": 5748,
      "▁príklad": 5749,
      "OVÁ": 5750,
      "▁dvaná": 5751,
      "▁Ku": 5752,
      "nie,": 5753,
      "▁metó": 5754,
      "stran": 5755,
      "▁hm": 5756,
      "už,": 5757,
      "▁pali": 5758,
      "zen": 5759,
      "lit": 5760,
      "olf": 5761,
      "hovár": 5762,
      "enosť": 5763,
      "súd": 5764,
      "▁dostala": 5765,
      "▁Ex": 5766,
      "▁Pat": 5767,
      "da.": 5768,
      "▁rozo": 5769,
      "▁úder": 5770,
      "▁Fred": 5771,
      "▁interpre": 5772,
      "▁včera": 5773,
      "▁môžete": 5774,
      "▁každého": 5775,
      "liet": 5776,
      ".)": 5777,
      "▁istej": 5778,
      "▁rád,": 5779,
      "ďar": 5780,
      "tická": 5781,
      "▁uspokoj": 5782,
      "▁duchov": 5783,
      "ft": 5784,
      "o.": 5785,
      "iam": 5786,
      "▁vedela,": 5787,
      "▁mesiac": 5788,
      "však": 5789,
      "▁x": 5790,
      "▁skupiny": 5791,
      "▁dláž": 5792,
      "▁kabá": 5793,
      "inne": 5794,
      "anom": 5795,
      "▁rozlú": 5796,
      "▁han": 5797,
      "▁klobú": 5798,
      "▁vzduchu": 5799,
      "ell": 5800,
      "ová.": 5801,
      "▁správy": 5802,
      "ávam": 5803,
      "▁takéto": 5804,
      "▁ж": 5805,
      "mos": 5806,
      "▁Euró": 5807,
      "álnej": 5808,
      "ser": 5809,
      "voch": 5810,
      "vlá": 5811,
      "▁ľúto": 5812,
      "▁pohár": 5813,
      "▁utr": 5814,
      "▁veľká": 5815,
      "▁ja,": 5816,
      "▁nedá": 5817,
      "▁oproti": 5818,
      "▁takisto": 5819,
      "zovať": 5820,
      "▁teplo": 5821,
      "cher": 5822,
      "▁zväč": 5823,
      "▁vysoko": 5824,
      "teľné": 5825,
      "▁nenávi": 5826,
      "▁cestou": 5827,
      "▁pripra": 5828,
      "**\\n_": 5829,
      "▁plané": 5830,
      "ýta": 5831,
      "▁práca": 5832,
      "▁jedným": 5833,
      "▁pusti": 5834,
      "lené": 5835,
      "▁„Ja": 5836,
      "og": 5837,
      "▁akým": 5838,
      "tul": 5839,
      "RE": 5840,
      "▁seku": 5841,
      "tolí": 5842,
      "▁akej": 5843,
      "▁)": 5844,
      ".\"\\n„": 5845,
      "bus": 5846,
      "nali": 5847,
      "bou.": 5848,
      "cer": 5849,
      "?\\n\\n–": 5850,
      "chu.": 5851,
      ".\"\\r\\n": 5852,
      "▁čas,": 5853,
      "▁učiteľ": 5854,
      "▁videli": 5855,
      "iaci": 5856,
      "ložila": 5857,
      "ди": 5858,
      "ovaného": 5859,
      "3⁄": 5860,
      "dav": 5861,
      "▁«": 5862,
      "-é": 5863,
      "▁nemôžem": 5864,
      "▁prúd": 5865,
      "▁Ri": 5866,
      "▁najviac": 5867,
      "ľadel": 5868,
      "▁zdravot": 5869,
      "▁výskum": 5870,
      "▁nesú": 5871,
      "▁efek": 5872,
      "ill": 5873,
      "▁práci": 5874,
      "ér": 5875,
      "▁každej": 5876,
      "▁": 5877,
      "rik": 5878,
      "▁kvap": 5879,
      "▁rom": 5880,
      "kup": 5881,
      "▁Jak": 5882,
      "m,“": 5883,
      "prava": 5884,
      "▁orien": 5885,
      "▁rím": 5886,
      "zuje": 5887,
      "ћть": 5888,
      "▁pobre": 5889,
      "▁opis": 5890,
      "amätá": 5891,
      "27": 5892,
      "▁konf": 5893,
      "Ka": 5894,
      "S,": 5895,
      "▁usmie": 5896,
      "▁vplyv": 5897,
      "▁(S": 5898,
      "▁tráv": 5899,
      "40": 5900,
      "pet": 5901,
      "Pod": 5902,
      "sela": 5903,
      "klop": 5904,
      "▁dobr": 5905,
      "▁vietor": 5906,
      "rup": 5907,
      "▁zauj": 5908,
      "▁sestra": 5909,
      "▁vyžad": 5910,
      "▁hust": 5911,
      "▁odd": 5912,
      "edi": 5913,
      "▁vyraz": 5914,
      "vak": 5915,
      "▁ně": 5916,
      "▁nahne": 5917,
      "▁nasp": 5918,
      "▁oznámi": 5919,
      "▁jazyka": 5920,
      "nka": 5921,
      "form": 5922,
      "3⁄4": 5923,
      "äč": 5924,
      "ces": 5925,
      "▁strý": 5926,
      "▁devä": 5927,
      "▁chuť": 5928,
      "▁Dnes": 5929,
      "▁Zdalo": 5930,
      "▁buď": 5931,
      "▁Dom": 5932,
      "▁Chcel": 5933,
      "▁jasne": 5934,
      "[2]": 5935,
      "iť.": 5936,
      "▁zdalo": 5937,
      "straš": 5938,
      "tele": 5939,
      "ajúce": 5940,
      "▁rozhodol": 5941,
      "▁štruktú": 5942,
      "▁žiť": 5943,
      "níkov,": 5944,
      "▁Ban": 5945,
      "vinu": 5946,
      "▁vzápätí": 5947,
      "com,": 5948,
      "ú,": 5949,
      "мј": 5950,
      "kr": 5951,
      "▁maje": 5952,
      "ary": 5953,
      "▁sr": 5954,
      "▁ju.": 5955,
      "ín,": 5956,
      "▁dalo": 5957,
      "ory": 5958,
      "ovala.": 5959,
      "▁stop": 5960,
      "▁že\\n": 5961,
      "▁palá": 5962,
      "▁hľadiska": 5963,
      "sku.": 5964,
      "vať.": 5965,
      "ovoľ": 5966,
      "▁sami": 5967,
      "nilo": 5968,
      "▁Vtedy": 5969,
      "selo": 5970,
      "▁trp": 5971,
      "▁rastli": 5972,
      "▁princí": 5973,
      "trá": 5974,
      "čat": 5975,
      "tika": 5976,
      "▁mäk": 5977,
      "štá": 5978,
      "čke": 5979,
      "žit": 5980,
      "▁rozhov": 5981,
      "▁rela": 5982,
      "▁kilomet": 5983,
      "▁ľad": 5984,
      "▁kontak": 5985,
      "enosti": 5986,
      "▁vým": 5987,
      "▁Ger": 5988,
      "ení.": 5989,
      "víj": 5990,
      "▁pravidel": 5991,
      ":\\n„": 5992,
      "čen": 5993,
      "čká": 5994,
      "▁predchádzajú": 5995,
      "▁vlastnej": 5996,
      ").\\n": 5997,
      "tiku": 5998,
      "hlav": 5999,
      "▁ohľad": 6000,
      "▁cy": 6001,
      "...\"\\n": 6002,
      "cip": 6003,
      "▁ruká": 6004,
      "cia.": 6005,
      "rna": 6006,
      "kop": 6007,
      "▁tridsať": 6008,
      "stva.": 6009,
      "▁zasp": 6010,
      "▁nadých": 6011,
      "▁neviem": 6012,
      "▁ohrom": 6013,
      "vo.": 6014,
      "▁pravdu.": 6015,
      "▁rôznych": 6016,
      "bu.": 6017,
      "▁Nikto": 6018,
      "▁posledné": 6019,
      "▁odkiaľ": 6020,
      "▁zried": 6021,
      "ez": 6022,
      "▁odpor": 6023,
      "▁bit": 6024,
      "▁súvislosti": 6025,
      "▁človek,": 6026,
      "čiar": 6027,
      "▁jazyk": 6028,
      "▁šaty": 6029,
      "lal": 6030,
      "▁otázky": 6031,
      "▁Cla": 6032,
      "peľ": 6033,
      "nož": 6034,
      "dent": 6035,
      "▁je\\n": 6036,
      "▁vysvetli": 6037,
      "lený": 6038,
      "▁195": 6039,
      "▁pustil": 6040,
      "▁tl": 6041,
      "▁zvyčajne": 6042,
      "fu": 6043,
      "▁jednotlivých": 6044,
      "▁poboz": 6045,
      "▁unav": 6046,
      "▁vymen": 6047,
      "▁„Prečo": 6048,
      "▁mladý": 6049,
      "biť": 6050,
      "▁zlé": 6051,
      "ств": 6052,
      "▁blo": 6053,
      "▁roztr": 6054,
      "ujú,": 6055,
      "▁Medzi": 6056,
      "▁celého": 6057,
      "jej": 6058,
      "▁do\\n": 6059,
      "▁špor": 6060,
      "▁sig": 6061,
      "▁posledných": 6062,
      "▁Star": 6063,
      "stný": 6064,
      "tip": 6065,
      "▁nest": 6066,
      "▁pr|": 6067,
      "▁synov": 6068,
      "fri": 6069,
      "▁ope": 6070,
      "▁úbo": 6071,
      "vapi": 6072,
      ".\\n\\nB": 6073,
      "sten": 6074,
      "▁zahrani": 6075,
      "▁rokov,": 6076,
      "▁žiadne": 6077,
      "stické": 6078,
      "▁vola": 6079,
      "▁vonkaj": 6080,
      "Bolo": 6081,
      "nt": 6082,
      "//": 6083,
      "níku": 6084,
      "▁televí": 6085,
      "▁spomín": 6086,
      "▁záhrad": 6087,
      "▁detek": 6088,
      "▁Jack": 6089,
      "▁mojich": 6090,
      "▁ustanov": 6091,
      "fil": 6092,
      "▁zle": 6093,
      "?“„": 6094,
      "▁úlohu": 6095,
      "▁žalúd": 6096,
      "▁ca": 6097,
      "▁tesne": 6098,
      "▁odkaz": 6099,
      "▁normál": 6100,
      "▁slad": 6101,
      "▁nezd": 6102,
      "▁plné": 6103,
      "▁nasad": 6104,
      "▁Bet": 6105,
      "o-": 6106,
      "де": 6107,
      "▁choro": 6108,
      "▁Vol": 6109,
      "KA": 6110,
      "▁čierne": 6111,
      "­te": 6112,
      "▁poti": 6113,
      "▁žije": 6114,
      "▁iná": 6115,
      "▁Nad": 6116,
      "▁tal": 6117,
      "Možno": 6118,
      "▁hlboko": 6119,
      "▁sty": 6120,
      "▁vyrov": 6121,
      "▁nepom": 6122,
      "▁V.": 6123,
      "▁podsta": 6124,
      "▁námor": 6125,
      "▁slo": 6126,
      "▁26": 6127,
      "▁Stre": 6128,
      "▁il": 6129,
      "\\nka": 6130,
      "▁odí": 6131,
      "▁Zat": 6132,
      "čené": 6133,
      "▁premýšľ": 6134,
      "▁Tieto": 6135,
      "▁stĺ": 6136,
      "▁_v": 6137,
      "н‡": 6138,
      "▁rozkaz": 6139,
      "▁Hen": 6140,
      "spôsob": 6141,
      "▁Con": 6142,
      "▁z.": 6143,
      "stúpila": 6144,
      "niť,": 6145,
      "▁sad": 6146,
      "▁áno": 6147,
      "niesol": 6148,
      "▁navyše": 6149,
      "▁doj": 6150,
      "▁údaj": 6151,
      "▁pery": 6152,
      "▁pohod": 6153,
      "▁100": 6154,
      "▁správne": 6155,
      "▁neskoro": 6156,
      "▁takým": 6157,
      "▁mňa,": 6158,
      "▁nekone": 6159,
      "▁Pozri": 6160,
      "ку": 6161,
      "tic": 6162,
      "ľade": 6163,
      "šili": 6164,
      "▁Sna": 6165,
      "fle": 6166,
      "íme,": 6167,
      "\\nprí": 6168,
      "▁preruš": 6169,
      "▁oslov": 6170,
      "▁otázku": 6171,
      "▁jsou": 6172,
      "ti.": 6173,
      "bier": 6174,
      "▁n.": 6175,
      "an,": 6176,
      "▁príbuz": 6177,
      "_**\\n**_": 6178,
      "tane": 6179,
      "ves": 6180,
      "▁viac,": 6181,
      "vár": 6182,
      "chádzala": 6183,
      "ľud": 6184,
      "▁kur": 6185,
      "teľný": 6186,
      "ind": 6187,
      "buch": 6188,
      "IC": 6189,
      "obil": 6190,
      "tova": 6191,
      "▁neviem,": 6192,
      "▁Myslím,": 6193,
      "▁gar": 6194,
      "▁Gu": 6195,
      "ňom": 6196,
      "▁zápas": 6197,
      "▁mechani": 6198,
      "▁ка": 6199,
      "29": 6200,
      "wi": 6201,
      "▁со": 6202,
      "ľov": 6203,
      "kraj": 6204,
      "▁tzv.": 6205,
      "\\n\\nA": 6206,
      "▁správa": 6207,
      "ony": 6208,
      "▁ľú": 6209,
      "▁vaša": 6210,
      "ôvod": 6211,
      "▁záujem": 6212,
      "▁prostredníctvom": 6213,
      "vyk": 6214,
      "▁Kapi": 6215,
      "▁из": 6216,
      "tel'": 6217,
      "▁Aby": 6218,
      "▁Yor": 6219,
      "▁reg": 6220,
      "vý,": 6221,
      "zájom": 6222,
      "nách": 6223,
      "▁starého": 6224,
      "toval": 6225,
      "▁veľkej": 6226,
      "▁Bud": 6227,
      "▁zistil,": 6228,
      "▁str.": 6229,
      "28": 6230,
      "ento": 6231,
      "▁Ke": 6232,
      "▁naznač": 6233,
      ".“\\n„V": 6234,
      "▁prijím": 6235,
      "▁„Chce": 6236,
      "tová": 6237,
      "brá": 6238,
      "abrie": 6239,
      "▁vesmí": 6240,
      "▁náhodou": 6241,
      "bad": 6242,
      "▁cent": 6243,
      "▁šéf": 6244,
      "▁niekoľkých": 6245,
      "cii,": 6246,
      "leží": 6247,
      "ский": 6248,
      "x,": 6249,
      "▁000": 6250,
      "urá": 6251,
      "▁najlepšie": 6252,
      "▁jazd": 6253,
      "lež": 6254,
      "ii": 6255,
      "\\n\\nza": 6256,
      "tený": 6257,
      "far": 6258,
      "▁topá": 6259,
      "▁hrom": 6260,
      "▁tma": 6261,
      "▁akýsi": 6262,
      "inu,": 6263,
      "ýval": 6264,
      "▁priblí": 6265,
      "~~": 6266,
      "▁pravid": 6267,
      "▁had": 6268,
      "▁šial": 6269,
      "-**\\n\\n": 6270,
      "▁naň": 6271,
      "▁(o": 6272,
      "▁začne": 6273,
      "▁mra": 6274,
      "▁psycho": 6275,
      "________": 6276,
      "uch": 6277,
      "▁veci,": 6278,
      "▁(z": 6279,
      "▁vyzeral": 6280,
      "21": 6281,
      "níka,": 6282,
      "▁Martin": 6283,
      "čka,": 6284,
      "▁bet": 6285,
      "nĂ­": 6286,
      "nícky": 6287,
      "▁ženu": 6288,
      "\\nch": 6289,
      "▁metrov": 6290,
      "▁vecí": 6291,
      "tá,": 6292,
      "▁Sed": 6293,
      "▁Jedno": 6294,
      "▁nepod": 6295,
      "сп": 6296,
      "hlbo": 6297,
      "sko,": 6298,
      "ďaleko": 6299,
      "▁klam": 6300,
      "lová": 6301,
      ".“\\n„M": 6302,
      "▁aktivi": 6303,
      "▁zmoc": 6304,
      "▁Čer": 6305,
      "▁búr": 6306,
      "\\nD": 6307,
      "▁tich": 6308,
      "▁dverách": 6309,
      "▁tabu": 6310,
      "no-": 6311,
      "▁pozi": 6312,
      "▁stopy": 6313,
      "▁cigare": 6314,
      "▁umen": 6315,
      "▁stat": 6316,
      "▁Že": 6317,
      "rick": 6318,
      "▁patria": 6319,
      "▁kancelárie": 6320,
      "\\nH": 6321,
      "▁môcť": 6322,
      "хо": 6323,
      "\\nspo": 6324,
      "▁stane": 6325,
      "ciálne": 6326,
      "▁takého": 6327,
      "tyri": 6328,
      "tívny": 6329,
      "staň": 6330,
      "▁hodnoty": 6331,
      "▁postavil": 6332,
      "kož": 6333,
      "▁odbo": 6334,
      "▁riaditeľ": 6335,
      "▁ponad": 6336,
      "radiť": 6337,
      "▁lyži": 6338,
      "čky,": 6339,
      "▁podni": 6340,
      "▁Každý": 6341,
      "proti": 6342,
      "▁zmiz": 6343,
      "▁posledný": 6344,
      "▁prírod": 6345,
      "▁komple": 6346,
      "▁odv": 6347,
      "▁**_": 6348,
      "ho.": 6349,
      "▁záhad": 6350,
      "▁pišto": 6351,
      "▁rí": 6352,
      "▁Vá": 6353,
      "▁nemohli": 6354,
      "▁vlh": 6355,
      "iz": 6356,
      "▁obvin": 6357,
      "▁ber": 6358,
      "jem,": 6359,
      "▁zakri": 6360,
      "šal": 6361,
      "obe": 6362,
      "▁minister": 6363,
      "poli": 6364,
      "­ne": 6365,
      "ina.": 6366,
      "tami": 6367,
      "▁~é": 6368,
      "▁nemožno": 6369,
      "▁sen": 6370,
      "▁vie,": 6371,
      "▁gré": 6372,
      "ovanej": 6373,
      "▁podobné": 6374,
      "▁elekt": 6375,
      "▁mý": 6376,
      "▁Nepo": 6377,
      ",\\na": 6378,
      "▁-í": 6379,
      "▁chrbtom": 6380,
      "SA": 6381,
      "▁vzdychol": 6382,
      "▁vytvori": 6383,
      "▁otcov": 6384,
      "▁vďa": 6385,
      "▁vysky": 6386,
      "vat": 6387,
      "▁vzájom": 6388,
      "▁am": 6389,
      "dú": 6390,
      "▁_nedok.": 6391,
      "▁spoločnosť": 6392,
      "čil,": 6393,
      "ník.": 6394,
      "▁stratil": 6395,
      "\\nnie": 6396,
      "▁štr": 6397,
      "hol,": 6398,
      "sté": 6399,
      "cami.": 6400,
      "Bola": 6401,
      "▁hal": 6402,
      "▁vrátila": 6403,
      "hovoril": 6404,
      "▁univerzi": 6405,
      "hy.": 6406,
      "▁čr": 6407,
      "▁vylú": 6408,
      "pozí": 6409,
      ".\\n\\n\t„": 6410,
      "▁myslen": 6411,
      "▁vyrá": 6412,
      "▁preb": 6413,
      "▁ruku.": 6414,
      "▁činnosti": 6415,
      "▁neust": 6416,
      "▁27": 6417,
      "▁mŕtvo": 6418,
      "čený": 6419,
      "var": 6420,
      "▁tentoraz": 6421,
      "skými": 6422,
      "▁založ": 6423,
      "▁bezpe": 6424,
      "▁samostat": 6425,
      "wać": 6426,
      "rny": 6427,
      "▁úžas": 6428,
      "▁spl": 6429,
      "▁Jim": 6430,
      "▁minul": 6431,
      "▁získať": 6432,
      "▁študen": 6433,
      "udi": 6434,
      "ňoch": 6435,
      "▁neh": 6436,
      "▁žil": 6437,
      "▁mimoriadne": 6438,
      "Ty": 6439,
      "ha.": 6440,
      "сти": 6441,
      "▁zväz": 6442,
      "▁sprie": 6443,
      "▁-uje": 6444,
      "▁uží": 6445,
      "▁ser": 6446,
      "▁ohe": 6447,
      "í": 6448,
      "čik": 6449,
      "znám": 6450,
      "terna": 6451,
      "iat": 6452,
      "▁„I": 6453,
      "▁Dumbled": 6454,
      "▁osvet": 6455,
      "gent": 6456,
      "▁posteľ": 6457,
      "▁iným": 6458,
      ".“\\n„To": 6459,
      "▁vnútri": 6460,
      "▁období": 6461,
      "rim": 6462,
      "▁výkri": 6463,
      "knúť": 6464,
      "nom.": 6465,
      "▁uvedomil,": 6466,
      "ývajú": 6467,
      "óny": 6468,
      "▁prsty": 6469,
      "in,": 6470,
      "▁zbo": 6471,
      "▁zostal": 6472,
      "▁_ţ": 6473,
      "▁vzdych": 6474,
      "▁kmeň": 6475,
      "▁svi": 6476,
      "▁platí": 6477,
      "кђ": 6478,
      "▁vstal": 6479,
      "▁úte": 6480,
      "▁Uni": 6481,
      "bíj": 6482,
      "fesi": 6483,
      "▁„Už": 6484,
      "čí.": 6485,
      "▁krátko": 6486,
      "mani": 6487,
      "▁nič.": 6488,
      "roval": 6489,
      "mena": 6490,
      "▁Napriek": 6491,
      "▁stáť": 6492,
      "sche": 6493,
      "▁otázka": 6494,
      "▁kapitálu": 6495,
      "f?": 6496,
      "▁nepat": 6497,
      "▁tvoje": 6498,
      "odi": 6499,
      "▁Slovensku": 6500,
      "ет": 6501,
      "▁Pol": 6502,
      "ora": 6503,
      "▁Jeden": 6504,
      "-л.": 6505,
      "▁zl": 6506,
      "▁šan": 6507,
      "▁nu": 6508,
      "▁výkon": 6509,
      "▁Mer": 6510,
      "▁sou": 6511,
      "▁netu": 6512,
      "▁Mor": 6513,
      "▁subjek": 6514,
      "f.": 6515,
      "▁Pá": 6516,
      "▁6.": 6517,
      "▁zrak": 6518,
      "@@@@@": 6519,
      "▁niekomu": 6520,
      "▁opatrne": 6521,
      "ĺb": 6522,
      "tože": 6523,
      "bri": 6524,
      "▁nalie": 6525,
      "▁vám,": 6526,
      "▁šál": 6527,
      "stavil": 6528,
      "vaný": 6529,
      ".\\n„Čo": 6530,
      "deľ": 6531,
      "▁poslal": 6532,
      "▁prikývo": 6533,
      "▁hlb": 6534,
      "Nech": 6535,
      "▁Bla": 6536,
      "tovali": 6537,
      "▁qu": 6538,
      "▁moci": 6539,
      "▁Min": 6540,
      "▁nadš": 6541,
      "▁zbadal": 6542,
      "ps": 6543,
      "▁para": 6544,
      "stné": 6545,
      "▁kdy": 6546,
      "▁uver": 6547,
      "▁Mysl": 6548,
      "▁Sto": 6549,
      "\\n\\npre": 6550,
      "stický": 6551,
      "▁tých,": 6552,
      "▁syna": 6553,
      "▁robil": 6554,
      "▁čakal": 6555,
      "▁arg": 6556,
      "u,“": 6557,
      "▁lete": 6558,
      "roni": 6559,
      "▁For": 6560,
      "▁до": 6561,
      "­lo": 6562,
      "?\\n–": 6563,
      "ady": 6564,
      "rom,": 6565,
      "stí,": 6566,
      "▁ruku,": 6567,
      "▁ovplyv": 6568,
      "▁ф": 6569,
      "óm": 6570,
      "▁nesta": 6571,
      "ve.": 6572,
      "▁jaze": 6573,
      "▁pokrútil": 6574,
      "ieb": 6575,
      "▁generá": 6576,
      "▁vyzerá": 6577,
      "▁môžeš": 6578,
      "▁lord": 6579,
      "33": 6580,
      "▁išlo": 6581,
      "▁účel": 6582,
      "skí": 6583,
      "ĹŻ": 6584,
      "▁mlie": 6585,
      "▁Sk": 6586,
      "medzi": 6587,
      "AP": 6588,
      "▁Bi": 6589,
      "▁týždeň": 6590,
      "▁„Áno,": 6591,
      "úfam,": 6592,
      "stava": 6593,
      "▁Stra": 6594,
      "▁zmizol": 6595,
      "▁kli": 6596,
      "▁spočí": 6597,
      "st.": 6598,
      "stúpiť": 6599,
      "don": 6600,
      "?\\r\\n": 6601,
      "ow": 6602,
      "▁nemajú": 6603,
      "▁ústav": 6604,
      "cit": 6605,
      "tovej": 6606,
      "[1]": 6607,
      "▁inšt": 6608,
      "šetko": 6609,
      ".\\n\\nH": 6610,
      "га": 6611,
      "▁50": 6612,
      "▁Keďže": 6613,
      "\\nre": 6614,
      "▁litera": 6615,
      "▁informácie": 6616,
      "anu": 6617,
      "▁všade": 6618,
      "▁Rich": 6619,
      "novu": 6620,
      "ovali.": 6621,
      "álneho": 6622,
      "tory": 6623,
      "jako": 6624,
      "ktorí": 6625,
      "▁́": 6626,
      "▁elek": 6627,
      "▁prís": 6628,
      "▁komb": 6629,
      "▁prote": 6630,
      "▁spomenul": 6631,
      "▁býva": 6632,
      "kor": 6633,
      "šta": 6634,
      "rey": 6635,
      "▁George": 6636,
      "▁cirkev": 6637,
      "▁človeka,": 6638,
      "chad": 6639,
      "▁operá": 6640,
      "▁čiže": 6641,
      "ržal": 6642,
      "tik": 6643,
      "us,": 6644,
      "ford": 6645,
      "volať": 6646,
      "▁ukrad": 6647,
      "▁skúm": 6648,
      "té,": 6649,
      "▁chlapec": 6650,
      "▁zdrav": 6651,
      "▁hodinu": 6652,
      "▁nezávi": 6653,
      "lesk": 6654,
      "▁úsmevom": 6655,
      "se.": 6656,
      "II.": 6657,
      "gal": 6658,
      "▁lov": 6659,
      "▁krok": 6660,
      "▁dopl": 6661,
      "▁skôr,": 6662,
      "▁hodil": 6663,
      "▁náhle": 6664,
      "▁priebehu": 6665,
      "cht": 6666,
      "tora": 6667,
      "vými": 6668,
      "zov": 6669,
      "▁kŕ": 6670,
      "▁br": 6671,
      "atia": 6672,
      "▁dvere.": 6673,
      "▁kal": 6674,
      ".\\nL": 6675,
      "▁slzy": 6676,
      "nená": 6677,
      "w.": 6678,
      "▁očividne": 6679,
      "tálne": 6680,
      "▁раз": 6681,
      "▁zavolal": 6682,
      "AT": 6683,
      "Aj": 6684,
      "▁pole": 6685,
      "sey": 6686,
      "1)": 6687,
      "▁slne": 6688,
      "▁vaj": 6689,
      "▁odse": 6690,
      "jím": 6691,
      "▁vyše": 6692,
      "▁dokáže": 6693,
      ".\\n\\nKeď": 6694,
      "▁rozumie": 6695,
      "_**": 6696,
      "▁che": 6697,
      "▁„Vie": 6698,
      "ôžu": 6699,
      "▁vykon": 6700,
      "▁silu": 6701,
      "▁nachádza": 6702,
      "▁rozvoj": 6703,
      "▁reali": 6704,
      "▁izbe": 6705,
      "▁pozrieť": 6706,
      "a)": 6707,
      "štitú": 6708,
      "rútila": 6709,
      "▁Ameri": 6710,
      "Kto": 6711,
      "▁stala": 6712,
      "nula": 6713,
      "bami": 6714,
      "ckými": 6715,
      "▁medzinárod": 6716,
      "▁\\n": 6717,
      "nk": 6718,
      "▁rodiny": 6719,
      "▁S.": 6720,
      "▁(200": 6721,
      "▁posu": 6722,
      "▁plach": 6723,
      "rah": 6724,
      "▁prinú": 6725,
      "óna": 6726,
      "▁Vždy": 6727,
      "▁„Dob": 6728,
      "avú": 6729,
      "▁zúčast": 6730,
      "▁v\\n": 6731,
      "IS": 6732,
      "▁L.": 6733,
      ".\\nPre": 6734,
      "▁Spom": 6735,
      "▁Ga": 6736,
      "▁opä": 6737,
      "zú": 6738,
      "cion": 6739,
      "plo": 6740,
      "▁víťaz": 6741,
      "▁zdvihla": 6742,
      "g.": 6743,
      "\\n\\ndo": 6744,
      ".\\nZa": 6745,
      "raž": 6746,
      "▁štvor": 6747,
      "▁posteli": 6748,
      "▁cítila": 6749,
      "▁ako\\n": 6750,
      "ть;": 6751,
      "\\n\\n\\n-----\\n\\n_": 6752,
      "▁zdôraz": 6753,
      "▁mohu": 6754,
      "▁Jas": 6755,
      "môže": 6756,
      ".\\n„To": 6757,
      "čil.": 6758,
      "g,": 6759,
      "▁počuť": 6760,
      "▁služob": 6761,
      "rovoľ": 6762,
      "▁individu": 6763,
      "\\n\\nM": 6764,
      "vaní": 6765,
      "ёться": 6766,
      "▁kup": 6767,
      "▁val": 6768,
      "naní": 6769,
      "▁voda": 6770,
      "▁jednou": 6771,
      "▁kole": 6772,
      "▁zastal": 6773,
      "▁myslel,": 6774,
      "▁káv": 6775,
      "▁nálad": 6776,
      "ór": 6777,
      "▁neuver": 6778,
      "▁„Nie,": 6779,
      "▁ochran": 6780,
      "K,": 6781,
      "▁Hal": 6782,
      "▁,,": 6783,
      "▁pomôcť": 6784,
      "▁pove": 6785,
      "tis": 6786,
      "▁zoh": 6787,
      "slovensk": 6788,
      "násť": 6789,
      "▁tru": 6790,
      "▁kancelári": 6791,
      "OD": 6792,
      "ieť,": 6793,
      "pali": 6794,
      "▁Or": 6795,
      "tur": 6796,
      "▁zákona": 6797,
      "▁klu": 6798,
      "že.": 6799,
      "▁pes": 6800,
      "chal": 6801,
      "▁vrecka": 6802,
      "▁Tri": 6803,
      "▁vari": 6804,
      "rovej": 6805,
      "кё": 6806,
      "▁Pan": 6807,
      "▁rieš": 6808,
      "pili": 6809,
      "▁rokov.": 6810,
      "▁prsia": 6811,
      "uč": 6812,
      "▁(P": 6813,
      "cvi": 6814,
      "▁28": 6815,
      "▁náčel": 6816,
      "▁nezvy": 6817,
      "nel": 6818,
      "ujte": 6819,
      "▁prenasled": 6820,
      "▁momen": 6821,
      "▁Rá": 6822,
      "organi": 6823,
      "óne": 6824,
      "▁zaklad": 6825,
      "▁Neved": 6826,
      "zerá": 6827,
      "▁vziať": 6828,
      "▁však,": 6829,
      "▁40": 6830,
      "▁štátu": 6831,
      "▁ihneď": 6832,
      "▁pozí": 6833,
      "▁jasky": 6834,
      "▁spre": 6835,
      "dle": 6836,
      "pala": 6837,
      "Ä": 6838,
      "бђ": 6839,
      "tila,": 6840,
      "▁revo": 6841,
      "▁boh": 6842,
      "▁sprav": 6843,
      "▁vě": 6844,
      "▁vraví": 6845,
      "▁rado": 6846,
      "▁starých": 6847,
      "kázala": 6848,
      "zel": 6849,
      "://": 6850,
      "▁uprav": 6851,
      "сто": 6852,
      "▁Veľmi": 6853,
      "▁kapitál": 6854,
      "▁striebor": 6855,
      "ies": 6856,
      "Ĺľe": 6857,
      "▁is": 6858,
      "▁postoj": 6859,
      "▁Hol": 6860,
      "\\nmo": 6861,
      "▁používa": 6862,
      "▁vin": 6863,
      "lastne": 6864,
      ".\\nJ": 6865,
      "ýchlo": 6866,
      "tosť": 6867,
      "▁staré": 6868,
      "AL": 6869,
      "noch": 6870,
      "cne": 6871,
      "▁ska": 6872,
      "ujem.": 6873,
      "▁Eu": 6874,
      "▁zran": 6875,
      "teho": 6876,
      "▁výber": 6877,
      "▁chápe": 6878,
      "▁(porov.": 6879,
      "▁dokumen": 6880,
      "\\nby": 6881,
      "▁podmie": 6882,
      "▁kríž": 6883,
      "▁zám": 6884,
      "▁Ci": 6885,
      "▁vyčer": 6886,
      "je.": 6887,
      "ть,": 6888,
      "▁tria": 6889,
      "▁fotograf": 6890,
      ".\\nPri": 6891,
      "▁štúdi": 6892,
      "mit": 6893,
      "▁dvere,": 6894,
      "▁guľ": 6895,
      "\\nf": 6896,
      "lám": 6897,
      "▁zbytoč": 6898,
      "▁pam": 6899,
      "▁nesk": 6900,
      "ňal": 6901,
      "▁nechať": 6902,
      "\\nsú": 6903,
      "▁pekne": 6904,
      "”\\n": 6905,
      "▁odstrá": 6906,
      "▁šľach": 6907,
      "▁Ram": 6908,
      "sko-": 6909,
      "cimi": 6910,
      "har": 6911,
      "▁svia": 6912,
      "com.": 6913,
      "▁apli": 6914,
      "▁deje": 6915,
      "▁koná": 6916,
      "▁poskyt": 6917,
      "▁odchod": 6918,
      "▁krajiny": 6919,
      "stier": 6920,
      "viem": 6921,
      "▁myslel": 6922,
      "ста": 6923,
      "▁za­": 6924,
      ".\\nU": 6925,
      "▁Cat": 6926,
      "▁vyvolá": 6927,
      "▁demokra": 6928,
      "ks": 6929,
      "▁Mon": 6930,
      "▁Ly": 6931,
      "▁predstavuje": 6932,
      "▁hrie": 6933,
      "▁niet": 6934,
      "▁predtým,": 6935,
      "ňať": 6936,
      "▁auta": 6937,
      "▁Poli": 6938,
      "žie": 6939,
      "▁viedol": 6940,
      "vlád": 6941,
      "▁lady": 6942,
      "jedná": 6943,
      "▁ohni": 6944,
      "ail": 6945,
      "čiatku": 6946,
      "▁tvrdo": 6947,
      "rost": 6948,
      "kami,": 6949,
      "▁hovor,": 6950,
      "▁neskor": 6951,
      "[3": 6952,
      "bok": 6953,
      "▁viem": 6954,
      "▁typ": 6955,
      "▁medi": 6956,
      "Teraz": 6957,
      "78": 6958,
      ".\\n\\nN": 6959,
      "▁201": 6960,
      "▁Naozaj": 6961,
      "▁problémy": 6962,
      "▁_dok.": 6963,
      "▁‚": 6964,
      "▁hlavu,": 6965,
      "▁obed": 6966,
      "▁lode": 6967,
      "▁časo": 6968,
      "isti": 6969,
      "▁muž,": 6970,
      "▁zvlád": 6971,
      "▁otvorila": 6972,
      "▁pozrie": 6973,
      "▁sľub": 6974,
      "▁zábav": 6975,
      "▁pätná": 6976,
      "šný": 6977,
      "ďme": 6978,
      "nejšia": 6979,
      "▁dieťať": 6980,
      ".\\n_": 6981,
      "▁odvrá": 6982,
      "▁ospravedl": 6983,
      "▁systému": 6984,
      "nejšie,": 6985,
      "povedal": 6986,
      "már": 6987,
      "ôdz": 6988,
      "▁prístav": 6989,
      "ív": 6990,
      "nál": 6991,
      "▁p-": 6992,
      "▁pod.": 6993,
      "▁podstate": 6994,
      "▁uži": 6995,
      "▁hnev": 6996,
      "▁znie": 6997,
      "▁teles": 6998,
      "▁nedosta": 6999,
      "▁zúfal": 7000,
      "лов": 7001,
      "▁29": 7002,
      "▁tvárou": 7003,
      "▁zabrá": 7004,
      "bách": 7005,
      "▁sťaž": 7006,
      "▁konca": 7007,
      "▁Spoj": 7008,
      "▁(M": 7009,
      "mur": 7010,
      "▁_z": 7011,
      "Ve": 7012,
      "pravy": 7013,
      "kol,": 7014,
      "▁podobne": 7015,
      "▁väčšina": 7016,
      "▁odoh": 7017,
      "▁Joze": 7018,
      "lec": 7019,
      "▁traja": 7020,
      "▁domov,": 7021,
      "▁Všetky": 7022,
      "stúpili": 7023,
      "▁stolí": 7024,
      "tý,": 7025,
      "▁okamih": 7026,
      "▁vrave": 7027,
      "äčš": 7028,
      "atý": 7029,
      "tar": 7030,
      "▁príbeh": 7031,
      "▁poob": 7032,
      "▁": 7033,
      "▁Nor": 7034,
      "vihla": 7035,
      "▁fan": 7036,
      "▁Fi": 7037,
      "▁zákaz": 7038,
      "▁vyhlás": 7039,
      "rt": 7040,
      "▁partne": 7041,
      "­va": 7042,
      "▁skla": 7043,
      "lovej": 7044,
      "▁teraz,": 7045,
      "ET": 7046,
      "xim": 7047,
      "chut": 7048,
      "čkou": 7049,
      "▁pří": 7050,
      "▁priveľmi": 7051,
      "▁lesk": 7052,
      "▁prvá": 7053,
      "\\n\\nk": 7054,
      "▁potrebuje": 7055,
      ".\\n\\nR": 7056,
      "▁Moj": 7057,
      "▁zamrml": 7058,
      "▁Dokonca": 7059,
      "▁Praha": 7060,
      "▁posti": 7061,
      "▁chý": 7062,
      "▁viete,": 7063,
      "▁vrchol": 7064,
      "j.": 7065,
      "pút": 7066,
      "▁nového": 7067,
      "▁vyrie": 7068,
      "▁P.": 7069,
      "▁odmiet": 7070,
      "žin": 7071,
      "▁ktosi": 7072,
      "▁při": 7073,
      "stvo.": 7074,
      "novi": 7075,
      "skym": 7076,
      "▁dvadsia": 7077,
      "▁náma": 7078,
      "▁hľadať": 7079,
      "▁stáva": 7080,
      "czy": 7081,
      "čet": 7082,
      "▁Sad": 7083,
      "▁–\\n": 7084,
      "▁dobrá": 7085,
      "▁kolená": 7086,
      "ssi": 7087,
      "▁cuk": 7088,
      "▁veru": 7089,
      "▁zomrel": 7090,
      "▁svr": 7091,
      "▁ode": 7092,
      "jaci": 7093,
      "rol": 7094,
      "▁je.": 7095,
      "▁motor": 7096,
      "▁zdá": 7097,
      "st,": 7098,
      "▁Hneď": 7099,
      "-**": 7100,
      "álnych": 7101,
      "net": 7102,
      "žel": 7103,
      "ться": 7104,
      "ľaj": 7105,
      "▁vojny": 7106,
      "▁zim": 7107,
      "▁jar": 7108,
      "če,": 7109,
      "ční": 7110,
      "▁ruky,": 7111,
      "ilip": 7112,
      "stavične": 7113,
      "▁doho": 7114,
      "▁Su": 7115,
      "▁oso": 7116,
      "|0,0": 7117,
      "▁doty": 7118,
      "asa": 7119,
      "▁nohavi": 7120,
      "▁trans": 7121,
      "zdy": 7122,
      "vky": 7123,
      "▁zlep": 7124,
      "ňoval": 7125,
      "|1": 7126,
      "▁sied": 7127,
      "@@@@?": 7128,
      "▁Gar": 7129,
      "▁ležal": 7130,
      "tívnej": 7131,
      "peri": 7132,
      "cus": 7133,
      "rád": 7134,
      "▁čaká": 7135,
      "hodne": 7136,
      "ujúcej": 7137,
      "▁krátky": 7138,
      "▁stalo,": 7139,
      "▁tepl": 7140,
      "▁Harryho": 7141,
      "▁cvi": 7142,
      "▁divo": 7143,
      "▁вќ": 7144,
      "▁9.": 7145,
      "▁skve": 7146,
      "▁stranu": 7147,
      "kol.": 7148,
      "lá,": 7149,
      "▁príkaz": 7150,
      "ме": 7151,
      "▁zod": 7152,
      "on,": 7153,
      "▁slabo": 7154,
      "▁chudob": 7155,
      "níctvo": 7156,
      "zte": 7157,
      "ность": 7158,
      "▁chcie": 7159,
      "hlboka": 7160,
      "\\ni": 7161,
      "▁príchod": 7162,
      "▁Go": 7163,
      "▁obrazov": 7164,
      "asi": 7165,
      ".“\\n„S": 7166,
      "\\nT": 7167,
      "▁potichu": 7168,
      "▁(vý": 7169,
      "cítila": 7170,
      "▁zat": 7171,
      "▁nepochyb": 7172,
      "▁ofi": 7173,
      "▁výsku": 7174,
      "ные": 7175,
      "▁najmenej": 7176,
      "▁ô": 7177,
      "▁tradí": 7178,
      "zerala": 7179,
      "stí.": 7180,
      "lat": 7181,
      "................................................................": 7182,
      "\\ntak": 7183,
      "▁cvič": 7184,
      "▁rôzne": 7185,
      "▁Hor": 7186,
      "skal": 7187,
      "ve­": 7188,
      "bila": 7189,
      "▁mierne": 7190,
      "lín": 7191,
      "▁ťa,": 7192,
      "▁fú": 7193,
      "си": 7194,
      "▁akého": 7195,
      "ство": 7196,
      "▁možné,": 7197,
      "▁kľúč": 7198,
      "▁pomerne": 7199,
      "▁inform": 7200,
      "rádz": 7201,
      "ÁN": 7202,
      "uži": 7203,
      "▁vlastnú": 7204,
      "▁výbor": 7205,
      "▁komen": 7206,
      "▁vrac": 7207,
      "ané,": 7208,
      "▁jedine": 7209,
      "stvu": 7210,
      "▁Či": 7211,
      "▁kráľa": 7212,
      "▁zámer": 7213,
      "▁Gabrie": 7214,
      "▁ďak": 7215,
      "▁každé": 7216,
      "▁identifi": 7217,
      "ula": 7218,
      "▁ukon": 7219,
      "prázd": 7220,
      "tných": 7221,
      "hly": 7222,
      "▁ty,": 7223,
      "',": 7224,
      "\\n\\nm": 7225,
      "тё": 7226,
      "▁mama": 7227,
      "▁Hovor": 7228,
      "1-": 7229,
      ".“\\n„Ne": 7230,
      "▁poriadku,": 7231,
      "▁skupin": 7232,
      "▁zobud": 7233,
      "▁Povedal": 7234,
      "oci": 7235,
      "ly,": 7236,
      "rus": 7237,
      "▁troj": 7238,
      "▁energi": 7239,
      "ateľ": 7240,
      "јн": 7241,
      "▁konštruk": 7242,
      "\\npr": 7243,
      "▁deť": 7244,
      "▁najavo": 7245,
      "musí": 7246,
      "tina": 7247,
      "▁II.": 7248,
      "▁Svä": 7249,
      "▁trval": 7250,
      "▁Takže": 7251,
      "▁systé": 7252,
      "fú": 7253,
      "▁Jú": 7254,
      "▁sedad": 7255,
      "▁Gra": 7256,
      "▁menom": 7257,
      "▁koru": 7258,
      "▁spomenu": 7259,
      "▁ruky.": 7260,
      "cest": 7261,
      "▁Pi": 7262,
      "▁spán": 7263,
      "▁skupina": 7264,
      "lis": 7265,
      "▁čít": 7266,
      "tiz": 7267,
      "padne": 7268,
      "▁ten,": 7269,
      "▁povrch": 7270,
      "▁kles": 7271,
      "šov": 7272,
      "▁sila": 7273,
      "ňa.": 7274,
      "▁hlavu.": 7275,
      "f,": 7276,
      "ome": 7277,
      "ujúc": 7278,
      ".\\nVy": 7279,
      "­**\\n**": 7280,
      "rová": 7281,
      "▁pripomín": 7282,
      "log": 7283,
      "▁dlhý": 7284,
      "čku,": 7285,
      "Takže": 7286,
      "ili,": 7287,
      "správ": 7288,
      "▁sprevádz": 7289,
      "behli": 7290,
      "▁klasi": 7291,
      "▁puš": 7292,
      "▁proble": 7293,
      "▁palu": 7294,
      "▁podla": 7295,
      "není": 7296,
      "▁nut": 7297,
      "ajú,": 7298,
      "▁под": 7299,
      "▁ruž": 7300,
      "▁zare": 7301,
      "▁niečom": 7302,
      "▁predo": 7303,
      "▁začalo": 7304,
      "KO": 7305,
      "uper": 7306,
      "▁nemysl": 7307,
      "▁uvidel": 7308,
      "▁nepotreb": 7309,
      "ké,": 7310,
      "▁ozna": 7311,
      "▁vylie": 7312,
      "--------": 7313,
      "▁uch": 7314,
      "▁-ujú": 7315,
      "▁ш": 7316,
      "▁prvého": 7317,
      "tové": 7318,
      "▁fotografi": 7319,
      "tkov": 7320,
      "dilo": 7321,
      "dva": 7322,
      "ôver": 7323,
      "▁Určite": 7324,
      "terá": 7325,
      "▁Kam": 7326,
      "▁nebudem": 7327,
      "▁ti,": 7328,
      "▁kontex": 7329,
      "▁nových": 7330,
      "▁krku": 7331,
      "ля": 7332,
      "nejších": 7333,
      "diť,": 7334,
      "45": 7335,
      "▁bohov": 7336,
      "▁vak": 7337,
      "mok": 7338,
      "▁vyle": 7339,
      "ckeho": 7340,
      "kolo": 7341,
      "násob": 7342,
      "?“\\r\\n„": 7343,
      "тђ": 7344,
      "▁najskôr": 7345,
      "▁práce,": 7346,
      "pravu": 7347,
      "▁život,": 7348,
      "▁-ajú": 7349,
      "▁Teda": 7350,
      "gno": 7351,
      "rié": 7352,
      "▁koncep": 7353,
      "▁zahu": 7354,
      "aka": 7355,
      "▁myšlienky": 7356,
      ".\\r\\n„": 7357,
      "-\\n_": 7358,
      "soch": 7359,
      "ink": 7360,
      "▁Net": 7361,
      "▁Jan": 7362,
      "túry": 7363,
      "oli": 7364,
      "р‡": 7365,
      "kul": 7366,
      "▁prešla": 7367,
      "▁dedič": 7368,
      "▁pozdrav": 7369,
      "▁kó": 7370,
      "▁Val": 7371,
      "▁zamestna": 7372,
      "▁úsil": 7373,
      "▁7.": 7374,
      "▁využi": 7375,
      "▁brehu": 7376,
      "▁vraž": 7377,
      "▁rozdie": 7378,
      "▁pokry": 7379,
      "▁školy": 7380,
      "▁druhé": 7381,
      "▁nepred": 7382,
      "▁prospe": 7383,
      "tené": 7384,
      "▁„No": 7385,
      "▁Mali": 7386,
      "▁tvoja": 7387,
      "▁postele": 7388,
      "▁nevin": 7389,
      "▁-у": 7390,
      "▁dokonal": 7391,
      "▁anti": 7392,
      "robiť": 7393,
      "sé": 7394,
      "```\\n": 7395,
      "▁35": 7396,
      "▁obdiv": 7397,
      "▁muža,": 7398,
      "▁škatu": 7399,
      "▁navzájom": 7400,
      "▁prizn": 7401,
      "ká,": 7402,
      "▁otvá": 7403,
      "eda,": 7404,
      "novej": 7405,
      "▁pápež": 7406,
      "tného": 7407,
      "▁nejakého": 7408,
      "▁Bal": 7409,
      "▁istého": 7410,
      "▁ďalej.": 7411,
      "ben": 7412,
      "zy,": 7413,
      "▁vieš,": 7414,
      "▁činnosť": 7415,
      "▁pú": 7416,
      "▁dav": 7417,
      "▁nástroj": 7418,
      "▁príro": 7419,
      "2)": 7420,
      "▁priná": 7421,
      "▁otra": 7422,
      "zdob": 7423,
      "_\\n\\n\\n": 7424,
      "dr": 7425,
      "▁sedela": 7426,
      "▁agen": 7427,
      "▁urobili": 7428,
      "▁nak": 7429,
      "▁výz": 7430,
      "▁deb": 7431,
      "álna": 7432,
      "▁ukry": 7433,
      "risto": 7434,
      "▁inej": 7435,
      "Kde": 7436,
      "▁cháp": 7437,
      "ď.": 7438,
      "▁zabezpeč": 7439,
      "meno": 7440,
      "▁zloži": 7441,
      "▁inteli": 7442,
      "istra": 7443,
      "até": 7444,
      "viedli": 7445,
      "35": 7446,
      "▁mier": 7447,
      "▁mojom": 7448,
      "AV": 7449,
      "\\ne": 7450,
      "▁snažil": 7451,
      "▁oto": 7452,
      "▁odsúd": 7453,
      "▁byt": 7454,
      "▁sloves": 7455,
      "рљ": 7456,
      "rať,": 7457,
      "▁vonku": 7458,
      "▁pĹTM": 7459,
      "▁steny": 7460,
      "▁Pozrel": 7461,
      "nutím": 7462,
      "enské": 7463,
      "múr": 7464,
      "ložiť": 7465,
      "▁miery": 7466,
      "се": 7467,
      "▁rýchlej": 7468,
      "▁schopný": 7469,
      "iste": 7470,
      "▁boja": 7471,
      "▁Tra": 7472,
      "myslel": 7473,
      "▁usmiala": 7474,
      "▁vezme": 7475,
      "stali": 7476,
      "▁znamená,": 7477,
      "▁nevedel,": 7478,
      "▁rizi": 7479,
      "▁Bu": 7480,
      "sky.": 7481,
      "▁zdvo": 7482,
      "▁Á": 7483,
      "▁chcú": 7484,
      "▁Oči": 7485,
      "▁ja.": 7486,
      "formá": 7487,
      "ovek": 7488,
      "▁kolo": 7489,
      "koch,": 7490,
      "▁charakter": 7491,
      "▁zvuk": 7492,
      "-a": 7493,
      "Pred": 7494,
      "▁Lebo": 7495,
      "▁vyšetrov": 7496,
      "▁Cal": 7497,
      "▁orgá": 7498,
      "▁odtiaľto": 7499,
      "▁obrátila": 7500,
      "▁Bil": 7501,
      "▁„Za": 7502,
      "a": 7503,
      "▁nosi": 7504,
      "▁život.": 7505,
      "?\"\\n„": 7506,
      "▁objavil": 7507,
      "▁bolo,": 7508,
      "▁3,": 7509,
      "▁zakry": 7510,
      "smie": 7511,
      "мљ": 7512,
      "bar": 7513,
      "вё": 7514,
      "lobod": 7515,
      "▁podmienky": 7516,
      "сь": 7517,
      "stickej": 7518,
      "\\nR": 7519,
      "▁vyno": 7520,
      "▁-ie": 7521,
      "vz": 7522,
      "▁inte": 7523,
      "▁zavá": 7524,
      "▁Najprv": 7525,
      "▁žele": 7526,
      "▁nej.": 7527,
      "▁Čas": 7528,
      "▁vydých": 7529,
      "▁urobila": 7530,
      "▁10.": 7531,
      "▁preu": 7532,
      "lár": 7533,
      "▁zdalo,": 7534,
      "▁poško": 7535,
      "▁odhad": 7536,
      "▁Akoby": 7537,
      "▁osoby": 7538,
      "▁rozpo": 7539,
      "čítal": 7540,
      "každ": 7541,
      "▁11.": 7542,
      "▁zhod": 7543,
      "▁zasad": 7544,
      "мё": 7545,
      "▁boha": 7546,
      "▁repre": 7547,
      "skov": 7548,
      "▁príčin": 7549,
      "Å¡": 7550,
      "koná": 7551,
      "▁nedáv": 7552,
      "túra": 7553,
      "▁vodu": 7554,
      "▁malá": 7555,
      "▁prax": 7556,
      "▁najbliž": 7557,
      "ďale": 7558,
      "nol": 7559,
      "▁Ser": 7560,
      "mus": 7561,
      "trie": 7562,
      "▁vzdela": 7563,
      "ózne": 7564,
      "▁veku": 7565,
      "▁vply": 7566,
      "nanie": 7567,
      "▁nevšim": 7568,
      "tky,": 7569,
      "▁špin": 7570,
      "vá,": 7571,
      "\\n\\n\\n-----\\n\\n**": 7572,
      "▁Mag": 7573,
      "ско": 7574,
      "▁risk": 7575,
      "▁podnik": 7576,
      "časti": 7577,
      ".\\nAle": 7578,
      "▁vyššie": 7579,
      "tosti": 7580,
      "▁dobre.": 7581,
      "ски": 7582,
      "lom,": 7583,
      "žné": 7584,
      "prene": 7585,
      "Pro": 7586,
      "▁ponu": 7587,
      "ľou": 7588,
      "čeb": 7589,
      "▁spomína": 7590,
      "па": 7591,
      "eru": 7592,
      "nú,": 7593,
      "▁očakáv": 7594,
      "▁(s": 7595,
      "▁Chcem": 7596,
      "▁okulia": 7597,
      "lh": 7598,
      "činy": 7599,
      "vku": 7600,
      "▁istom": 7601,
      "tovi": 7602,
      "со": 7603,
      "▁ulič": 7604,
      "olfe": 7605,
      "▁é": 7606,
      "▁mená": 7607,
      "▁„Keď": 7608,
      "▁priemer": 7609,
      "▁našla": 7610,
      "▁zásob": 7611,
      "\\nC": 7612,
      "rmi": 7613,
      "▁osa": 7614,
      "▁otvo": 7615,
      "lení": 7616,
      "▁uč": 7617,
      "▁tak.": 7618,
      "zív": 7619,
      "ги": 7620,
      "soby": 7621,
      "ei": 7622,
      "▁a": 7623,
      "▁popu": 7624,
      "nútra": 7625,
      "▁Chvíľu": 7626,
      "▁Bro": 7627,
      "▁presvedčený,": 7628,
      "▁upre": 7629,
      "BN": 7630,
      "▁ý": 7631,
      ".\\n\\nNe": 7632,
      "▁zvedavo": 7633,
      "▁výklad": 7634,
      "▁kní": 7635,
      "▁vyšla": 7636,
      "cií,": 7637,
      "▁her": 7638,
      "kán": 7639,
      "48": 7640,
      "\\n\\n": 7641,
      "▁nejako": 7642,
      "▁píše": 7643,
      "fon": 7644,
      "▁išiel": 7645,
      "▁mon": 7646,
      "hoch": 7647,
      "▁Cam": 7648,
      "▁Ros": 7649,
      "▁úzko": 7650,
      "▁bolesť": 7651,
      "▁Izra": 7652,
      "šetci": 7653,
      "\\nsvoj": 7654,
      "▁vidieť,": 7655,
      "rich": 7656,
      "▁ďalej,": 7657,
      "nesie": 7658,
      "▁36": 7659,
      "▁Takto": 7660,
      "▁zločin": 7661,
      "▁ote": 7662,
      "▁tova": 7663,
      "јр": 7664,
      "▁vypad": 7665,
      "oktor": 7666,
      "▁mňa.": 7667,
      "Tu": 7668,
      "lud": 7669,
      "▁Chla": 7670,
      "vate": 7671,
      "▁dverám": 7672,
      "▁reži": 7673,
      "beth": 7674,
      "▁Potreb": 7675,
      "▁nôž": 7676,
      "▁zub": 7677,
      "enstva": 7678,
      "ный,": 7679,
      "▁nehovor": 7680,
      "▁spál": 7681,
      "▁nepá": 7682,
      "▁mag": 7683,
      "ujúca": 7684,
      "▁kapitola": 7685,
      "tívnych": 7686,
      "vied": 7687,
      "▁zajat": 7688,
      "▁občian": 7689,
      "],": 7690,
      "▁požiadav": 7691,
      "▁kňaz": 7692,
      "▁odhal": 7693,
      "▁skri": 7694,
      "▁slnko": 7695,
      "||||||||": 7696,
      "▁európ": 7697,
      "tovala": 7698,
      "▁záhra": 7699,
      "e": 7700,
      "▁razy": 7701,
      "skému": 7702,
      "▁van": 7703,
      "▁nevid": 7704,
      "����": 7705,
      "▁okolností": 7706,
      "▁nede": 7707,
      "▁neg": 7708,
      "trolov": 7709,
      "SS": 7710,
      "▁Pov": 7711,
      "ma,": 7712,
      "kujú": 7713,
      "▁neexist": 7714,
      "▁Parí": 7715,
      "▁osô": 7716,
      "▁bož": 7717,
      "▁pest": 7718,
      ".\\nG": 7719,
      "ward": 7720,
      "▁použiť": 7721,
      "▁zuby": 7722,
      "▁sexu": 7723,
      "▁inšpe": 7724,
      "▁dcéra": 7725,
      "].": 7726,
      "▁ре": 7727,
      "▁vyber": 7728,
      "tit": 7729,
      "▁(H": 7730,
      "cii.": 7731,
      "▁60": 7732,
      "▁podobe": 7733,
      "▁iné,": 7734,
      "▁Slovenskej": 7735,
      "pot": 7736,
      "▁prepad": 7737,
      "▁rozu": 7738,
      "▁dví": 7739,
      "▁pop": 7740,
      "▁upra": 7741,
      "line": 7742,
      "hodla": 7743,
      "vané": 7744,
      "cet": 7745,
      "▁stene": 7746,
      "▁vlastný": 7747,
      "▁jazykov": 7748,
      "▁minulosti": 7749,
      "nen": 7750,
      "▁что": 7751,
      "▁dospel": 7752,
      ",,": 7753,
      "▁koleg": 7754,
      "▁domu,": 7755,
      "?\"\\n\\n": 7756,
      "▁nehyb": 7757,
      "ска": 7758,
      "â": 7759,
      "ovými": 7760,
      "▁plný": 7761,
      "â": 7762,
      "▁uši": 7763,
      "▁hľadela": 7764,
      "romažd": 7765,
      "▁šep": 7766,
      "nenia": 7767,
      "ri.": 7768,
      "▁poze": 7769,
      "▁podzem": 7770,
      "rové": 7771,
      "▁druhá": 7772,
      "▁hlavne": 7773,
      "▁žena,": 7774,
      "▁Os": 7775,
      "▁poznal": 7776,
      "▁začul": 7777,
      "▁dobrú": 7778,
      "▁posil": 7779,
      "noh": 7780,
      "▁tvoria": 7781,
      "|\\n||": 7782,
      "▁hovor.": 7783,
      "Å3⁄4": 7784,
      "šné": 7785,
      "kar": 7786,
      "▁Fer": 7787,
      "▁usporiad": 7788,
      "\\nkon": 7789,
      "▁před": 7790,
      "▁hrozi": 7791,
      "mel": 7792,
      "nden": 7793,
      "zácia": 7794,
      "ты": 7795,
      "▁prekáž": 7796,
      "▁Musím": 7797,
      "vené": 7798,
      "čila,": 7799,
      "▁mlčky": 7800,
      "tiť,": 7801,
      "▁existuje": 7802,
      "▁opís": 7803,
      "▁istá,": 7804,
      "▁20.": 7805,
      "mé": 7806,
      "▁vypla": 7807,
      "▁stanov": 7808,
      "tiež": 7809,
      "▁síl": 7810,
      "▁zastavil": 7811,
      "pia": 7812,
      "▁dž": 7813,
      "chot": 7814,
      "▁údol": 7815,
      "aktor": 7816,
      "▁vyze": 7817,
      "▁želez": 7818,
      "▁(T": 7819,
      "čier": 7820,
      "kazuje": 7821,
      "▁otočil": 7822,
      "▁„Nech": 7823,
      "▁dôsledku": 7824,
      "gin": 7825,
      "lade": 7826,
      "▁profesi": 7827,
      "nie.": 7828,
      "▁kat": 7829,
      "▁ich,": 7830,
      "▁opra": 7831,
      "лу": 7832,
      "раз": 7833,
      "▁prikývol.": 7834,
      "▁„Len": 7835,
      "▁mate": 7836,
      "▁sloven": 7837,
      "▁nikomu": 7838,
      "hostaj": 7839,
      "▁_s": 7840,
      "▁R.": 7841,
      "▁Tal": 7842,
      "▁Hag": 7843,
      "▁sten": 7844,
      "čine": 7845,
      "radil": 7846,
      "radšej": 7847,
      "▁vyho": 7848,
      "\\nvz": 7849,
      "du,": 7850,
      "b)": 7851,
      "▁zamyslen": 7852,
      "▁peňazí": 7853,
      "kácie": 7854,
      "schen": 7855,
      "tum": 7856,
      "▁ticho.": 7857,
      "▁polož": 7858,
      "ciách": 7859,
      "▁prebie": 7860,
      "▁rozoz": 7861,
      "▁koz": 7862,
      "▁arche": 7863,
      "▁preňho": 7864,
      "▁zobraz": 7865,
      "anlivo": 7866,
      "▁Tro": 7867,
      "ttp": 7868,
      "člen": 7869,
      "iaľ,": 7870,
      "▁Tým": 7871,
      "▁Ďal": 7872,
      "ivot": 7873,
      "▁Čier": 7874,
      "▁akosi": 7875,
      "skak": 7876,
      "199": 7877,
      "▁pomyslela": 7878,
      "▁un": 7879,
      "ší.": 7880,
      "▁elektri": 7881,
      "ptem": 7882,
      "▁Nechce": 7883,
      "▁vlády": 7884,
      "▁nej,": 7885,
      "▁8.": 7886,
      "▁epi": 7887,
      "▁е": 7888,
      "zoru": 7889,
      "▁pripomína": 7890,
      "▁súčasne": 7891,
      "▁možnosti": 7892,
      "▁„Som": 7893,
      "▁scé": 7894,
      "▁pust": 7895,
      "▁(a": 7896,
      "▁deväť": 7897,
      "▁rozhodnutie": 7898,
      "▁vežmi": 7899,
      ";\\n_": 7900,
      "▁osla": 7901,
      "▁vašej": 7902,
      "livý": 7903,
      "▁Hermiona": 7904,
      "▁ner": 7905,
      "yn": 7906,
      "ney": 7907,
      "rážd": 7908,
      "▁slúchad": 7909,
      "\\n\\n(": 7910,
      "▁zabo": 7911,
      "▁lenže": 7912,
      "▁Žid": 7913,
      "▁Videl": 7914,
      "mia": 7915,
      "▁HG": 7916,
      "▁пре": 7917,
      "▁Sp": 7918,
      "atr": 7919,
      "▁navští": 7920,
      "ovanie,": 7921,
      "▁Gal": 7922,
      "▁rade": 7923,
      "▁špecifi": 7924,
      "▁mlád": 7925,
      "47": 7926,
      "@@@@@@": 7927,
      "útne": 7928,
      "▁raňaj": 7929,
      "▁typu": 7930,
      "▁prípadoch": 7931,
      "De": 7932,
      "▁priatelia": 7933,
      "▁zostať": 7934,
      "\\nho": 7935,
      "▁utie": 7936,
      "▁natoľko": 7937,
      "zeň": 7938,
      "▁lodi": 7939,
      "▁nejaká": 7940,
      "fal": 7941,
      "▁hádam": 7942,
      "ácia": 7943,
      "▁žijú": 7944,
      "▁„Pri": 7945,
      "bližne": 7946,
      "▁tisí": 7947,
      "▁K.": 7948,
      "▁súčasťou": 7949,
      "▁forme": 7950,
      "stich": 7951,
      "▁Európ": 7952,
      "cionál": 7953,
      "▁malú": 7954,
      "▁druhov": 7955,
      "▁tanie": 7956,
      "46": 7957,
      "▁D.": 7958,
      "▁jestv": 7959,
      "▁naďalej": 7960,
      "▁ďalšiu": 7961,
      "▁rady": 7962,
      "▁hodnota": 7963,
      "▁hviezd": 7964,
      "▁knie": 7965,
      "bral": 7966,
      "jeme": 7967,
      "čivo": 7968,
      "▁tomuto": 7969,
      "▁prstami": 7970,
      "▁ľudí.": 7971,
      "▁SR": 7972,
      "▁naposled": 7973,
      "▁päťdesiat": 7974,
      "con": 7975,
      "tkom": 7976,
      "▁plece": 7977,
      "los": 7978,
      "‡ться": 7979,
      "▁hoj": 7980,
      "▁Col": 7981,
      "▁pren.": 7982,
      "tmi": 7983,
      "▁tó": 7984,
      "ro,": 7985,
      "▁spoločné": 7986,
      "got": 7987,
      "ľa,": 7988,
      "▁Jean": 7989,
      "-e": 7990,
      "stý": 7991,
      "sahov": 7992,
      "význam": 7993,
      "▁dobrovoľ": 7994,
      "▁slúž": 7995,
      "ров": 7996,
      "▁mn": 7997,
      "▁„Mus": 7998,
      "▁zamieril": 7999,
      "▁das": 8000,
      "▁Pal": 8001,
      "rozprá": 8002,
      "ostat": 8003,
      "▁nariad": 8004,
      "▁nadobud": 8005,
      "čania": 8006,
      "▁tvár,": 8007,
      "▁drah": 8008,
      "▁štý": 8009,
      "žeh": 8010,
      "▁vrátili": 8011,
      "živ": 8012,
      "tok.": 8013,
      "▁vytvor": 8014,
      "▁úc": 8015,
      "▁poslednom": 8016,
      "▁mláde": 8017,
      "Ex": 8018,
      "▁vzala": 8019,
      "▁parti": 8020,
      "▁očí.": 8021,
      "bl": 8022,
      "ráti": 8023,
      "bot": 8024,
      "ť,“": 8025,
      "▁napísal": 8026,
      "eraz": 8027,
      "▁spáj": 8028,
      "tiky": 8029,
      "▁vy­": 8030,
      "riem": 8031,
      "šia,": 8032,
      "\\nvo": 8033,
      "▁Ľud": 8034,
      "▁nahlas": 8035,
      "▁inú": 8036,
      ").\\n\\n": 8037,
      "▁neďaleko": 8038,
      "sťa": 8039,
      "ajtra": 8040,
      "▁Med": 8041,
      "ujúceho": 8042,
      "▁a": 8043,
      "▁výhod": 8044,
      "▁del": 8045,
      "▁zaraz": 8046,
      "luč": 8047,
      "cas": 8048,
      "\\nG": 8049,
      "▁teóri": 8050,
      "klady": 8051,
      "▁fá": 8052,
      "▁umele": 8053,
      "▁?": 8054,
      "▁nezmen": 8055,
      "▁−": 8056,
      "▁najhor": 8057,
      "▁ľudia,": 8058,
      "▁prikrý": 8059,
      "ročia": 8060,
      "▁obz": 8061,
      "▁falo": 8062,
      "ст‡": 8063,
      "▁typi": 8064,
      "▁bav": 8065,
      "▁biskup": 8066,
      "strov": 8067,
      "▁stov": 8068,
      "▁pohľade": 8069,
      "▁Jane": 8070,
      "▁služby": 8071,
      "▁Arch": 8072,
      "▁mikro": 8073,
      "▁hlas.": 8074,
      "tenie": 8075,
      "tácia": 8076,
      "▁tradi": 8077,
      "▁ní": 8078,
      "az": 8079,
      "pe,": 8080,
      "▁detektív": 8081,
      "tách": 8082,
      "ite": 8083,
      "\\n\\nod": 8084,
      "▁voz": 8085,
      "ravda": 8086,
      "▁toľ": 8087,
      "ražd": 8088,
      "ston": 8089,
      "▁spie": 8090,
      "▁mladí": 8091,
      "▁„Možno": 8092,
      "▁opo": 8093,
      "▁začať": 8094,
      "▁jasné": 8095,
      "tový": 8096,
      "▁dôklad": 8097,
      "▁oprel": 8098,
      "\\nsom": 8099,
      "kona": 8100,
      "▁reprodu": 8101,
      "ktora": 8102,
      "cieho": 8103,
      "▁kúpeľ": 8104,
      "▁realiz": 8105,
      "▁ženy,": 8106,
      "▁ozaj": 8107,
      "▁pokož": 8108,
      "ttp://": 8109,
      "ď,": 8110,
      "▁(K": 8111,
      "▁starej": 8112,
      "▁známe": 8113,
      "▁\\r\\n": 8114,
      "▁olej": 8115,
      "▁ustavične": 8116,
      "ska.": 8117,
      "▁papier": 8118,
      "▁pôj": 8119,
      "▁kraji": 8120,
      "▁zru": 8121,
      "▁hlúpo": 8122,
      "▁ponáhľ": 8123,
      "▁Old": 8124,
      "▁okolí": 8125,
      "▁formy": 8126,
      "omo": 8127,
      "▁domov.": 8128,
      "▁zabil": 8129,
      "▁podozri": 8130,
      "V.": 8131,
      "zemie": 8132,
      "Bol": 8133,
      "ery": 8134,
      "▁niečoho": 8135,
      "▁organiz": 8136,
      "yseľ": 8137,
      "▁mé": 8138,
      "▁príd.": 8139,
      "zili": 8140,
      "▁tvár.": 8141,
      "bre": 8142,
      "▁zvolala": 8143,
      "▁steh": 8144,
      "mohla": 8145,
      "▁nespráv": 8146,
      "▁vyzerala": 8147,
      "špi": 8148,
      "▁potu": 8149,
      "▁uškr": 8150,
      "▁obsahuje": 8151,
      "kal,": 8152,
      "tola": 8153,
      "▁mě": 8154,
      "▁svedom": 8155,
      "▁Nebolo": 8156,
      "▁detí": 8157,
      "▁nas": 8158,
      "▁bur": 8159,
      "▁židov": 8160,
      "▁posád": 8161,
      "\\nmu": 8162,
      "tych": 8163,
      "tiahnuť": 8164,
      "▁slá": 8165,
      "písal": 8166,
      "▁sprievod": 8167,
      "ľuje": 8168,
      "▁umiest": 8169,
      "ých,": 8170,
      "\\nse": 8171,
      "▁o.": 8172,
      "▁ozvala": 8173,
      "▁zmy": 8174,
      "▁vieš": 8175,
      "▁jemne": 8176,
      "zť": 8177,
      "▁plie": 8178,
      "ležitej": 8179,
      "▁(napr.": 8180,
      "▁Sc": 8181,
      "▁analy": 8182,
      "­to": 8183,
      "ávalo": 8184,
      "▁zahľadel": 8185,
      "nikov": 8186,
      "▁chal": 8187,
      "ností,": 8188,
      "▁sledoval": 8189,
      "▁zaslú": 8190,
      "▁potla": 8191,
      "▁prípadne": 8192,
      "lon": 8193,
      "▁**2": 8194,
      "▁zamestná": 8195,
      "▁svetle": 8196,
      "▁ním.": 8197,
      "▁zastre": 8198,
      "▁Napríklad": 8199,
      "▁konkrét": 8200,
      "▁Dia": 8201,
      "▁inštitú": 8202,
      "▁„Do": 8203,
      "\t\t": 8204,
      "ovaž": 8205,
      "▁majiteľ": 8206,
      "hoe": 8207,
      "▁teore": 8208,
      "ždy,": 8209,
      "▁Bri": 8210,
      "▁Adam": 8211,
      "▁vystav": 8212,
      "▁mater": 8213,
      "d": 8214,
      "▁ap": 8215,
      "kami.": 8216,
      "▁Hod": 8217,
      "▁šikov": 8218,
      "▁otvorili": 8219,
      "▁naspäť": 8220,
      "loch": 8221,
      "▁Sal": 8222,
      "▁poriadku.": 8223,
      "▁získal": 8224,
      "▁tretí": 8225,
      "tvorila": 8226,
      "▁fe": 8227,
      "▁poten": 8228,
      "▁aka": 8229,
      "▁пере": 8230,
      "▁dopredu": 8231,
      "▁vŕ": 8232,
      "aným": 8233,
      "atá": 8234,
      "▁malej": 8235,
      "▁fara": 8236,
      "▁novú": 8237,
      "▁nezabud": 8238,
      "▁zatvá": 8239,
      "nou,": 8240,
      "čoho": 8241,
      "▁lak": 8242,
      "▁pracovať": 8243,
      "▁sli": 8244,
      "nuli": 8245,
      ".“\\nS": 8246,
      "\\n\\nu": 8247,
      "▁meč": 8248,
      "▁projek": 8249,
      "▁juž": 8250,
      "▁priniesol": 8251,
      "rap": 8252,
      "amo": 8253,
      "▁vpred": 8254,
      "▁nebe": 8255,
      "▁žela": 8256,
      "\\nnaj": 8257,
      "▁zamra": 8258,
      "▁Dar": 8259,
      "koľvek,": 8260,
      "amiesto": 8261,
      "gor": 8262,
      "\\nde": 8263,
      "kus": 8264,
      "▁potom,": 8265,
      "­mi": 8266,
      "ál,": 8267,
      "▁čiasto": 8268,
      "ťahov": 8269,
      "▁každá": 8270,
      "▁labo": 8271,
      ".\\n„D": 8272,
      "▁sedeli": 8273,
      "Poved": 8274,
      "▁meto": 8275,
      "treba": 8276,
      "▁vlastných": 8277,
      "▁sob": 8278,
      "▁jediná": 8279,
      "▁dlhšie": 8280,
      "▁cenu": 8281,
      "▁funkcie": 8282,
      "▁svad": 8283,
      "▁_po": 8284,
      "▁zostane": 8285,
      "ráva": 8286,
      "jazd": 8287,
      "tou,": 8288,
      "▁stoja": 8289,
      "▁nejakej": 8290,
      "▁dotý": 8291,
      "▁vynikajú": 8292,
      "▁mati": 8293,
      ".\\n„Po": 8294,
      "▁Anna": 8295,
      "▁denne": 8296,
      "Nič": 8297,
      "NE": 8298,
      "OLA": 8299,
      "▁spoza": 8300,
      "▁autori": 8301,
      "▁zbraň": 8302,
      "▁Rím": 8303,
      "rom.": 8304,
      "▁týkajú": 8305,
      "chy,": 8306,
      "set": 8307,
      "▁dol": 8308,
      "▁hlavou,": 8309,
      "▁dreven": 8310,
      "ality": 8311,
      "▁Ry": 8312,
      "▁veľkých": 8313,
      "▁zaťaž": 8314,
      "▁ruko": 8315,
      "elika": 8316,
      "▁ji": 8317,
      "▁obec": 8318,
      "▁prebud": 8319,
      "▁&": 8320,
      "▁konku": 8321,
      "▁pokúsil": 8322,
      "▁stanovi": 8323,
      "▁to\\n": 8324,
      "▁celo": 8325,
      "▁čias": 8326,
      "▁uzavre": 8327,
      "▁oznámil": 8328,
      "▁pomedzi": 8329,
      "ženie": 8330,
      "▁preží": 8331,
      "▁všetkými": 8332,
      "▁nepokoj": 8333,
      "▁vrátane": 8334,
      "stáva": 8335,
      "pt": 8336,
      "▁tím": 8337,
      "▁neur": 8338,
      "▁zazrel": 8339,
      "▁čl": 8340,
      "▁vysko": 8341,
      "▁leg": 8342,
      "▁on,": 8343,
      "▁prvých": 8344,
      "▁neustále": 8345,
      "▁Aspoň": 8346,
      "▁uzn": 8347,
      "nis": 8348,
      "šilo": 8349,
      "▁ohroz": 8350,
      "nimo": 8351,
      "▁stru": 8352,
      "▁našom": 8353,
      "▁Môj": 8354,
      "stok": 8355,
      "▁poky": 8356,
      "zácie": 8357,
      "▁pozorne": 8358,
      "▁ublí": 8359,
      "Zá": 8360,
      "▁byl": 8361,
      "▁vysoký": 8362,
      "nej,": 8363,
      "povie": 8364,
      "int": 8365,
      "▁Čí": 8366,
      "el.": 8367,
      "to.": 8368,
      "▁Dá": 8369,
      "▁udržia": 8370,
      "▁šťastie": 8371,
      "OB": 8372,
      ".\\n\\nC": 8373,
      "ovane": 8374,
      "▁blú": 8375,
      "▁zmysl": 8376,
      "▁mnohé": 8377,
      "▁viacerých": 8378,
      "ridge": 8379,
      "hre": 8380,
      "čky.": 8381,
      "▁zmeny": 8382,
      "▁neuveriteľ": 8383,
      "ňami": 8384,
      "ktorá": 8385,
      "▁vaši": 8386,
      "inami": 8387,
      "▁priemysel": 8388,
      "níkmi": 8389,
      "▁brata": 8390,
      "▁vreck": 8391,
      "▁Willia": 8392,
      "ovanú": 8393,
      "liekol": 8394,
      "▁preži": 8395,
      "▁bezpečnost": 8396,
      "uu": 8397,
      "cami,": 8398,
      "▁pás": 8399,
      "tions": 8400,
      "▁lepšie,": 8401,
      "▁(B": 8402,
      "▁pane,": 8403,
      "▁cítiť": 8404,
      "tnú": 8405,
      "▁vzťahov": 8406,
      "вёть": 8407,
      "▁správanie": 8408,
      "ovol": 8409,
      "▁PR": 8410,
      "trel": 8411,
      "▁bron": 8412,
      "chológ": 8413,
      "NA": 8414,
      "sor": 8415,
      "▁v\\n\\n": 8416,
      "▁33": 8417,
      "55": 8418,
      "get": 8419,
      "nus": 8420,
      "▁mieste,": 8421,
      "▁reag": 8422,
      "▁80": 8423,
      "top": 8424,
      "▁pril": 8425,
      "▁Pot": 8426,
      "▁okamihu": 8427,
      "Prv": 8428,
      "▁dojem,": 8429,
      "▁obýva": 8430,
      "▁refle": 8431,
      "téri": 8432,
      "▁zostala": 8433,
      "jad": 8434,
      "uf": 8435,
      "dzi": 8436,
      "?\"\\n\\n„": 8437,
      "čiek": 8438,
      "▁usiloval": 8439,
      "▁prejsť": 8440,
      "▁videla,": 8441,
      "ры": 8442,
      "▁Pav": 8443,
      "▁rádi": 8444,
      "▁nazýva": 8445,
      "▁cieľom": 8446,
      "▁„Aj": 8447,
      "▁nesmierne": 8448,
      "60": 8449,
      "šľa": 8450,
      "▁mad": 8451,
      "▁daž": 8452,
      "▁inými": 8453,
      "rán": 8454,
      "lovensk": 8455,
      "▁oprav": 8456,
      "OVÁ,": 8457,
      "lách": 8458,
      "▁duch": 8459,
      "▁vyhov": 8460,
      "óni": 8461,
      "▁svo": 8462,
      "▁dne": 8463,
      "▁odpad": 8464,
      "hol.": 8465,
      "▁dverí": 8466,
      "roblé": 8467,
      "atu": 8468,
      "▁Ham": 8469,
      "▁uvedomila,": 8470,
      "▁storočí": 8471,
      "Ăş": 8472,
      "gram": 8473,
      "▁odtr": 8474,
      "▁hote": 8475,
      "▁_[": 8476,
      "▁Zrejme": 8477,
      "▁gal": 8478,
      "▁stola": 8479,
      "@@@@@@@@@@@@@@@@@@@@@@@@@@@@@@@@@@@@@@@@@@@@@@@@@@@@@@@@@@@@@@@@@@@@@@@@@@@@@@@@@@@@@@@@@@@@@@@@@@@@@@@@@@@@@@@@@@@@@@@@@@@@@@@@@@@@@@@@@@@@@@@@@@@@@@@@@@@@@@@@@@@@@@@@@@@@@@@@@@@@@@@@@@@@@@@@@@@@@@@@@@@@@@@@@@@@@@@@@@@@@@@@@@@@@@@@@@@@@@@@@@@@@@@@@@@@@@@@": 8480,
      "sťah": 8481,
      "▁bás": 8482,
      "▁led": 8483,
      "▁proto": 8484,
      "▁pozeral": 8485,
      "\\nro": 8486,
      "ón,": 8487,
      "▁musíš": 8488,
      "kvap": 8489,
      "šeobec": 8490,
      "▁členov": 8491,
      "▁smi": 8492,
      "▁leží": 8493,
      "▁cis": 8494,
      "▁opust": 8495,
      "ђй": 8496,
      "▁dole": 8497,
      ".\\n\\nČ": 8498,
      "▁vlastného": 8499,
      "nok,": 8500,
      "ráz": 8501,
      "hú": 8502,
      "▁pomôc": 8503,
      "▁hĺb": 8504,
      "▁12.": 8505,
      "▁Kedy": 8506,
      "▁vzbud": 8507,
      "▁disku": 8508,
      "43": 8509,
      "\\r\\n–": 8510,
      "ralo": 8511,
      "▁H.": 8512,
      ";\\n\\n": 8513,
      "ik": 8514,
      "tož": 8515,
      "▁viete": 8516,
      "nde": 8517,
      "▁more": 8518,
      "▁tera": 8519,
      "▁Fe": 8520,
      "▁tvar": 8521,
      "▁nohami": 8522,
      "▁се": 8523,
      "▁syste": 8524,
      "stať": 8525,
      "er,": 8526,
      "▁pen": 8527,
      "tácie": 8528,
      "▁pácha": 8529,
      "▁vidí": 8530,
      "▁prestal": 8531,
      "arov": 8532,
      "▁mojím": 8533,
      "▁súhlasil": 8534,
      "ána": 8535,
      "▁19.": 8536,
      "▁charakteristi": 8537,
      "▁cin": 8538,
      "X?": 8539,
      "any": 8540,
      "▁plecia": 8541,
      "mosfé": 8542,
      "▁chvíli,": 8543,
      "▁riadi": 8544,
      "▁predpis": 8545,
      "▁To,": 8546,
      "▁dokonale": 8547,
      "рова": 8548,
      "▁zbier": 8549,
      "▁počítač": 8550,
      "til,": 8551,
      "▁War": 8552,
      "▁rozprávať": 8553,
      "▁Bel": 8554,
      "hnuté": 8555,
      "▁spravodlivo": 8556,
      "šli,": 8557,
      "▁Dra": 8558,
      "▁Zem": 8559,
      ":\\n\\n-": 8560,
      "▁návštev": 8561,
      "▁recep": 8562,
      "▁E.": 8563,
      "▁mien": 8564,
      "kalo": 8565,
      "‡тель": 8566,
      "▁_ne": 8567,
      "▁odmen": 8568,
      "▁povol": 8569,
      "slav": 8570,
      "pisu": 8571,
      "▁volal": 8572,
      "tiu": 8573,
      "▁„a": 8574,
      "▁správu": 8575,
      "▁posme": 8576,
      "čnou": 8577,
      "▁zmenil": 8578,
      "▁Mit": 8579,
      "▁Podob": 8580,
      "▁veľkého": 8581,
      "▁vysiela": 8582,
      "▁prstom": 8583,
      "▁poslednej": 8584,
      "aj,": 8585,
      "vv": 8586,
      "níka.": 8587,
      "▁Sloven": 8588,
      "▁hypo": 8589,
      "šil,": 8590,
      "▁Zdá": 8591,
      "▁týka": 8592,
      "▁pomen": 8593,
      "kla,": 8594,
      "▁chlapi": 8595,
      "▁zistiť,": 8596,
      "\\n\\nK": 8597,
      "▁Vid": 8598,
      "kovú": 8599,
      "▁chle": 8600,
      "▁(A": 8601,
      "▁Che": 8602,
      "▁touto": 8603,
      "risti": 8604,
      "tional": 8605,
      "ще": 8606,
      "▁prekvapi": 8607,
      "zoval": 8608,
      "пи": 8609,
      "▁úmysle": 8610,
      "▁území": 8611,
      "бо": 8612,
      "▁l.": 8613,
      "▁ulici": 8614,
      "▁premie": 8615,
      "hand": 8616,
      "▁prehliad": 8617,
      "ave": 8618,
      "▁pripoj": 8619,
      "▁Rus": 8620,
      "▁vedeli,": 8621,
      "ľoval": 8622,
      "nit": 8623,
      "▁vody,": 8624,
      "▁dosah": 8625,
      "▁hre": 8626,
      "▁such": 8627,
      "▁produ": 8628,
      "▁jen": 8629,
      "▁preskú": 8630,
      "▁rozko": 8631,
      ".“\\n„Ale": 8632,
      "▁kráčal": 8633,
      "▁priví": 8634,
      "bert": 8635,
      "▁uvi": 8636,
      "▁príspe": 8637,
      "▁aktu": 8638,
      "\\nalebo": 8639,
      "▁„Od": 8640,
      "▁Ostat": 8641,
      "▁čakať": 8642,
      "▁zjavil": 8643,
      "zes": 8644,
      "Mar": 8645,
      "isk": 8646,
      "▁когђ": 8647,
      "▁nie?": 8648,
      "▁doslov": 8649,
      "▁čita": 8650,
      "▁listy": 8651,
      "▁súhlas": 8652,
      "ova": 8653,
      "covať": 8654,
      "▁eli": 8655,
      "▁nijako": 8656,
      "▁Dva": 8657,
      "▁čo,": 8658,
      "▁Rov": 8659,
      "▁domnie": 8660,
      "▁konštat": 8661,
      "▁civili": 8662,
      "▁získa": 8663,
      "44": 8664,
      ".\\nI": 8665,
      "▁ein": 8666,
      "▁veľkým": 8667,
      "af": 8668,
      "▁omy": 8669,
      "▁Zrazu": 8670,
      "mami": 8671,
      "▁usmial.": 8672,
      "▁sľú": 8673,
      "menej": 8674,
      "▁rešta": 8675,
      "▁života.": 8676,
      "▁Rob": 8677,
      "▁latin": 8678,
      "jas": 8679,
      "ту": 8680,
      "▁príležitosť": 8681,
      "ma.": 8682,
      "darilo": 8683,
      "▁nevším": 8684,
      "onál": 8685,
      "OT": 8686,
      "stalo": 8687,
      "▁naša": 8688,
      "tré": 8689,
      "níkov.": 8690,
      "▁Chy": 8691,
      "▁hodnotu": 8692,
      "lb": 8693,
      "neme": 8694,
      "▁Harry,": 8695,
      "que": 8696,
      "м;": 8697,
      "▁pohla": 8698,
      "▁preklia": 8699,
      "mín": 8700,
      "▁Väčš": 8701,
      "▁_na": 8702,
      "kúnd": 8703,
      "seň": 8704,
      "мен": 8705,
      "▁hum": 8706,
      "▁Am": 8707,
      "▁har": 8708,
      "níkovi": 8709,
      "výš": 8710,
      "▁zan": 8711,
      "aký": 8712,
      "▁radosť": 8713,
      "▁spoluprá": 8714,
      "▁detail": 8715,
      "▁Viem,": 8716,
      "▁;": 8717,
      "▁niž": 8718,
      "▁rodina": 8719,
      "nám": 8720,
      "▁faktor": 8721,
      "▁vášho": 8722,
      "▁sní": 8723,
      "▁Prin": 8724,
      "▁Tr": 8725,
      "Nie.": 8726,
      "▁kata": 8727,
      "▁účast": 8728,
      "▁jednotliv": 8729,
      "vosti": 8730,
      "▁wy": 8731,
      "▁Gré": 8732,
      "▁Pretože": 8733,
      "▁odraz": 8734,
      "tisol": 8735,
      "▁mona": 8736,
      "hen": 8737,
      "\\n\\npri": 8738,
      "ným,": 8739,
      "Y?": 8740,
      "▁štyroch": 8741,
      "nutá": 8742,
      "▁stretol": 8743,
      "ila.": 8744,
      "▁vydal": 8745,
      "▁prechod": 8746,
      "▁povedala.": 8747,
      "tna": 8748,
      "voká": 8749,
      "▁devia": 8750,
      "▁vojvod": 8751,
      "▁domu.": 8752,
      "▁Čak": 8753,
      "▁Raz": 8754,
      "▁robiť,": 8755,
      "▁srdca": 8756,
      "ži,": 8757,
      "▁iní": 8758,
      "▁jad": 8759,
      "▁zabiť": 8760,
      "▁Bob": 8761,
      "?\"\\r\\n„": 8762,
      "keď": 8763,
      "▁zabezpe": 8764,
      "▁rovnová": 8765,
      "▁zašepkal": 8766,
      "ního": 8767,
      "▁hovorí,": 8768,
      "-u": 8769,
      "▁preva": 8770,
      "про": 8771,
      "▁prameň": 8772,
      "brad": 8773,
      "▁vyt": 8774,
      "čík": 8775,
      "šetky": 8776,
      "▁uvádza": 8777,
      "▁teórie": 8778,
      "nové": 8779,
      "nÄ›": 8780,
      "\\nko": 8781,
      "▁zanech": 8782,
      "rub": 8783,
      "▁strašne": 8784,
      "▁Cha": 8785,
      "▁filozof": 8786,
      "▁vozi": 8787,
      "▁bezprostred": 8788,
      "▁(význ.": 8789,
      "▁nerob": 8790,
      "▁potreby": 8791,
      "▁Slová": 8792,
      "▁zahr": 8793,
      "▁odvie": 8794,
      "▁pozad": 8795,
      ")\\n\\n**": 8796,
      "jsť": 8797,
      "čku.": 8798,
      "čiť.": 8799,
      "▁samozrejme,": 8800,
      "▁ním,": 8801,
      "meňa": 8802,
      "▁štyridsať": 8803,
      "▁povzbud": 8804,
      "čina": 8805,
      "▁Pou": 8806,
      "▁krásne": 8807,
      "▁prid.": 8808,
      "▁rodičia": 8809,
      "▁sle": 8810,
      "▁pó": 8811,
      "aty": 8812,
      "ľahli": 8813,
      "ter,": 8814,
      "▁prosím,": 8815,
      "šky": 8816,
      "▁Lou": 8817,
      "▁skrin": 8818,
      "▁nechcem": 8819,
      "▁eine": 8820,
      "▁prenika": 8821,
      "nice,": 8822,
      "▁Ján": 8823,
      "rania": 8824,
      "sal": 8825,
      "▁G.": 8826,
      "▁pln": 8827,
      "▁stretá": 8828,
      "▁schopnosť": 8829,
      "\\n\\nsom": 8830,
      "▁spisov": 8831,
      "▁mn.": 8832,
      "on.": 8833,
      "pisy": 8834,
      "ze,": 8835,
      "▁Jozef": 8836,
      "rate": 8837,
      "▁mó": 8838,
      "▁istú": 8839,
      "▁mäso": 8840,
      "V'": 8841,
      "нљ": 8842,
      "mot": 8843,
      "щи": 8844,
      "▁kdesi": 8845,
      "álu": 8846,
      "▁„Poved": 8847,
      "▁posvä": 8848,
      "▁slovenskej": 8849,
      "▁pokro": 8850,
      "tívna": 8851,
      "▁myslím": 8852,
      "▁com": 8853,
      "▁raz,": 8854,
      "bro": 8855,
      "▁tváre.": 8856,
      "▁knihu": 8857,
      ":\\n\\n„": 8858,
      "­ko": 8859,
      "▁škole": 8860,
      "vala,": 8861,
      "ziu": 8862,
      "▁preru": 8863,
      "49": 8864,
      "rový": 8865,
      "▁strachu": 8866,
      "▁Dal": 8867,
      "▁sám.": 8868,
      "▁došlo": 8869,
      "tě": 8870,
      "▁vrec": 8871,
      "▁zhromažd": 8872,
      "▁peniaze,": 8873,
      "ITOLA": 8874,
      "och.": 8875,
      "▁nazna": 8876,
      "▁tet": 8877,
      "▁dverami": 8878,
      "▁myslieť": 8879,
      "▁života,": 8880,
      "▁nejde": 8881,
      "▁kompli": 8882,
      "šími": 8883,
      "▁„Ty": 8884,
      "-i": 8885,
      "▁stali": 8886,
      "▁prešli": 8887,
      "▁Nej": 8888,
      "▁mono": 8889,
      "▁zostali": 8890,
      "▁minim": 8891,
      "ývali": 8892,
      "at'": 8893,
      "зё": 8894,
      "sek": 8895,
      "▁nábožensk": 8896,
      "▁zave": 8897,
      "▁boku": 8898,
      "ja.": 8899,
      "▁nepozná": 8900,
      "▁norm": 8901,
      "▁vykročil": 8902,
      "ujúcim": 8903,
      "rovateľ": 8904,
      "▁mit": 8905,
      "ovaniu": 8906,
      "\\n\\np": 8907,
      "▁jedená": 8908,
      "▁slová,": 8909,
      "▁spôsob,": 8910,
      "Zd": 8911,
      "▁nepr": 8912,
      "▁podarí": 8913,
      "áni": 8914,
      "áto": 8915,
      "▁zní": 8916,
      "▁lavi": 8917,
      "šťastie": 8918,
      "šať": 8919,
      "▁musíte": 8920,
      "▁čele": 8921,
      "ed.": 8922,
      "lov,": 8923,
      "▁veľkom": 8924,
      "nos": 8925,
      "kácia": 8926,
      "▁nepočul": 8927,
      "?“\\n\\n\t„": 8928,
      "dôležitej": 8929,
      "OS": 8930,
      "win": 8931,
      "nicu": 8932,
      "▁vedela": 8933,
      "havo": 8934,
      "vatelia": 8935,
      "or.": 8936,
      "▁Tí": 8937,
      "ily": 8938,
      "▁prele": 8939,
      "▁model": 8940,
      "▁položila": 8941,
      "lowak": 8942,
      "▁**1**": 8943,
      "ňovanie": 8944,
      "▁procesu": 8945,
      "adiaľ": 8946,
      "▁náhli": 8947,
      "▁Wa": 8948,
      "ча": 8949,
      "I,": 8950,
      "▁kniha": 8951,
      "▁m,": 8952,
      "▁vzhľadom": 8953,
      "▁ostro": 8954,
      "▁stavu": 8955,
      "IL": 8956,
      "▁zmien": 8957,
      "▁stoj": 8958,
      "▁nevz": 8959,
      "▁ozbroj": 8960,
      "Pok": 8961,
      "dé": 8962,
      "▁starosti": 8963,
      "▁nebudú": 8964,
      "▁sekúnd": 8965,
      "▁vašu": 8966,
      "cha.": 8967,
      "il": 8968,
      "y,“": 8969,
      "▁diel": 8970,
      "▁rada,": 8971,
      "▁opýtala": 8972,
      "\\n\\n-----\\n\\n": 8973,
      "▁Im": 8974,
      "▁jednot": 8975,
      "enému": 8976,
      "rúc": 8977,
      "▁myslí": 8978,
      "tav": 8979,
      "ђр": 8980,
      "▁over": 8981,
      "▁spro": 8982,
      "ín.": 8983,
      "▁popo": 8984,
      "nejším": 8985,
      "▁konferen": 8986,
      "▁pokračovala": 8987,
      "jal": 8988,
      "rr": 8989,
      "▁prístroj": 8990,
      "▁novej": 8991,
      "▁zriedka": 8992,
      "▁prerušil": 8993,
      "ђд": 8994,
      "▁podišiel": 8995,
      "Toto": 8996,
      "akú": 8997,
      "▁Dru": 8998,
      "ник": 8999,
      "old": 9000,
      "▁drs": 9001,
      "▁čomu": 9002,
      "▁porovnaní": 9003,
      "▁orig": 9004,
      "▁obrovské": 9005,
      "čka.": 9006,
      "oden": 9007,
      "ste,": 9008,
      "▁úvahy": 9009,
      "si,": 9010,
      "▁Zam": 9011,
      "▁istá": 9012,
      "škod": 9013,
      "вј": 9014,
      "▁Ala": 9015,
      "▁cítil,": 9016,
      "▁_p": 9017,
      "lečna": 9018,
      "▁stretnutie": 9019,
      "▁zovre": 9020,
      "ED": 9021,
      "isár": 9022,
      "▁chodiť": 9023,
      ".\\n„Tak": 9024,
      "▁predstaviť,": 9025,
      "▁chrbte": 9026,
      "vec": 9027,
      "skoslovensk": 9028,
      "rand": 9029,
      "▁zvyčaj": 9030,
      "70": 9031,
      "Vo": 9032,
      "лю": 9033,
      "▁prikázal": 9034,
      "ľ,": 9035,
      "▁šla": 9036,
      "▁(ob": 9037,
      "▁niekoľkými": 9038,
      "lená": 9039,
      "chla": 9040,
      "▁doko": 9041,
      "▁sebou.": 9042,
      "▁milen": 9043,
      "ца": 9044,
      "▁kľu": 9045,
      "▁rozprával": 9046,
      "▁neop": 9047,
      "▁Vari": 9048,
      "▁októ": 9049,
      "▁pokúšal": 9050,
      "▁postavenie": 9051,
      "▁nijakú": 9052,
      "▁myseľ": 9053,
      "▁zisk": 9054,
      "zdu": 9055,
      "čila.": 9056,
      "▁navždy": 9057,
      "▁nô": 9058,
      "HO": 9059,
      "ľavo": 9060,
      "iace": 9061,
      "▁Druh": 9062,
      "▁pozoroval": 9063,
      "▁dušev": 9064,
      "▁filozofi": 9065,
      "▁prekvapene": 9066,
      "),\\n": 9067,
      "hing": 9068,
      "жи": 9069,
      "bež": 9070,
      "▁zem.": 9071,
      "▁obdobie": 9072,
      "Ma": 9073,
      "ári": 9074,
      "ľovať": 9075,
      "▁chorob": 9076,
      "▁Tur": 9077,
      "▁právni": 9078,
      "▁klien": 9079,
      "▁stvor": 9080,
      "ných,": 9081,
      "▁Ť": 9082,
      "▁suk": 9083,
      "▁мо": 9084,
      "­\\n######": 9085,
      "▁svetla": 9086,
      "ili.": 9087,
      "▁cer": 9088,
      "▁poruš": 9089,
      "▁»": 9090,
      "moni": 9091,
      "▁držať": 9092,
      "▁ukázala": 9093,
      "Som": 9094,
      "col": 9095,
      "▁pram": 9096,
      "\\naj": 9097,
      "▁našu": 9098,
      "▁regi": 9099,
      "▁milá": 9100,
      "▁žiari": 9101,
      "Å¥": 9102,
      "jeho": 9103,
      "▁vopred": 9104,
      "▁ničom": 9105,
      "▁prechádz": 9106,
      "▁nedal": 9107,
      "▁cirkvi": 9108,
      "▁pover": 9109,
      "▁výsledky": 9110,
      "▁oheň": 9111,
      "Ã­": 9112,
      "▁né": 9113,
      "▁Rýchlo": 9114,
      "▁22": 9115,
      "▁Uvedom": 9116,
      "nejšie.": 9117,
      "▁budovy": 9118,
      "istor": 9119,
      "▁písom": 9120,
      "▁zapad": 9121,
      "▁Obaja": 9122,
      "▁plav": 9123,
      "ee": 9124,
      "▁boji": 9125,
      "▁Pravda": 9126,
      "▁podrážd": 9127,
      "▁ležala": 9128,
      "▁plukov": 9129,
      "▁trpezlivo": 9130,
      "an.": 9131,
      "▁(ne": 9132,
      "▁Jul": 9133,
      "nin": 9134,
      "▁prisved": 9135,
      "▁pak": 9136,
      "vela": 9137,
      "řed": 9138,
      "▁kolek": 9139,
      "Jeho": 9140,
      "▁vec,": 9141,
      "piri": 9142,
      "▁opusti": 9143,
      "burg": 9144,
      "▁ulož": 9145,
      "jazy": 9146,
      "▁Stále": 9147,
      "lom.": 9148,
      "\\nsp": 9149,
      "púšť": 9150,
      "▁zápal": 9151,
      "▁ochor": 9152,
      "rových": 9153,
      "▁ste,": 9154,
      "ES": 9155,
      "▁takýto": 9156,
      "▁pracoval": 9157,
      "Mus": 9158,
      "▁premer": 9159,
      "▁prov": 9160,
      "verej": 9161,
      "dza": 9162,
      "▁ticho,": 9163,
      "ňovali": 9164,
      "čist": 9165,
      "mulá": 9166,
      "▁vodou": 9167,
      "▁dodala": 9168,
      "39": 9169,
      "tus": 9170,
      "zápätí": 9171,
      "▁polie": 9172,
      "kovali": 9173,
      "zka": 9174,
      "▁Vôbec": 9175,
      "▁spô": 9176,
      "▁výnim": 9177,
      "▁problemati": 9178,
      "@@@@@?": 9179,
      "-li": 9180,
      "ele": 9181,
      "živo": 9182,
      "čítať": 9183,
      "smial": 9184,
      "▁Ki": 9185,
      "▁Rod": 9186,
      "▁stálo": 9187,
      "triasol": 9188,
      "nil,": 9189,
      "▁nesvr": 9190,
      "▁nevedela": 9191,
      "▁chrbát": 9192,
      "ję": 9193,
      "▁centi": 9194,
      "▁niektorí": 9195,
      "depodobne": 9196,
      "▁Maj": 9197,
      "▁inve": 9198,
      "trvá": 9199,
      "ríkla": 9200,
      "tickú": 9201,
      "▁Kone": 9202,
      "▁zaž": 9203,
      "hnuť": 9204,
      "▁udalosti": 9205,
      "rátko": 9206,
      "niku": 9207,
      "▁lieči": 9208,
      "ieme": 9209,
      "zku": 9210,
      "niť.": 9211,
      "▁postaviť": 9212,
      "mám": 9213,
      "из": 9214,
      "▁kost": 9215,
      "▁mnohí": 9216,
      "▁vzniku": 9217,
      "Pán": 9218,
      "▁vyšli": 9219,
      "kovia": 9220,
      "▁krva": 9221,
      "▁nezvyčaj": 9222,
      "tivá": 9223,
      "rud": 9224,
      "sim": 9225,
      "38": 9226,
      "Ko": 9227,
      "pe.": 9228,
      "▁hodvá": 9229,
      "▁povinnosti": 9230,
      "▁morál": 9231,
      "▁mŕtve": 9232,
      "▁Svet": 9233,
      "▁Micha": 9234,
      "▁atmosfé": 9235,
      "▁písa": 9236,
      "▁vzác": 9237,
      "▁Zav": 9238,
      "\\n\\n\\n######": 9239,
      "▁chcieť": 9240,
      ".\\nOd": 9241,
      "▁výnimo": 9242,
      "Naozaj": 9243,
      "▁anje": 9244,
      "▁bun": 9245,
      "▁približne": 9246,
      "▁laborat": 9247,
      "▁rieky": 9248,
      "▁prípade,": 9249,
      "▁Mohol": 9250,
      "▁kultúr": 9251,
      "u.\"\\n": 9252,
      "▁reštaurá": 9253,
      "▁Nakoniec": 9254,
      "▁požiadal": 9255,
      "▁do­": 9256,
      "▁septem": 9257,
      "ký,": 9258,
      "▁vyjadr": 9259,
      "▁pomohol": 9260,
      "▁lásk": 9261,
      "▁hrudi": 9262,
      "ajúcich": 9263,
      "▁nepovedal": 9264,
      "tia,": 9265,
      "▁osoba": 9266,
      "▁Andre": 9267,
      "ция": 9268,
      "▁aÂ": 9269,
      "▁Také": 9270,
      "▁pokrčil": 9271,
      "rou,": 9272,
      "▁(R": 9273,
      "▁dôvodu": 9274,
      "tiš": 9275,
      "▁všeli": 9276,
      "▁zmluv": 9277,
      "EM": 9278,
      "tech": 9279,
      "▁nepozn": 9280,
      "▁vzťahy": 9281,
      "▁dvoji": 9282,
      "▁are": 9283,
      "▁slovami": 9284,
      "známi": 9285,
      "dieť": 9286,
      "▁uzná": 9287,
      "vač": 9288,
      "▁nadhodno": 9289,
      "www.": 9290,
      "ht": 9291,
      "▁tried": 9292,
      "atie": 9293,
      "ovej,": 9294,
      "▁dlho,": 9295,
      "točný": 9296,
      "▁Musí": 9297,
      "▁takýchto": 9298,
      "▁mys": 9299,
      "▁James": 9300,
      "▁sám,": 9301,
      "▁naklo": 9302,
      "▁„Č": 9303,
      "▁hrdin": 9304,
      "xí": 9305,
      "▁obál": 9306,
      "▁Kol": 9307,
      "▁rozd": 9308,
      "▁Ona": 9309,
      "lebo": 9310,
      "kulá": 9311,
      "▁príbe": 9312,
      "\\nb": 9313,
      "▁chlie": 9314,
      "▁katolí": 9315,
      "▁nazd": 9316,
      "▁zasmial": 9317,
      "mlu": 9318,
      "▁vyskočil": 9319,
      "▁Harry.": 9320,
      "▁robili": 9321,
      "▁dostatočne": 9322,
      "37": 9323,
      "ři": 9324,
      "▁zázra": 9325,
      "▁text": 9326,
      "▁nebezpečenstvo": 9327,
      "bať": 9328,
      "▁opráv": 9329,
      "▁Ach,": 9330,
      "▁podnika": 9331,
      "Lebo": 9332,
      "Ani": 9333,
      "am.": 9334,
      "znať,": 9335,
      "▁čas.": 9336,
      "▁kuf": 9337,
      "atívne": 9338,
      "▁Amer": 9339,
      "▁oba": 9340,
      "▁zlodej": 9341,
      "▁NA": 9342,
      "▁(199": 9343,
      "\\n\\nB": 9344,
      "▁„J": 9345,
      "▁Lang": 9346,
      "▁vyst": 9347,
      "▁Rober": 9348,
      "▁áno.": 9349,
      "▁Štef": 9350,
      "▁schodi": 9351,
      "lyn": 9352,
      "▁poži": 9353,
      "▁Nemá": 9354,
      "štruk": 9355,
      "▁те": 9356,
      "▁uprene": 9357,
      "▁teku": 9358,
      "rant": 9359,
      "▁krk": 9360,
      "zin": 9361,
      "▁pomôže": 9362,
      ")_\\n": 9363,
      "ót": 9364,
      "▁neznamen": 9365,
      "▁zrkad": 9366,
      "▁Ky": 9367,
      "▁všimol": 9368,
      "nej\\n": 9369,
      "▁obľúb": 9370,
      "▁Musel": 9371,
      "▁nud": 9372,
      "▁chvo": 9373,
      "asley": 9374,
      "▁múze": 9375,
      "kla.": 9376,
      "▁pocítil": 9377,
      "▁odišla": 9378,
      "▁argumen": 9379,
      "▁pravej": 9380,
      "Naj": 9381,
      "▁bezmoc": 9382,
      "▁ма": 9383,
      "znať": 9384,
      "▁alterna": 9385,
      "31": 9386,
      "▁poto": 9387,
      "amozrejme,": 9388,
      "niesť": 9389,
      "▁čierny": 9390,
      "▁Samozrejme,": 9391,
      "▁rodič": 9392,
      "▁zvláštne": 9393,
      "drž": 9394,
      "▁krajine": 9395,
      "▁ľahostaj": 9396,
      "veď": 9397,
      "pravo": 9398,
      "▁príťaž": 9399,
      "▁zvyšok": 9400,
      "vode": 9401,
      "▁Pokiaľ": 9402,
      "▁prikýv": 9403,
      "▁dě": 9404,
      "▁zdrž": 9405,
      "▁líca": 9406,
      "▁kniž.": 9407,
      "kí": 9408,
      "▁Jer": 9409,
      "▁kilometrov": 9410,
      "ĹĄ": 9411,
      "▁Zak": 9412,
      "Potom": 9413,
      "▁počula": 9414,
      "▁chi": 9415,
      "▁pochopil,": 9416,
      "▁vlastným": 9417,
      "▁vyčerp": 9418,
      "▁hostin": 9419,
      "▁Nebol": 9420,
      "▁slovan": 9421,
      "nový": 9422,
      "▁mesa": 9423,
      "▁nezaujím": 9424,
      "▁komplex": 9425,
      "▁akom": 9426,
      "▁Muž": 9427,
      "зы": 9428,
      "lak": 9429,
      "▁umie": 9430,
      "▁hrať": 9431,
      "▁väčšinou": 9432,
      "vený": 9433,
      "▁nevyhnut": 9434,
      "при": 9435,
      "točné": 9436,
      "níci,": 9437,
      "▁fu": 9438,
      "▁väčší": 9439,
      "amät": 9440,
      "▁Richard": 9441,
      "▁37": 9442,
      "▁nápis": 9443,
      "služ": 9444,
      "▁samého": 9445,
      "▁múdro": 9446,
      "gn": 9447,
      "▁namá": 9448,
      "▁budúcnosti": 9449,
      "ylo": 9450,
      "▁ling": 9451,
      "36": 9452,
      "▁Dol": 9453,
      "▁kot": 9454,
      "Bude": 9455,
      "no": 9456,
      "▁sústav": 9457,
      "▁automa": 9458,
      "▁roka": 9459,
      "pravod": 9460,
      "▁čisto": 9461,
      "▁_~_": 9462,
      "▁obdobia": 9463,
      "stná": 9464,
      "▁zví": 9465,
      "▁mesiacov": 9466,
      "▁zmät": 9467,
      "vra": 9468,
      "li": 9469,
      "ieľ": 9470,
      ".\\nF": 9471,
      "▁J.:": 9472,
      "še,": 9473,
      "loží": 9474,
      "▁rozpa": 9475,
      "▁zhlboka": 9476,
      "▁skrom": 9477,
      "▁pätnásť": 9478,
      "▁Zas": 9479,
      "▁novin": 9480,
      "▁4,": 9481,
      "▁nezi": 9482,
      "▁vyhľad": 9483,
      "áž": 9484,
      "tiek": 9485,
      "▁sv.": 9486,
      "▁odišli": 9487,
      "▁majetok": 9488,
      "\\nt": 9489,
      "ológi": 9490,
      "▁stave": 9491,
      ",_\\n": 9492,
      "▁vče": 9493,
      "▁podot": 9494,
      "xxx": 9495,
      "▁я": 9496,
      "▁Ter": 9497,
      "rela.": 9498,
      "▁druž": 9499,
      "ges": 9500,
      "▁Sil": 9501,
      "láda": 9502,
      "▁chlapí": 9503,
      "▁zvedav": 9504,
      "tinu": 9505,
      "▁sveta,": 9506,
      "▁program": 9507,
      "▁dovolen": 9508,
      "▁zal": 9509,
      "▁obil": 9510,
      "jaké": 9511,
      "▁Mojžiš": 9512,
      "▁nich,": 9513,
      "▁noc,": 9514,
      "▁osobne": 9515,
      "\\nJ": 9516,
      "\\n\\nT": 9517,
      "▁igno": 9518,
      "▁právom": 9519,
      "▁neodpoved": 9520,
      "rni": 9521,
      "rátila": 9522,
      "▁najstar": 9523,
      "▁nohu": 9524,
      "▁lásky": 9525,
      "ýtal": 9526,
      "robili": 9527,
      "▁nechcela": 9528,
      "▁úrovni": 9529,
      "kať,": 9530,
      "▁Hla": 9531,
      "▁gom": 9532,
      "▁nedot": 9533,
      "▁otázku,": 9534,
      "▁z|": 9535,
      "▁B.": 9536,
      "▁spách": 9537,
      "▁vy,": 9538,
      "▁spr": 9539,
      "▁cudzí": 9540,
      "▁Predpoklad": 9541,
      "▁predaj": 9542,
      "▁fas": 9543,
      "▁skúsenosti": 9544,
      "▁niekým": 9545,
      "▁revolú": 9546,
      "▁nová": 9547,
      "▁okien": 9548,
      "tila.": 9549,
      "▁Phoe": 9550,
      "▁jednak": 9551,
      ".\\r\\n–": 9552,
      "▁knihe": 9553,
      "▁politických": 9554,
      "išla": 9555,
      "▁Otec": 9556,
      "▁sobo": 9557,
      "▁deti,": 9558,
      "fón": 9559,
      "▁vesel": 9560,
      "▁вы": 9561,
      "▁zápä": 9562,
      "▁väčšie": 9563,
      "▁hlás": 9564,
      "\\n\\nob": 9565,
      "нј": 9566,
      "\\n\\nD": 9567,
      "▁privie": 9568,
      "▁Mad": 9569,
      "2-": 9570,
      "▁zme": 9571,
      "▁tí,": 9572,
      "rie,": 9573,
      "▁vyhŕ": 9574,
      "▁prezident": 9575,
      "▁pozoru": 9576,
      "▁akých": 9577,
      "▁okrú": 9578,
      "▁zať": 9579,
      "▁IS": 9580,
      "▁odpovedala": 9581,
      "▁Niečo": 9582,
      "▁kamarát": 9583,
      "▁blesk": 9584,
      "▁rozdelen": 9585,
      "▁bom": 9586,
      "▁doprav": 9587,
      "ejšie": 9588,
      "▁sebou,": 9589,
      "|2": 9590,
      "oviet": 9591,
      "▁nespom": 9592,
      "▁zopakoval": 9593,
      "rám": 9594,
      "▁Namiesto": 9595,
      "▁F.": 9596,
      "▁dobrod": 9597,
      "▁určité": 9598,
      "▁človeku": 9599,
      "Ná": 9600,
      "▁práce.": 9601,
      "kám": 9602,
      "▁schodoch": 9603,
      "ovy": 9604,
      "daje": 9605,
      ",\\n_": 9606,
      "▁trh": 9607,
      "▁plecami.": 9608,
      "APITOLA": 9609,
      "▁dvak": 9610,
      "cis": 9611,
      "▁pokus": 9612,
      "sta,": 9613,
      "pus": 9614,
      "▁manželka": 9615,
      "▁zmluvy": 9616,
      "▁organiza": 9617,
      "▁držala": 9618,
      "­vo": 9619,
      "▁jediným": 9620,
      "▁rodičov": 9621,
      "▁priveľa": 9622,
      "US": 9623,
      "▁m**\\n**": 9624,
      "▁jednotlivé": 9625,
      "\\nZ": 9626,
      "▁Mlad": 9627,
      "if": 9628,
      "ýchod": 9629,
      "gypt": 9630,
      "▁pojem": 9631,
      "▁doh": 9632,
      "nár": 9633,
      "▁Šp": 9634,
      "▁dvanásť": 9635,
      "ду": 9636,
      "▁ol": 9637,
      "▁prehľad": 9638,
      "▁vode": 9639,
      "▁inde": 9640,
      "▁21": 9641,
      "▁Musíme": 9642,
      "▁kývol": 9643,
      "gé": 9644,
      "3)": 9645,
      "ers": 9646,
      "ný:": 9647,
      "▁žud": 9648,
      "▁Bru": 9649,
      "▁nedalo": 9650,
      "uli": 9651,
      "▁mode": 9652,
      "▁Neviem,": 9653,
      "árne": 9654,
      "▁čerst": 9655,
      "wie": 9656,
      "▁mní": 9657,
      "rodi": 9658,
      "bin": 9659,
      "byť": 9660,
      "сс": 9661,
      "▁otvorené": 9662,
      "zrač": 9663,
      "▁jam": 9664,
      "▁hlase": 9665,
      "▁strana": 9666,
      "▁vyhlásila": 9667,
      "XX": 9668,
      "lánok": 9669,
      "▁dispozí": 9670,
      "▁zašepkala": 9671,
      "rô": 9672,
      "ür": 9673,
      "steho": 9674,
      "-l": 9675,
      "či,": 9676,
      "tiahli": 9677,
      "niž": 9678,
      ".\\n\\n\\n\\n\\n\\n": 9679,
      "▁náznak": 9680,
      "▁Ivan": 9681,
      "▁Amy": 9682,
      "▁obsad": 9683,
      "▁záväz": 9684,
      "▁otcovi": 9685,
      "▁vykríkol": 9686,
      "чё": 9687,
      "▁pris": 9688,
      "▁prišlo": 9689,
      "▁Azda": 9690,
      "▁Ježiš": 9691,
      "▁diela": 9692,
      "▁robia": 9693,
      "▁všetko.": 9694,
      "▁povola": 9695,
      "▁cit": 9696,
      "▁plášť": 9697,
      "▁piv": 9698,
      "▁tráp": 9699,
      "fr": 9700,
      "▁zjedno": 9701,
      ".\\nPod": 9702,
      "valil": 9703,
      "▁dôchod": 9704,
      "-y": 9705,
      "▁si\\n": 9706,
      "rží": 9707,
      "zii": 9708,
      "▁Er": 9709,
      "▁chlapci": 9710,
      "же": 9711,
      "▁doraz": 9712,
      ".“\\nV": 9713,
      "▁polno": 9714,
      "▁absolútne": 9715,
      "]_": 9716,
      "ode": 9717,
      "▁inom": 9718,
      "lučne": 9719,
      ".\\n„T": 9720,
      "bár": 9721,
      "▁vyhýb": 9722,
      "▁látky": 9723,
      "▁Burger": 9724,
      "▁39": 9725,
      "▁_m": 9726,
      "▁nemáme": 9727,
      "▁Ľudia": 9728,
      "vlast": 9729,
      "▁šli": 9730,
      "▁žar": 9731,
      "▁proku": 9732,
      "▁situácia": 9733,
      "▁oblú": 9734,
      "▁Dobre": 9735,
      "▁starší": 9736,
      "▁veci.": 9737,
      "visti": 9738,
      "▁zoznam": 9739,
      "š?": 9740,
      "▁zatvor": 9741,
      "@@@@@@?": 9742,
      "tie,": 9743,
      "▁trú": 9744,
      "▁myslíš,": 9745,
      "▁unik": 9746,
      "▁stráv": 9747,
      "▁Mac": 9748,
      "alizmu": 9749,
      "lovať": 9750,
      "▁Dan": 9751,
      "▁oble": 9752,
      "▁protiv": 9753,
      "▁hľadal": 9754,
      "рќ": 9755,
      "▁sé": 9756,
      "▁trom": 9757,
      "▁neisto": 9758,
      "sťou,": 9759,
[...]
